a 52411
. 29364
in 15833
the 11762
on 8702
man 8224
is 7994
and 7854
of 7358
with 6646
woman 4227
, 4185
two 4118
are 3951
to 3329
people 3308
an 3131
at 3114
wearing 2750
young 2406
white 2372
shirt 2213
black 2132
his 2107
while 2056
blue 1999
men 1869
sitting 1843
red 1837
girl 1826
dog 1809
boy 1780
standing 1710
playing 1683
group 1648
street 1553
down 1491
walking 1474
front 1360
her 1337
holding 1302
one 1155
water 1147
by 1144
three 1110
women 1045
up 997
green 977
little 956
for 947
as 945
child 944
looking 928
large 917
outside 915
through 872
yellow 833
brown 817
children 816
person 816
ball 786
from 780
their 764
hat 759
into 753
small 731
other 710
next 697
out 678
dressed 671
over 661
some 661
building 646
running 623
riding 617
near 604
around 599
another 586
jacket 585
beach 566
sidewalk 563
field 562
orange 551
crowd 548
jumping 527
pink 527
stands 525
sits 517
behind 516
table 511
background 500
snow 497
grass 495
girls 486
city 476
stand 476
bike 473
&apos;s 471
air 459
top 452
player 451
wall 448
looks 447
several 431
dogs 428
that 426
older 425
four 424
off 416
camera 413
park 410
dress 410
talking 408
along 406
soccer 398
something 397
lady 394
walks 391
hair 386
working 383
play 381
boys 378
together 378
guitar 377
smiling 372
car 368
food 367
game 367
has 365
it 364
road 361
gray 359
picture 359
hand 352
plays 349
bench 340
Asian 340
holds 335
old 332
side 329
stage 327
glasses 322
him 322
pants 320
sit 319
shorts 318
carrying 315
walk 315
couple 312
baby 309
them 308
tree 306
bicycle 304
face 304
race 302
taking 302
&quot; 294
each 294
pool 292
male 292
rock 291
doing 286
boat 283
watching 281
across 280
dirt 278
there 277
head 274
area 273
jeans 272
day 270
guy 268
back 265
blond 264
room 262
ground 262
hands 261
performing 260
jumps 258
baseball 257
being 255
suit 253
coat 251
female 251
eating 248
who 247
football 247
many 246
using 245
striped 244
ed 244
its 243
mouth 243
under 241
purple 240
horse 240
mountain 237
watch 237
kids 236
band 236
long 235
store 233
sand 230
sign 229
or 228
this 227
look 227
he 226
dark 225
runs 224
players 224
sunglasses 223
trees 220
construction 218
microphone 217
tennis 217
reading 216
clothing 215
middle 212
during 211
workers 207
basketball 207
uniform 206
ocean 206
toy 202
climbing 201
watches 201
elderly 199
past 199
helmet 198
against 198
dancing 197
restaurant 197
train 197
be 196
covered 195
t-shirt 195
work 194
window 193
rides 193
wooden 191
they 191
about 189
re@@ 189
team 189
posing 187
chair 187
all 186
floor 185
outdoor 184
very 183
swimming 183
bag 183
waiting 182
-@@ 182
having 181
line 181
colorful 178
shirts 177
five 176
getting 176
e@@ 175
trying 175
skateboard 175
busy 173
fence 173
ice 170
jump 168
singing 167
y 167
light 164
hill 163
s@@ 163
S@@ 163
lake 163
ing 162
inside 162
laying 161
path 159
high 159
night 158
bright 158
river 158
ride 158
book 158
cart 157
truck 157
hats 156
tan 156
grassy 156
cap 156
body 155
market 155
making 154
big 152
track 152
clothes 152
es 152
someone 151
others 151
takes 149
kitchen 149
bus 148
brick 148
umbrella 148
cellphone 147
surrounded 147
in@@ 147
towards 146
full 146
outfit 145
motorcycle 145
paper 144
enjoying 143
ready 142
metal 141
piece 139
swing 139
above 138
bridge 138
board 138
colored 138
she 138
going 138
trick 136
s 136
sweater 135
open 134
stick 134
stone 133
tank 133
snowy 132
shop 132
painting 131
adults 131
a@@ 131
worker 131
house 130
ers 130
wave 128
music 127
beside 127
w@@ 126
crowded 126
phone 126
dance 126
onto 126
vest 125
flowers 125
shopping 124
outdoors 123
photo 123
uniforms 123
hard 122
smiles 122
lot 122
run 121
backpack 120
gear 120
pole 120
o@@ 119
like 118
drinking 117
d 116
set 116
toddler 115
kid 115
subway 115
fire 115
hanging 115
ts 115
catch 114
hockey 114
arms 114
ds 114
family 113
fishing 113
costume 113
d@@ 113
forest 113
away 112
event 112
police 111
beautiful 111
gathered 111
ly 110
sleeping 110
bar 110
leaning 109
guys 108
rope 108
rocks 108
fountain 108
stairs 108
preparing 107
object 107
after 107
steps 106
graffiti 106
selling 105
glass 105
tall 104
machine 104
sh@@ 104
take 103
plaid 103
t@@ 103
volleyball 103
racing 103
sky 102
en@@ 102
chairs 102
arm 101
asian 101
shirtless 100
shoes 100
t 99
wood 99
adult 99
un@@ 99
p@@ 99
parade 99
k@@ 98
sunny 98
throwing 98
er 98
view 98
mountains 98
er@@ 98
setting 97
does 97
corner 97
ling 96
African 96
putting 96
pushing 95
pose 95
ting 95
public 94
p 94
2 94
between 94
have 93
bed 93
ramp 93
g@@ 93
American 92
short 92
drink 92
woods 92
sun 91
plastic 91
fish 91
slide 91
st 91
reads 91
both 91
flag 90
ding 90
couch 90
equipment 90
pictures 90
an@@ 90
skirt 89
laughing 89
ladies 89
m 89
poses 89
computer 89
party 89
instruments 88
concrete 88
b@@ 88
statue 88
lo@@ 88
winter 88
buildings 87
sweatshirt 87
bikes 87
which 86
cowboy 86
trail 86
distance 86
way 85
beard 85
playground 84
ti@@ 84
get 84
rider 84
yard 84
toward 83
i@@ 83
just 83
midair 83
ri@@ 83
der 83
C@@ 82
shore 82
seated 82
pe@@ 82
number 82
dock 81
cooking 81
y@@ 81
what 81
bags 81
crossing 80
cars 80
lined 80
flying 79
where 79
filled 79
beer 78
works 78
attire 78
cross 78
instrument 78
horses 78
mother 78
six 78
appears 78
de@@ 78
leaves 78
rocky 77
al@@ 77
vests 77
left 77
cliff 77
P@@ 77
cutting 77
ro@@ 77
tent 77
arts 77
king 77
make 77
di@@ 77
showing 76
li@@ 76
blond-hair 76
pulling 76
ar@@ 76
spectators 76
o 76
st@@ 76
few 76
show 76
painted 75
parked 75
nearby 75
right 75
ps 75
flower 75
friends 75
middle-aged 75
station 74
edge 74
art 74
skateboarder 74
door 74
carries 74
apron 74
Frisbee 74
g 74
A@@ 74
jersey 74
B@@ 74
dresses 74
shot 74
court 74
po@@ 74
driving 73
bearded 73
fruit 73
ex@@ 73
ks 73
la@@ 73
scarf 73
net 73
k 73
performs 73
l 73
snowboarder 73
structure 72
cream 72
T@@ 72
lying 72
school 72
box 72
concert 71
bowling 71
parking 71
perform 71
coming 71
time 71
smile 71
grill 70
son 70
wet 70
home 70
vendor 70
lit 70
M@@ 69
cup 69
bird 69
suits 69
drums 69
various 69
boots 69
surfer 69
vehicle 68
flags 68
D@@ 68
paint 68
goggles 68
younger 68
martial 68
empty 68
smoking 68
rain 68
scene 67
hand@@ 67
competition 67
eyes 67
cigarette 67
rodeo 67
gentleman 66
hit 66
bucket 66
listening 66
practicing 66
cement 66
led 66
coffee 65
u@@ 65
kicking 65
ra@@ 65
bottle 65
swinging 65
costumes 65
talks 65
prepares 65
sc@@ 65
students 65
cake 64
G@@ 64
waves 64
safety 64
bathing 64
roof 64
at@@ 64
r@@ 64
newspaper 64
jackets 64
H@@ 64
ladder 63
conversation 63
different 63
audience 63
no 63
items 63
onlookers 63
skateboarding 63
staring 63
competing 63
class 62
bunch 62
facing 62
ba@@ 62
railing 62
gather 62
el@@ 62
sunset 62
military 62
uses 62
bull 62
biker 62
cleaning 61
i 61
al 61
blanket 61
bikini 61
sliding 61
tries 61
bicycles 61
giving 61
l@@ 61
ted 61
hold 61
m@@ 61
gloves 61
drinks 61
si@@ 61
sports 61
gets 61
hot 61
bowl 60
stop 60
lawn 60
can 60
3 60
bu@@ 60
feet 60
match 60
chasing 60
pointing 60
before 60
desk 60
balloon 59
leaps 59
ation 59
meal 59
pile 59
or@@ 59
streets 59
vegetables 59
teams 59
walkway 58
pre@@ 58
platform 58
gathering 58
lights 58
display 58
ca@@ 58
place 58
bride 57
ins 57
f@@ 57
huge 57
pass 57
ping 57
surfing 57
mask 57
se@@ 56
wedding 56
seen 56
skier 56
ve 56
ter 56
Indian 56
on@@ 56
classroom 56
speaking 56
surfboard 56
marathon 56
fighting 55
wait 55
climbs 55
silver 55
e 55
do 55
ch 55
country 55
kissing 55
ated 55
counter 55
screen 55
ded 55
h@@ 55
helmets 55
throw 55
over@@ 55
gold 55
animal 55
basket 55
purse 54
tie 54
urban 54
be@@ 54
go 54
skating 54
ski 54
sing 54
sings 54
musicians 54
talk 53
pro@@ 53
site 53
break 53
F@@ 53
alley 53
pa@@ 53
traditional 53
same 53
runner 53
waits 53
co@@ 53
stroller 52
overlooking 52
hole 52
scooter 52
legs 52
le@@ 52
sort 52
father 51
rail 51
lap 51
course 51
blowing 51
ches 51
attempting 51
violin 51
females 51
tables 50
made 50
asleep 50
shoulder 50
kneeling 50
ls 50
outfits 50
artist 50
ea@@ 50
mirror 50
se 50
signs 50
w 49
waving 49
blond-haired 49
faces 49
brunette 49
bald 49
mo@@ 49
officer 49
end 49
writing 49
skate 49
headphones 49
ker 48
it@@ 48
ating 48
balloons 48
le 48
bubbles 48
fla@@ 48
says 48
happy 48
ders 48
business 48
sa@@ 48
alone 47
electric 47
swim 47
ster 47
snow@@ 47
per@@ 47
to@@ 47
swings 47
leg 47
ck 47
ses 47
base 47
en 47
sh 47
close 47
teenage 46
church 46
sticks 46
among 46
brightly 46
makes 46
plate 46
lone 46
collar 46
dancers 46
foreground 46
gym 46
life 46
giant 45
leans 45
ta@@ 45
cre@@ 45
mud 45
do@@ 45
fixing 45
dirty 45
ma@@ 45
helping 45
toys 45
clown 45
balls 45
meat 45
diving 45
barefoot 45
les 45
hiking 45
shallow 45
th@@ 45
leather 45
passing 45
skiing 45
umbrellas 45
traffic 45
R@@ 45
wears 45
O@@ 45
multicolored 44
van 44
below 44
washing 44
et@@ 44
ons 44
row 44
sandals 44
desert 44
enjoy 44
ke 44
sk@@ 44
friend 44
officers 44
ked 44
office 44
low 44
falling 44
stadium 44
con@@ 44
ear 44
eat 44
op@@ 44
ad@@ 44
doorway 44
L@@ 44
ic@@ 44
goal 43
dark-haired 43
ap@@ 43
ce 43
kick 43
cur@@ 43
ved 43
held 43
b 43
leash 43
ring 43
E@@ 43
paved 43
musical 43
deep 43
heads 43
ate 43
foot 43
n 43
tattoo 42
so@@ 42
resting 42
moving 42
et 42
golf 42
ching 42
gu@@ 42
pier 42
N@@ 42
cu@@ 42
ic 42
picking 42
photographer 42
performance 42
we@@ 41
new 41
singer 41
reaching 41
video 41
car@@ 41
gs 41
flip 41
sled 41
garden 41
; 41
cafe 41
wheel 41
laptop 41
hoodie 41
vi@@ 41
bat 41
n@@ 41
pping 41
canoe 41
stunt 41
flies 41
males 40
catching 40
turn 40
rolling 40
ched 40
drawing 40
me@@ 40
tunnel 40
move 40
cra@@ 40
gives 40
accordion 40
fun 40
sp@@ 40
conversing 40
throws 40
members 40
drum 40
teeth 40
daughter 40
leaping 40
block 40
coats 40
digging 40
well 40
sts 40
sweeping 39
am@@ 39
hose 39
sculpture 39
hugging 39
atop 39
wear 39
shovel 39
Christmas 39
shows 39
el 39
als 39
climb 39
cat 39
tricks 39
waterfall 39
chef 39
town 39
relaxing 39
ws 39
bicyclist 39
photograph 39
here 39
su@@ 38
prepare 38
lab 38
local 38
ely 38
roller 38
how 38
wrestling 38
catches 38
microscope 38
upside 38
cold 38
ac@@ 38
passes 38
go@@ 38
v@@ 38
ss 38
closed 38
robe 38
tire 38
c 38
cloth 38
plants 38
pond 37
sleeps 37
trunks 37
cyclist 37
opposing 37
karate 37
hi@@ 37
shoulders 37
um@@ 37
lots 37
carnival 37
mural 37
Chinese 37
stream 37
beige 37
ble 37
neck 37
chi@@ 37
4 37
style 37
underneath 37
em@@ 37
tra@@ 36
no@@ 36
individuals 36
jogging 36
cane 36
ol@@ 36
project 36
without 36
customers 36
ates 36
these 36
dances 36
bicyclists 36
splashing 36
c@@ 36
waters 36
telescope 36
W@@ 36
formal 36
gun 36
points 36
landscape 36
performer 36
clear 36
stuffed 35
gate 35
driver 35
booth 35
crosswalk 35
mat 35
crying 35
ch@@ 35
back@@ 35
&apos; 35
cut 35
I@@ 35
hiker 35
fight 35
trampoline 35
cloudy 35
par@@ 35
fallen 35
tu@@ 35
mar@@ 35
shoe 35
dancer 35
produce 35
cyclists 35
runners 35
lays 34
circle 34
picnic 34
log 34
sandy 34
per 34
rest 34
boats 34
straw 34
themselves 34
sea@@ 34
pulled 34
infant 34
goes 34
wooded 34
bar@@ 34
K@@ 34
square 34
dinner 34
sw@@ 34
ous 34
U@@ 34
makeup 34
hoop 34
d-@@ 34
matching 34
ves 34
lunch 34
attempts 34
third 34
bo@@ 34
including 34
us 34
surface 34
taken 34
staircase 33
covering 33
ans 33
ery 33
sewing 33
pped 33
hammer 33
books 33
cted 33
nose 33
center 33
tracks 33
trash 33
balcony 33
help 33
pedestrians 33
racket 33
ning 33
windows 33
deck 33
ge@@ 33
pitcher 33
ined 32
boxes 32
blouse 32
himself 32
seven 32
hikers 32
softball 32
chases 32
wi@@ 32
z@@ 32
ying 32
indoor 32
cow 32
porch 32
device 32
lift 32
athlete 32
dd@@ 32
pulls 32
slope 32
ging 32
birds 32
teenagers 32
wrapped 32
pushes 32
sting 32
ir@@ 32
me 32
festival 32
palm 32
dra@@ 32
grocery 32
marching 32
cheerleaders 32
speaks 32
ru@@ 32
not 31
puts 31
skis 31
gymnast 31
ledge 31
land 31
cor@@ 31
head@@ 31
de 31
heavy 31
opening 31
drives 31
shaking 31
mi@@ 31
nap 31
pu@@ 31
foreign 31
steep 31
kind 31
il@@ 31
ler 30
overalls 30
plane 30
kayak 30
pan@@ 30
wetsuit 30
ship 30
curb 30
try 30
puddle 30
bent 30
moves 30
club 30
shed 30
type 30
see 30
swims 30
ine 30
round 30
kes 30
lea@@ 30
cones 30
shaving 30
colors 30
ne@@ 30
teenager 30
poles 29
sheet 29
pouring 29
sm@@ 29
nice 29
evening 29
paddling 29
seat 29
jean 29
ped 29
kicks 29
reaches 29
luggage 29
bank 29
pot 29
gentlemen 29
fall 29
gra@@ 29
blocks 29
red-hair 29
ci@@ 29
enjoys 29
lies 29
ger 29
ors 29
wheelchair 29
pair 29
fingers 29
cal 29
he@@ 29
checking 29
opposite 29
attached 29
hangs 29
pl@@ 29
sea 29
raft 29
ty 29
mat@@ 29
robes 29
shooting 29
motorcycles 29
t-@@ 29
riders 29
ment 29
airplane 29
bro@@ 29
ho@@ 29
sale 28
guard 28
mound 28
shoveling 28
dri@@ 28
red-haired 28
denim 28
sun@@ 28
brown-haired 28
pi@@ 28
railroad 28
tops 28
protective 28
cking 28
living 28
either 28
ful 28
khaki 28
garb 28
string 28
wa@@ 28
soldier 28
laugh 28
fi@@ 28
hurdle 28
fast 28
fabric 28
bri@@ 28
arena 28
poster 28
podium 28
soldiers 28
skirts 28
image 28
piano 28
laundry 28
rugby 28
tractor 27
j@@ 27
happily 27
part 27
goalie 27
eats 27
inflatable 27
clean 27
frame 27
bread 27
walls 27
eye 27
juggling 27
stool 27
ings 27
floating 27
inter@@ 27
step 27
che@@ 27
tube 27
groom 27
backyard 27
gre@@ 27
balancing 27
put 27
knee 27
camouflage 27
fair 27
golden 27
fans 27
pavement 27
oriental 27
bottom 27
flight 27
bat@@ 27
jerseys 27
pipe 27
hula 27
backwards 26
ars 26
color 26
flo@@ 26
courtyard 26
tri@@ 26
col@@ 26
our 26
shade 26
du@@ 26
bi@@ 26
plant 26
5 26
multiple 26
caught 26
keyboard 26
closeup 26
lar 26
ni@@ 26
wine 26
water@@ 26
tongue 26
stra@@ 26
garbage 26
bra@@ 26
buying 26
saxophone 26
rests 26
man@@ 26
curly 26
socks 26
ss@@ 26
ad 26
fresh 26
stri@@ 26
hay 26
ces 26
om@@ 26
ce@@ 26
use 26
ears 26
polo 26
pajamas 26
you 25
plaza 25
crouches 25
kneels 25
things 25
bikers 25
fenced 25
scaffolding 25
carriage 25
swimsuit 25
underwater 25
escalator 25
cting 25
cheering 25
gr@@ 25
pit 25
student 25
ms 25
motocross 25
ter@@ 25
musician 25
bl@@ 25
serving 25
dry 25
ity 25
ai@@ 25
ner 25
post 25
laughs 25
shaped 25
appear 25
touching 25
spi@@ 25
suspended 25
frisbee 25
kiss 25
y-@@ 25
towel 25
ck@@ 25
New 25
married 25
shown 25
wh@@ 25
r 25
professional 25
goods 25
sell 25
x 25
guitars 25
sporting 25
american 25
J@@ 24
advertisement 24
magazine 24
bles 24
dining 24
hood 24
direction 24
surf 24
tools 24
ish 24
animals 24
hooded 24
pri@@ 24
welding 24
floral 24
lan@@ 24
com@@ 24
ters 24
long-haired 24
acoustic 24
backpacks 24
bucking 24
boards 24
narrow 24
marketplace 24
pin@@ 24
des 24
av@@ 24
els 24
cks 24
checkered 24
thrown 24
spray 24
hallway 24
paints 24
pos@@ 24
sli@@ 24
bandanna 24
decorated 24
ering 24
chain 24
sted 24
sets 24
Santa 24
opponent 24
native 24
start 24
est 24
jo@@ 24
age 24
stove 23
neon 23
read 23
wing 23
sol@@ 23
ary 23
squ@@ 23
raised 23
obstacle 23
print 23
ming 23
climber 23
cam@@ 23
vehicles 23
brushing 23
bubble 23
money 23
candy 23
rowing 23
gravel 23
min@@ 23
benches 23
gh@@ 23
seems 23
te@@ 23
harness 23
ver@@ 23
compete 23
range 23
figure 23
ar 23
amusement 23
bending 23
action 23
airport 23
feeding 23
craft 23
aring 23
sheep 23
German 23
tre@@ 23
branch 23
heels 23
pine 23
button 23
only 23
sink 23
policeman 23
sta@@ 23
presentation 23
sharing 23
sticking 23
ou@@ 23
wagon 23
bushes 22
operating 22
entrance 22
grilling 22
brea@@ 22
tub 22
firefighters 22
ens 22
dish 22
shes 22
fro@@ 22
brush 22
mom 22
tw@@ 22
amp 22
bs 22
ill 22
Japanese 22
attempt 22
participating 22
hitting 22
turning 22
half 22
individual 22
cone 22
snowboarding 22
wire 22
tents 22
bars 22
good 22
pen 22
! 22
cha@@ 22
can@@ 22
muddy 22
id 22
orchestra 22
fly 22
teacher 22
V@@ 22
ered 22
York 22
cked 22
referee 22
I 22
bathroom 22
herself 22
da@@ 22
athletic 22
bow 22
smoke 22
sport 22
trumpet 22
ght 22
e-@@ 22
examining 22
qu@@ 21
also 21
ropes 21
machinery 21
barbecue 21
map 21
song 21
lane 21
discussion 21
pes 21
ceiling 21
passengers 21
garage 21
but 21
leading 21
summer 21
pit@@ 21
cleans 21
hang 21
routine 21
( 21
eight 21
jumpsuit 21
carpet 21
peace 21
ats 21
bea@@ 21
coach 21
jungle 21
motorcyclist 21
py 21
navy 21
banner 21
long-sleeved 21
out@@ 21
lay 21
racetrack 21
puppy 21
for@@ 21
ines 21
rough 21
tool 21
practice 21
tourists 21
chest 21
first 21
haircut 21
studio 21
bun@@ 21
photographs 21
drummer 21
ur@@ 21
ys 21
turns 21
boun@@ 21
horseback 21
ops 21
ally 21
racer 21
ets 20
ATV 20
duck 20
ges 20
snow-covered 20
intersection 20
boardwalk 20
pull 20
ously 20
dusk 20
card 20
snowboard 20
case 20
dreadlocks 20
swimmer 20
fruits 20
sed 20
act 20
ear@@ 20
) 20
sandwich 20
houses 20
is@@ 20
fe@@ 20
museum 20
celebrating 20
groups 20
observe 20
mobile 20
dro@@ 20
stones 20
stopped 20
bath 20
mustache 20
Y@@ 20
tag 20
indoors 20
dune 20
cardboard 20
cobblestone 20
patio 20
mes 20
bottles 20
hillside 20
calm 20
skateboards 20
scuba 20
dark-skinned 20
ahead 20
college 20
funny 20
wide 20
puck 20
crouching 20
headscarf 20
tattooed 20
speech 20
.@@ 20
chase 20
vendors 20
viewing 20
heart 20
model 20
microphones 20
storefront 20
boxing 20
beam 19
rubber 19
member 19
sword 19
hall 19
cla@@ 19
folding 19
helps 19
come 19
hospital 19
apartment 19
gro@@ 19
baskets 19
container 19
fle@@ 19
buy 19
fencing 19
il 19
sleeveless 19
ge 19
fancy 19
fac@@ 19
barrel 19
tro@@ 19
beverage 19
ati@@ 19
doors 19
A 19
tle 19
sized 19
petting 19
shoot 19
youth 19
uniformed 19
catcher 19
outstretched 19
protest 19
guitarist 19
hoops 19
ent@@ 19
hun@@ 19
ned 19
fix 19
clo@@ 19
nighttime 19
ent 19
more 19
slides 19
polka 19
neighborhood 19
oc@@ 19
tattoos 19
enterta@@ 19
im@@ 19
ag@@ 19
possibly 19
t-shirts 19
leaving 19
maroon 19
f 19
cricket 19
fol@@ 19
unk 19
medical 19
ddle 19
sells 19
speed 19
BMX 19
saw 18
oo@@ 18
she@@ 18
training 18
mixing 18
flipping 18
mall 18
pan 18
ten@@ 18
farm 18
handstand 18
pen@@ 18
cli@@ 18
parents 18
bly 18
backs 18
tile 18
pic@@ 18
clay 18
motorbike 18
ction 18
stroll 18
squatting 18
fluffy 18
stretching 18
rink 18
pick 18
excited 18
rural 18
blows 18
mu@@ 18
balding 18
great 18
fr@@ 18
ser@@ 18
ornate 18
bass 18
lamp 18
pieces 18
firetruck 18
gi@@ 18
cts 18
live 18
position 18
wrestle 18
belt 18
lines 18
item 18
choir 18
ethnic 18
moment 18
float 18
dishes 18
hu@@ 18
thin 18
reach 18
seats 18
buckets 18
bel@@ 18
ste@@ 18
inspecting 18
mostly 18
vely 18
win@@ 18
calf 18
broom 18
pla@@ 18
skates 18
vers 18
jockey 18
surrounding 18
naked 18
1 18
ite 17
tied 17
reflective 17
whilst 17
balance 17
dr@@ 17
hits 17
batter 17
fl@@ 17
doctor 17
oper@@ 17
gas 17
stack 17
motor@@ 17
tor@@ 17
cuts 17
coa@@ 17
derby 17
numerous 17
medi@@ 17
castle 17
T-shirt 17
unicycle 17
discussing 17
crew 17
pots 17
fisherman 17
emergency 17
wheels 17
ver 17
wed 17
coun@@ 17
raises 17
swimmers 17
nets 17
clouds 17
formation 17
tur@@ 17
horn 17
warm 17
ffs 17
spraying 17
snack 17
protesting 17
starting 17
computers 17
vegetable 17
bling 17
pottery 17
bowls 17
hugs 17
ribbon 17
kite 17
ture 17
pe 17
ul@@ 17
ils 17
necklace 17
pat@@ 17
autumn 17
grinding 17
mid 17
stairway 17
headband 17
stre@@ 17
ure 17
br@@ 17
ns 17
dead 17
following 17
stripes 17
stares 17
ff@@ 17
library 17
got 17
turned 17
gymnasium 17
rainy 17
pitch 17
sides 17
cro@@ 17
finish 17
pigeons 17
ban@@ 17
assi@@ 17
her@@ 17
coloring 17
photographed 17
village 17
hel@@ 17
smokes 17
sses 17
leads 17
spinning 17
finger 17
crosses 17
gar@@ 17
lin@@ 17
tourist 17
wings 17
african 17
stru@@ 17
0@@ 17
scenery 17
sand@@ 17
furniture 17
listens 17
hair@@ 17
skaters 17
th 17
defen@@ 17
broken 16
converse 16
candles 16
approaching 16
scra@@ 16
intently 16
trucks 16
chefs 16
skiers 16
chalk 16
elephant 16
spread 16
kers 16
loading 16
crane 16
flip-flops 16
landing 16
&amp; 16
space 16
up@@ 16
lounging 16
ph@@ 16
cle@@ 16
trailer 16
birthday 16
ze 16
control 16
bear 16
ot@@ 16
redheaded 16
folded 16
name 16
we 16
sters 16
1@@ 16
ard 16
trunk 16
balances 16
tan@@ 16
oms 16
been 16
falls 16
raising 16
por@@ 16
television 16
excit@@ 16
ber@@ 16
sweat@@ 16
teammate 16
partially 16
ged 16
engaged 16
observing 16
kn@@ 16
conference 16
overhead 16
plates 16
ave 16
-up 16
fully 16
ise 16
deli@@ 16
peering 16
aged 16
photos 16
ward 16
electronic 16
carving 16
patient 16
hug 16
comfor@@ 16
top@@ 16
cameras 16
te 16
ballerina 16
sofa 16
swe@@ 16
pillow 16
-down 16
fireman 16
sprinkler 16
lifting 16
objects 16
clad 16
hol@@ 16
&apos;t 16
barrier 16
ja@@ 16
ct 16
able 16
homeless 16
performers 16
moped 16
beneath 16
dy 15
slo@@ 15
spotted 15
pow@@ 15
rainbow 15
factory 15
binoculars 15
shovels 15
gers 15
billboard 15
3@@ 15
security 15
steel 15
part@@ 15
regi@@ 15
paddles 15
blo@@ 15
oping 15
odd 15
gg@@ 15
hur@@ 15
dge 15
flowered 15
athletes 15
ies 15
hills 15
Mar@@ 15
gging 15
shining 15
waterway 15
cans 15
but@@ 15
carry 15
directions 15
cru@@ 15
ties 15
cing 15
amongst 15
spe@@ 15
cap@@ 15
ining 15
yel@@ 15
iner 15
coaster 15
scarves 15
called 15
far 15
participate 15
cape 15
casual 15
share 15
tower 15
ages 15
cat@@ 15
Mi@@ 15
apple 15
eling 15
pon@@ 15
skater 15
taxi 15
wife 15
ry 15
splashes 15
char@@ 15
terrain 15
repair 15
instru@@ 15
flips 15
pack 15
straight 15
jewelry 15
backdrop 15
shaved 15
gift 15
tray 15
don@@ 15
upon 15
theater 15
Man 15
drill 15
forward 15
material 15
stare 15
smaller 15
blow 15
barber 15
follows 15
slightly 15
air@@ 15
rows 15
newborn 15
lit@@ 15
ator 15
tex@@ 15
ssed 15
ve@@ 15
fan 15
practices 15
crafts 15
shel@@ 15
hal@@ 15
airborne 15
pretty 15
present 15
run@@ 15
cool 15
stic 15
telephone 15
ger@@ 15
fli@@ 15
liquid 15
aisle 15
advertising 15
thers 15
relax 15
races 15
monument 15
papers 15
corn 15
ue 15
point 15
shades 15
lacrosse 15
shakes 14
wind@@ 14
black@@ 14
tal@@ 14
ght@@ 14
biking 14
donkey 14
silly 14
eye@@ 14
ills 14
engine 14
tending 14
sco@@ 14
ju@@ 14
lers 14
eds 14
repairs 14
ig@@ 14
check 14
caps 14
job 14
customer 14
cook 14
shoreline 14
fake 14
hap@@ 14
tail 14
push 14
ush 14
shops 14
bur@@ 14
sn@@ 14
book@@ 14
bow@@ 14
order 14
oven 14
heading 14
my 14
sau@@ 14
puppies 14
angel 14
weaving 14
bin 14
har@@ 14
praying 14
lem@@ 14
firemen 14
wading 14
ke@@ 14
free 14
interacting 14
guns 14
sel@@ 14
bite 14
attention 14
lu@@ 14
repairing 14
teaching 14
cards 14
placing 14
machines 14
downtown 14
played 14
keep 14
creek 14
the@@ 14
receiving 14
ant 14
if 14
ced 14
most 14
drive 14
weather 14
still 14
uni@@ 14
consisting 14
modern 14
fur 14
let@@ 14
guards 14
lounge 14
cups 14
passenger 14
glove 14
lifted 14
ants 14
dding 14
so 14
waterfront 14
glo@@ 14
bouquet 14
tow@@ 14
vie@@ 14
comes 14
camel 14
span@@ 14
scre@@ 14
exercise 14
ran@@ 14
attending 14
overweight 14
used 14
sailing 14
tes 14
deer 14
sneakers 14
admiring 14
London 14
observes 13
ballet 13
studying 13
kno@@ 13
ple 13
camping 13
tr@@ 13
bamboo 13
tropical 13
four@@ 13
wn 13
iron 13
sto@@ 13
knit 13
chainsaw 13
load 13
hut 13
colle@@ 13
learning 13
sle@@ 13
laptops 13
doll 13
messy 13
carts 13
wheelbarrow 13
nature 13
ut@@ 13
spoon 13
rickshaw 13
clapping 13
coo@@ 13
cool@@ 13
reflection 13
ial 13
traveling 13
rou@@ 13
tires 13
exhibit 13
science 13
rub@@ 13
high-@@ 13
burgundy 13
examines 13
cal@@ 13
debris 13
arm@@ 13
gymnastics 13
barri@@ 13
bor@@ 13
firefighter 13
eggs 13
chatting 13
let 13
jet 13
wer 13
merchandise 13
str@@ 13
gri@@ 13
pizza 13
rod 13
and@@ 13
dough 13
pur@@ 13
lips 13
sack 13
touches 13
cs 13
highway 13
rafting 13
tiny 13
dol@@ 13
cowboys 13
ized 13
off@@ 13
dust 13
alleyway 13
organ@@ 13
sailboat 13
handing 13
patterned 13
knife 13
h 13
was 13
flute 13
pil@@ 13
mid-@@ 13
butterfly 13
stomach 13
form 13
filling 13
places 13
le-@@ 13
rollerblading 13
bystanders 13
cycling 13
oun@@ 13
descent 13
checks 13
entering 13
sty 13
groceries 13
sweeps 13
Caucasian 13
sele@@ 13
forehead 13
fu@@ 13
single 13
2@@ 13
official 13
incline 13
cr@@ 13
ceremony 13
meeting 13
bath@@ 13
similar 13
paddle 13
ali@@ 13
dimly 13
low@@ 13
cheer 13
bleachers 13
8 13
ral 13
tea 13
wheelie 13
6 13
applying 13
umpire 13
dly 13
world 13
juice 13
keys 13
ow@@ 13
browsing 13
headed 13
ili@@ 13
bare 13
crossed 13
lead 13
gestures 13
drawn 13
mer@@ 13
ence 12
artwork 12
trip 12
wild 12
picks 12
foot@@ 12
bricks 12
pigtails 12
magazines 12
ob@@ 12
scooters 12
helicopter 12
teen 12
paperwork 12
ven 12
ky 12
ham@@ 12
chicken 12
cheek 12
give 12
boulder 12
story 12
branches 12
stea@@ 12
presenting 12
wires 12
sur@@ 12
C 12
late 12
stall 12
thumbs 12
super@@ 12
soda 12
vil 12
chan@@ 12
off-@@ 12
teal 12
located 12
adjusting 12
maneu@@ 12
racers 12
ways 12
diver 12
farmer 12
rapids 12
ples 12
ponytail 12
hotel 12
tee 12
shadows 12
logs 12
tired 12
carefully 12
cooks 12
silhouette 12
ha@@ 12
chess 12
show@@ 12
countryside 12
blankets 12
washer 12
past@@ 12
newly 12
China 12
seem 12
games 12
emer@@ 12
bul@@ 12
wel@@ 12
beanie 12
ren@@ 12
ical 12
work@@ 12
storm 12
shoppers 12
dering 12
bagpipes 12
tricycle 12
laundromat 12
wares 12
fa@@ 12
hum@@ 12
lay@@ 12
visiting 12
sunlight 12
speak 12
ately 12
Bu@@ 12
posed 12
beret 12
listen 12
adv@@ 12
shor@@ 12
serves 12
arch 12
target 12
wrap 12
thin@@ 12
izing 12
upward 12
pillows 12
finished 12
inspects 12
stops 12
suitcase 12
yarn 12
en-@@ 12
motorcyclists 12
star 12
watched 12
long-sleeve 12
wal@@ 12
dives 12
opens 12
casually 12
dies 12
unusual 12
greyhound 12
monkey 12
newspapers 12
stle 12
complete 12
tossing 12
crouched 12
tackle 12
visible 12
gallery 12
tights 12
snowshoes 12
atta@@ 12
movie 12
street@@ 12
lecture 12
bla@@ 12
cage 12
cute 12
playfully 12
knees 12
craf@@ 12
amidst 12
biting 12
tape 12
dad 12
beverages 12
dot 12
rally 12
ny 12
shirted 12
fireworks 12
yoga 12
grand@@ 12
celebration 12
wrestler 12
kayaks 12
cti@@ 12
snowsuit 12
focused 12
ber 11
patch 11
march 11
sam@@ 11
lighted 11
fire@@ 11
wea@@ 11
ki@@ 11
types 11
thumb 11
constru@@ 11
fashioned 11
ab@@ 11
elev@@ 11
fre@@ 11
suspenders 11
pilot 11
appar@@ 11
dusty 11
pers 11
belts 11
gle 11
sons 11
chopping 11
underwear 11
gol@@ 11
ian 11
placed 11
form@@ 11
covers 11
sion 11
injured 11
arcade 11
horizon 11
stor@@ 11
tin@@ 11
banjo 11
African-American 11
larger 11
slee@@ 11
graph@@ 11
white-@@ 11
screaming 11
nu@@ 11
shadow 11
earphones 11
furry 11
dar@@ 11
hiding 11
brother 11
hor@@ 11
sal@@ 11
mop 11
bon@@ 11
teens 11
oning 11
refle@@ 11
war@@ 11
flu@@ 11
sculp@@ 11
printed 11
rollerskating 11
twir@@ 11
chalkboard 11
swimsuits 11
whom 11
strange 11
involving 11
scenic 11
la 11
iz@@ 11
dire@@ 11
auditorium 11
location 11
loom 11
cop 11
Mohawk 11
record 11
transportation 11
rice 11
gathers 11
poor 11
khakis 11
side@@ 11
dles 11
ations 11
dumpster 11
floats 11
leaf 11
seagul@@ 11
parachute 11
built 11
ill@@ 11
ily 11
der@@ 11
hotdog 11
finishing 11
turquoise 11
care 11
venue 11
christmas 11
gazes 11
dal 11
black-haired 11
displayed 11
lon@@ 11
sem@@ 11
arti@@ 11
cer@@ 11
scape 11
oranges 11
planting 11
passersby 11
sca@@ 11
mug 11
salon 11
zes 11
viol@@ 11
collared 11
stoc@@ 11
circular 11
cello 11
lifts 11
displaying 11
designs 11
mower 11
enthusia@@ 11
hike 11
tackling 11
stic@@ 11
kings 11
os 11
valley 11
recei@@ 11
stat@@ 11
E 11
involved 11
recl@@ 11
roun@@ 11
nail 11
kit@@ 11
stacked 11
meet 11
done 11
motorized 11
ics 11
fo@@ 11
oned 11
couples 11
surgery 11
surfs 11
Army 11
trolley 11
supplies 11
shing 11
score 11
fashion 11
products 11
riot 11
recording 11
lighting 11
closely 11
blazer 11
torch 11
2012 11
play@@ 10
gazing 10
toddlers 10
rooftop 10
frozen 10
dis@@ 10
-colored 10
thing 10
tribal 10
dive 10
nurses 10
darkened 10
spar@@ 10
conta@@ 10
hea@@ 10
handrail 10
iling 10
wheeler 10
-like 10
wr@@ 10
ong 10
smo@@ 10
bre@@ 10
maintenance 10
paint@@ 10
trashcan 10
washes 10
buil@@ 10
squir@@ 10
leap 10
aprons 10
fen@@ 10
stilts 10
sive 10
highchair 10
monitor 10
cotton 10
pins 10
walked 10
adjusts 10
booths 10
farmers 10
cluttered 10
creating 10
quickly 10
stepping 10
John 10
experiment 10
cab@@ 10
ctor 10
boarding 10
foliage 10
pathway 10
gardening 10
burning 10
fog 10
Asia 10
serve 10
multi@@ 10
ther 10
stac@@ 10
morning 10
loo@@ 10
tiled 10
pet 10
own 10
upset 10
winding 10
spot 10
fier 10
sprayed 10
less 10
sym@@ 10
roadside 10
strapped 10
league 10
grabbing 10
goat 10
cab 10
kayaking 10
lens 10
Gre@@ 10
ative 10
driveway 10
stu@@ 10
green@@ 10
ind@@ 10
flannel 10
displays 10
pin 10
concentr@@ 10
medium 10
quarterback 10
gaze 10
eastern 10
army 10
scaffold 10
portrait 10
shy 10
blood 10
brushes 10
pumpkin 10
The 10
tripod 10
shiny 10
pads 10
pencil 10
plu@@ 10
sy 10
ance 10
ards 10
Ch@@ 10
flow@@ 10
itting 10
speaker 10
inging 10
checkers 10
featuring 10
even 10
decorative 10
stroke 10
sk 10
gged 10
odles 10
handed 10
department 10
canvas 10
hind 10
wn@@ 10
laden 10
ade 10
chinese 10
America 10
activity 10
denti@@ 10
crowds 10
dragging 10
contraption 10
raz@@ 10
facility 10
shape 10
workshop 10
workout 10
leotard 10
as@@ 10
crates 10
juggles 10
chewing 10
arch@@ 10
link 10
lobby 10
blue-@@ 10
shepherd 10
cin@@ 10
peeking 10
tain 10
ving 10
than 10
headdress 10
sub@@ 10
ep 10
chopsticks 10
mb@@ 10
apart 10
laun@@ 10
Eastern 10
floo@@ 10
menu 10
9@@ 10
process 10
camels 10
vintage 10
rafts 10
sin@@ 10
sad 10
row@@ 10
writes 10
gray-haired 10
# 10
indian 10
En@@ 10
ently 10
cloud 10
approaches 10
afternoon 10
abandoned 10
clowns 10
leggings 10
ach 10
tight 10
plan@@ 10
gesture 10
belongings 10
touch 10
pol@@ 10
trench 10
will 10
para@@ 10
button@@ 10
Con@@ 10
hear@@ 10
stair 10
med 10
mil@@ 10
parasailing 10
O 10
sideways 10
embracing 10
ga@@ 10
cheese 10
dress@@ 10
Olympics 10
numbers 10
ol 10
5@@ 10
mini@@ 10
boxer 10
heavily 10
celebrate 10
wig 10
competiti@@ 10
City 10
dun@@ 10
rifle 10
ement 10
sel 10
bathtub 10
cover 10
Canadian 10
decor@@ 10
ach@@ 10
second 10
obser@@ 10
wns 10
sprink@@ 9
see@@ 9
packing 9
climb@@ 9
illing 9
almost 9
down@@ 9
ddles 9
river@@ 9
fat 9
bends 9
onal 9
stoop 9
antique 9
sen@@ 9
cul@@ 9
cast 9
teammates 9
strolls 9
decorations 9
shoe@@ 9
kilt 9
canyon 9
jogs 9
tel@@ 9
ka@@ 9
pale 9
complex 9
operates 9
Elmo 9
service 9
demonstr@@ 9
bal@@ 9
ound 9
nic@@ 9
pot@@ 9
section 9
ones 9
shaggy 9
task 9
od 9
waiter 9
staff 9
son@@ 9
bicycling 9
stuck 9
spon@@ 9
painter 9
ari@@ 9
one-@@ 9
vering 9
sniffing 9
acting 9
joy 9
breakdancing 9
sparring 9
attractive 9
scar@@ 9
cri@@ 9
raincoat 9
fil@@ 9
gradu@@ 9
brass 9
DJ 9
Mexican 9
ple@@ 9
ingredients 9
tags 9
relax@@ 9
Shepherd 9
design 9
containing 9
mix@@ 9
handle 9
uring 9
Texas 9
rug 9
leaf@@ 9
cellphones 9
chers 9
un 9
sof@@ 9
environment 9
Je@@ 9
underground 9
pinata 9
downhill 9
sorting 9
sure 9
draw 9
variety 9
mechan@@ 9
projector 9
ef 9
bouncing 9
cel@@ 9
gli@@ 9
wind 9
US 9
ang@@ 9
accident 9
chocolate 9
gy@@ 9
travel 9
umn 9
tered 9
spir@@ 9
k-@@ 9
wheeled 9
fishes 9
sawing 9
caucasian 9
ctions 9
dir@@ 9
gras@@ 9
ior 9
zing 9
gesturing 9
really 9
waist 9
treat 9
plank 9
because 9
conver@@ 9
fell 9
peaks 9
pushed 9
interesting 9
ay 9
drib@@ 9
motion 9
peer 9
ant@@ 9
ing@@ 9
gal@@ 9
body@@ 9
fair@@ 9
rela@@ 9
ly-@@ 9
soap 9
foam 9
mul@@ 9
fer@@ 9
crayons 9
na@@ 9
skies 9
gy 9
sledding 9
kee@@ 9
TV 9
news 9
warehouse 9
Com@@ 9
photographers 9
lic 9
cho@@ 9
tying 9
relea@@ 9
cir@@ 9
industrial 9
jumped 9
ticket 9
land@@ 9
icy 9
images 9
scouts 9
pel@@ 9
pli@@ 9
short-haired 9
win 9
notebook 9
rings 9
din@@ 9
stump 9
ured 9
temple 9
known 9
ele@@ 9
stance 9
curly-haired 9
turban 9
pattern 9
sl@@ 9
two-@@ 9
ducks 9
muzzle 9
grabs 9
motor 9
ff 9
columns 9
au@@ 9
es@@ 9
ca 9
peac@@ 9
fish@@ 9
4@@ 9
cou@@ 9
speeding 9
notes 9
figures 9
tun@@ 9
break@@ 9
tal 9
vaul@@ 9
dotted 9
rollerblades 9
fic@@ 9
antly 9
cleaner 9
ore@@ 9
tips 9
comple@@ 9
tiger 9
toothbrush 9
lower 9
muzzled 9
crashing 9
begins 9
tion 9
ten 9
iss@@ 9
protesters 9
unique 9
jumper 9
doesn 9
fields 9
followed 9
ads 9
jockeys 9
loaded 9
egg 9
canal 9
kic@@ 9
histor@@ 9
tea@@ 9
human 9
exten@@ 9
focus 9
sign@@ 9
tro 8
am 8
husband 8
shiel@@ 8
barefooted 8
ascen@@ 8
supermarket 8
meadow 8
crops 8
0 8
much 8
too 8
forested 8
communic@@ 8
kie 8
scrubs 8
thered 8
napping 8
lin 8
classic 8
positi@@ 8
frying 8
barbecu@@ 8
val 8
free@@ 8
ols 8
adorned 8
fun@@ 8
oth 8
workman 8
knee-@@ 8
brief@@ 8
somewhere 8
mouths 8
written 8
strolling 8
cries 8
surgical 8
spins 8
plain 8
ures 8
had 8
sear@@ 8
bottoms 8
employees 8
ori@@ 8
skills 8
redhead 8
transit 8
amount 8
wor@@ 8
shi@@ 8
visor 8
vending 8
labeled 8
ams 8
camp 8
check@@ 8
hammock 8
masks 8
shelf 8
conne@@ 8
intervie@@ 8
splashed 8
thick 8
stuff 8
-looking 8
parent 8
sla@@ 8
mic 8
edly 8
companion 8
stretches 8
raining 8
Hawaiian 8
hau@@ 8
lou@@ 8
flat 8
pper 8
hydrant 8
gui@@ 8
campfire 8
aling 8
draped 8
crawls 8
lowing 8
ee 8
earth 8
pac@@ 8
fore@@ 8
ench 8
legged 8
videota@@ 8
midst 8
fri@@ 8
ssion 8
synchronized 8
skinny 8
squeezing 8
nun 8
suit@@ 8
cases 8
pea@@ 8
say 8
cherry 8
dryer 8
ppy 8
mesh 8
co 8
jeep 8
f-@@ 8
information 8
explor@@ 8
mountainous 8
unhappy 8
protect 8
Jenga 8
stry 8
ull 8
Cafe 8
call 8
strollers 8
tery 8
punch 8
separate 8
purses 8
toil@@ 8
measuring 8
package 8
hit@@ 8
mix 8
anti@@ 8
uts 8
artists 8
signing 8
spark@@ 8
candle 8
colorfully 8
rugs 8
ok 8
ski@@ 8
foggy 8
directing 8
Spanish 8
lively 8
demonstration 8
To@@ 8
fountains 8
tournament 8
pocket 8
buried 8
texting 8
shawl 8
gir@@ 8
mem@@ 8
Pe@@ 8
illuminated 8
banners 8
punching 8
cheerleading 8
social 8
weigh@@ 8
congreg@@ 8
citizens 8
maybe 8
canoes 8
fresh@@ 8
bra 8
descen@@ 8
identi@@ 8
vac@@ 8
zi@@ 8
gown 8
casting 8
mountain@@ 8
musta@@ 8
bundle 8
mag@@ 8
harve@@ 8
boxers 8
stringed 8
oni@@ 8
mess 8
judges 8
retrie@@ 8
babies 8
D 8
perched 8
bananas 8
easel 8
beads 8
peers 8
tarp 8
filming 8
ssions 8
harmonica 8
wraps 8
ental 8
company 8
ess 8
ature 8
rise 8
squats 8
gor@@ 8
rock@@ 8
sil@@ 8
lanterns 8
metal@@ 8
daytime 8
cker 8
bridesmaids 8
laboratory 8
completed 8
cit@@ 8
pt 8
surfers 8
fying 8
bee 8
cer 8
sprays 8
diner 8
homemade 8
ouse 8
leopard 8
when 8
Asians 8
pours 8
conductor 8
lar@@ 8
Li@@ 8
ini@@ 8
muscular 8
mixer 8
monitors 8
rails 8
battle 8
dal@@ 8
silhouetted 8
chased 8
remo@@ 8
roller-@@ 8
pain 8
proje@@ 8
shou@@ 8
looked 8
tackled 8
hardwood 8
vibrant 8
establishment 8
spect 8
examine 8
trains 8
ese 8
fetch 8
ail 8
sprin@@ 8
backseat 8
mark 8
pra@@ 8
strings 8
foods 8
entary 8
speci@@ 8
tuxe@@ 8
tutu 8
product 8
kisses 8
rib@@ 8
India 8
grab 8
hammering 8
commercial 8
kaya@@ 8
11 8
thou@@ 8
sunbathing 8
ser 8
employee 8
mounted 8
bedroom 8
tug-of-war 8
spotlight 8
grinds 8
bled 8
acrobatic 8
dom@@ 8
mon@@ 8
deci@@ 8
licking 8
nails 8
aquarium 8
striking 8
draws 8
poodle 8
sha@@ 8
crow@@ 8
tour 8
packed 8
tic 8
religious 8
bartender 8
armo@@ 8
bikinis 8
poli@@ 8
drying 8
dit@@ 8
create 8
colli@@ 8
vo@@ 8
lands 8
waterskiing 8
characters 8
potato 8
dex 8
ram@@ 8
destination 8
- 8
ordering 8
tured 8
gling 8
dre@@ 8
lining 8
murky 8
mohawk 8
amid 8
victory 8
pay 8
navigates 8
carrier 8
ornam@@ 8
power 8
cigar 8
speeds 8
key 8
sidelines 8
digital 8
prepared 8
graffiti@@ 8
int 8
asking 8
finger@@ 8
upwards 8
sculptures 8
congre@@ 8
hoo@@ 8
Olympic 8
Wh@@ 7
ley 7
lion 7
dered 7
bund@@ 7
slacks 7
olive 7
hotdogs 7
though 7
grown 7
trave@@ 7
railings 7
some@@ 7
arri@@ 7
rubs 7
sharp 7
tubes 7
rustic 7
starring 7
red@@ 7
applies 7
feathered 7
woodland 7
pony 7
ppers 7
bands 7
Musli@@ 7
completing 7
trophy 7
nude 7
clut@@ 7
bush 7
fork 7
hom@@ 7
-sized 7
sec@@ 7
dig 7
awning 7
mers 7
lush 7
stores 7
puppet 7
cartwheel 7
find 7
mitt 7
elaborate 7
feather 7
marble 7
makeshift 7
irs 7
miniature 7
trotting 7
melon 7
favorite 7
mascot 7
hoe 7
heavyset 7
ung 7
evil 7
rest@@ 7
patrons 7
snacks 7
prints 7
craw@@ 7
beating 7
sunshine 7
resort 7
dum@@ 7
mowing 7
pee@@ 7
rimmed 7
desks 7
jack@@ 7
ggling 7
elder 7
exhi@@ 7
ition 7
ators 7
policemen 7
casino 7
conducting 7
purchase 7
ood 7
tracksuit 7
sked 7
9 7
chee@@ 7
im 7
stretched 7
oming 7
skyline 7
infla@@ 7
wood@@ 7
pie 7
farm@@ 7
shine 7
aving 7
hula-@@ 7
rav@@ 7
boarder 7
divers 7
ength 7
zone 7
pointed 7
level 7
sit@@ 7
mer 7
won@@ 7
laid 7
roller@@ 7
berry 7
snowball 7
Ne@@ 7
qui@@ 7
pans 7
beat 7
Square 7
sni@@ 7
support 7
collie 7
tat@@ 7
shing@@ 7
vacuum 7
stripe 7
beers 7
ka 7
cally 7
all@@ 7
expression 7
picket 7
bongo 7
rabbit 7
fuzzy 7
merry-go-round 7
pirate 7
shack 7
cheerleader 7
ey 7
waitress 7
bowtie 7
contro@@ 7
blocking 7
advertisements 7
were 7
roll 7
die 7
watermelons 7
cargo 7
school@@ 7
pack@@ 7
presents 7
shower 7
social@@ 7
blower 7
recor@@ 7
snor@@ 7
buffet 7
kick@@ 7
aw@@ 7
mess@@ 7
parachu@@ 7
ist 7
contest 7
ct@@ 7
crate 7
eled 7
press@@ 7
pigeon 7
tree-lined 7
ty@@ 7
bit 7
discuss 7
cigarettes 7
bounds 7
face-@@ 7
spla@@ 7
rolls 7
electri@@ 7
cameraman 7
harbor 7
mit@@ 7
tens 7
guide 7
begin 7
Walmart 7
monk 7
life@@ 7
pop 7
soup 7
Po@@ 7
crosscountry 7
ATM 7
cy 7
expre@@ 7
aqua 7
newlywed 7
warming 7
scrat@@ 7
arrow 7
ments 7
marked 7
our@@ 7
barrels 7
helmet@@ 7
rist@@ 7
gla@@ 7
whi@@ 7
seafood 7
magni@@ 7
barely 7
clock 7
treadmill 7
European 7
bits 7
butcher 7
sold 7
ste 7
s-@@ 7
dyed 7
dump 7
sail@@ 7
dan@@ 7
exercising 7
pedestrian 7
rag 7
disc@@ 7
spring 7
activities 7
logo 7
Lat@@ 7
ingly 7
organ 7
forming 7
oil 7
ump 7
flock 7
cats 7
embra@@ 7
Rol@@ 7
ler@@ 7
blades 7
cave 7
film 7
ened 7
quet 7
reception 7
goo@@ 7
go-cart 7
depic@@ 7
somebody 7
crown 7
fedora 7
must@@ 7
quiet 7
bows 7
wash 7
rolled 7
daily 7
named 7
nat@@ 7
Ara@@ 7
main@@ 7
entertain 7
seating 7
clothed 7
dinosaur 7
ggle 7
cannon 7
wilderness 7
accompanied 7
greyhounds 7
que@@ 7
shoo@@ 7
trans@@ 7
lie 7
marker 7
? 7
conte@@ 7
roses 7
huddled 7
ceremonial 7
love 7
exiting 7
pops 7
scent 7
camp@@ 7
ank 7
den 7
on-@@ 7
pier@@ 7
features 7
character 7
ites 7
topless 7
ie 7
alle@@ 7
sleeve 7
fill 7
fet@@ 7
sna@@ 7
disc 7
gry 7
jumpsuits 7
opy 7
sail 7
every@@ 7
tress 7
Red 7
occu@@ 7
pled 7
typing 7
vegetation 7
skateboar@@ 7
barking 7
British 7
fron@@ 7
waterside 7
skydiving 7
celebr@@ 7
eval 7
cash 7
fit 7
semi 7
ically 7
fee@@ 7
sac@@ 7
tow 7
ales 7
framed 7
nine 7
chin 7
await 7
pou@@ 7
nurse 7
anci@@ 7
cocon@@ 7
designed 7
conf@@ 7
pyramid 7
sty@@ 7
sailor 7
vacuuming 7
sleeves 7
war 7
necklaces 7
x@@ 7
styli@@ 7
scattered 7
7 7
missing 7
blurred 7
8@@ 7
deserted 7
refer@@ 7
Cla@@ 7
checkout 7
xylophone 7
holi@@ 7
wrestlers 7
St@@ 7
scientist 7
doctors 7
La@@ 7
prote@@ 7
dolls 7
strea@@ 7
travels 7
emp@@ 7
rollerskates 7
hilly 7
snowboards 7
bend 7
fiel@@ 7
fellow 7
fin@@ 7
dec@@ 7
cathedral 7
6@@ 7
profession@@ 7
cover@@ 7
actors 7
Europe 7
opponents 7
series 7
dges 7
confetti 7
Fi@@ 7
political 7
convenience 7
photographing 7
met@@ 7
crest 7
defender 7
pul@@ 6
system 6
gliding 6
clarin@@ 6
roadway 6
McDonald 6
pane 6
main 6
youths 6
wards 6
ath 6
shake 6
sweaters 6
jave@@ 6
assem@@ 6
assembl@@ 6
spat@@ 6
ula 6
cardigan 6
hou@@ 6
Co@@ 6
enter 6
ight 6
cess 6
cop@@ 6
watering 6
da 6
til@@ 6
drum@@ 6
proba@@ 6
dragon 6
weapon 6
maj@@ 6
ents 6
grills 6
cher@@ 6
ara 6
panse 6
exper@@ 6
stirring 6
waterskier 6
wake@@ 6
tends 6
talent 6
fer 6
pr@@ 6
toon 6
nap@@ 6
wra@@ 6
teddy 6
hook 6
swords 6
tomatoes 6
Ar@@ 6
pipes 6
stati@@ 6
red-@@ 6
lime 6
young@@ 6
stunts 6
mass@@ 6
mates 6
within 6
Wom@@ 6
wineglasses 6
radio 6
combat 6
strike 6
lam@@ 6
Ru@@ 6
whis@@ 6
ox@@ 6
tly 6
surf@@ 6
sks 6
woven 6
message 6
cloth@@ 6
allenge 6
steers 6
aissance 6
gues 6
questi@@ 6
compet@@ 6
ckets 6
vast 6
bing 6
efs 6
volunte@@ 6
submer@@ 6
gen@@ 6
arrangement 6
Par@@ 6
Times 6
night@@ 6
beg@@ 6
W 6
tablecloth 6
v 6
personnel 6
tomat@@ 6
star@@ 6
words 6
Halloween 6
curi@@ 6
rack 6
rin@@ 6
moun@@ 6
self 6
profess@@ 6
sno@@ 6
ack@@ 6
instal@@ 6
tor 6
turkey 6
parachutes 6
u 6
mounta@@ 6
ite@@ 6
business@@ 6
wning 6
rea@@ 6
ole 6
upright 6
glacier 6
ree 6
high@@ 6
ti 6
warm@@ 6
cent@@ 6
badge 6
spo@@ 6
mono@@ 6
pass@@ 6
liqu@@ 6
dil@@ 6
cler@@ 6
p-@@ 6
banan@@ 6
activ@@ 6
cot@@ 6
USA 6
eal 6
angle 6
tau@@ 6
wish 6
pai@@ 6
appro@@ 6
those 6
rain@@ 6
cakes 6
va@@ 6
wri@@ 6
erial 6
day@@ 6
trimming 6
appe@@ 6
ki 6
bron@@ 6
feat@@ 6
grand 6
dor 6
moo@@ 6
igh 6
dou@@ 6
soa@@ 6
del@@ 6
microscopes 6
sundress 6
stern 6
bble 6
xi@@ 6
vices 6
Sooners 6
ld 6
progre@@ 6
voc@@ 6
white-haired 6
cus 6
massive 6
dos 6
quad 6
Seattle 6
iners 6
bons 6
vic@@ 6
P 6
zy 6
re-@@ 6
semi-@@ 6
stars 6
desig@@ 6
piles 6
terminal 6
abo@@ 6
fe 6
walkers 6
ino 6
ney 6
tail@@ 6
hon@@ 6
unloading 6
ligh@@ 6
wil@@ 6
ffy 6
kne@@ 6
inclu@@ 6
chil@@ 6
cob@@ 6
thre@@ 6
wheelchairs 6
lun@@ 6
arrive 6
tails 6
band@@ 6
stride 6
cial 6
mature 6
sprinklers 6
Legos 6
tely 6
toe 6
eat@@ 6
dle 6
kio@@ 6
boogie 6
portable 6
well-dressed 6
costum@@ 6
je@@ 6
test 6
festi@@ 6
10 6
men@@ 6
pro 6
ina 6
cockpit 6
surge@@ 6
thy 6
fort 6
skim@@ 6
tter 6
caution 6
ires 6
inten@@ 6
dessert 6
saris 6
Miami 6
N 6
prou@@ 6
ssi@@ 6
scri@@ 6
tackles 6
monster 6
under@@ 6
cem@@ 6
fea@@ 6
twi@@ 6
Ori@@ 6
wet@@ 6
spen@@ 6
tagged 6
contem@@ 6
weight 6
ket@@ 6
fashi@@ 6
cowgirl 6
fra@@ 6
mule 6
ble@@ 6
sho@@ 6
illi@@ 6
ility 6
Fa@@ 6
fixes 6
senior 6
bby 6
pick@@ 6
tar 6
bulldozer 6
mini-@@ 6
ultimate 6
mate 6
axe 6
S 6
near@@ 6
niver@@ 6
sity 6
ign@@ 6
V 6
NY 6
national 6
ther@@ 6
State 6
badminton 6
Bi@@ 5
um 5
sky@@ 5
mou@@ 5
phones 5
loun@@ 5
respon@@ 5
burgers 5
vol@@ 5
sage 5
structures 5
ican 5
zer 5
torches 5
camera@@ 5
burger 5
jewel@@ 5
Wel@@ 5
ith 5
zoo 5
prin@@ 5
tar@@ 5
terrier 5
take@@ 5
comm@@ 5
re 5
rem@@ 5
vision 5
consul@@ 5
ater 5
cheer@@ 5
ids 5
ghtly 5
arran@@ 5
atten@@ 5
exam@@ 5
tongs 5
cent 5
verti@@ 5
ork 5
sat@@ 5
robot 5
ities 5
pau@@ 5
intri@@ 5
nin@@ 5
mirro@@ 5
ici@@ 5
yo@@ 5
yo 5
zard 5
cav@@ 5
word 5
Ba@@ 5
ffe@@ 5
key@@ 5
mail@@ 5
commun@@ 5
tted 5
stret@@ 5
pons 5
tting 5
An@@ 5
domin@@ 5
read@@ 5
chat 5
Gi@@ 5
passi@@ 5
physi@@ 5
wakeboard 5
mannequin 5
L 5
balan@@ 5
U 5
ama@@ 5
Mouse 5
bloc@@ 5
St. 5
na 5
formations 5
kel 5
stock 5
phal@@ 5
shado@@ 5
East 5
carri@@ 5
ei@@ 5
loa@@ 5
Hu@@ 5
marches 5
dim@@ 5
lets 5
cupcake 5
poly 5
conditions 5
don 5
ge-@@ 5
sar@@ 5
tage 5
haired 5
bag@@ 5
tumbling 5
ssy 5
Te@@ 5
punk 5
chips 5
00 5
om 5
ton 5
Wi@@ 5
accep@@ 5
assor@@ 5
Concert 5
ferry 5
basket@@ 5
rac@@ 5
kets 5
tiles 5
saxoph@@ 5
sleep 5
grou@@ 5
pati@@ 5
ball@@ 5
ain 5
Street 5
gham 5
ares 5
hispan@@ 5
indi@@ 5
tigh@@ 5
za@@ 5
sim@@ 5
gage 5
M 5
Ca@@ 5
stro 5
lap@@ 5
arr@@ 5
woo@@ 5
passer@@ 5
nam@@ 5
attentiv@@ 5
pher@@ 5
Ja@@ 5
De@@ 5
blur@@ 5
iti@@ 5
hip@@ 5
attendant 5
Su@@ 5
tend 5
tou@@ 5
pet@@ 5
rail@@ 5
drop 5
Amer@@ 5
rd 5
caricature 5
bir@@ 5
strum@@ 5
sket@@ 5
ail@@ 5
cookies 5
o-@@ 5
Bob 5
tambour@@ 5
blu@@ 5
pied 5
Vol@@ 5
util@@ 5
alls 5
consi@@ 5
writ@@ 5
odle 5
lean@@ 5
ths 5
gum 5
Am@@ 5
ron@@ 5
poin@@ 5
Hol@@ 5
assistant 5
store@@ 5
popcorn 5
jets 5
surroun@@ 5
tory 5
clu@@ 5
ster@@ 5
conce@@ 5
mon 5
gh 5
gent 5
rollerbla@@ 5
prom@@ 5
mode@@ 5
lass@@ 5
lanter@@ 5
Obama 5
thro@@ 5
pub 5
cl@@ 5
manu@@ 5
ire 5
Ital@@ 5
lingerie 5
kimonos 5
Subway 5
frien@@ 5
ggles 5
dunes 5
them@@ 5
phants 5
Re@@ 5
McDonal@@ 5
Jap@@ 5
rel 5
snowboar@@ 5
fir@@ 5
maid 5
ut 5
accompan@@ 5
port 5
tuni@@ 5
contin@@ 5
sor@@ 5
mmed 5
navig@@ 5
fix@@ 5
chant 5
champagne 5
lasso 5
Boston 5
Vi@@ 5
padd@@ 5
ong@@ 5
ford 5
chu@@ 5
ever@@ 5
swim@@ 5
stal@@ 5
mot@@ 5
Car@@ 5
und 5
ots 5
ia 5
ebr@@ 5
bol 5
spect@@ 5
focu@@ 5
ish@@ 5
pace 5
urin@@ 4
ird 4
villa@@ 4
direct@@ 4
brochure 4
trem@@ 4
kswagen 4
mascara 4
automobile 4
cani@@ 4
vent 4
Speedo 4
Blue 4
Ri@@ 4
Wal@@ 4
chop@@ 4
ee@@ 4
ot 4
tru@@ 4
rect@@ 4
mea@@ 4
statues 4
ell@@ 4
circuit 4
Deere 4
acks 4
plat@@ 4
sour@@ 4
Disney 4
anim@@ 4
sages 4
kin 4
swa@@ 4
Island 4
kilts 4
steaks 4
ute 4
trombone 4
Ang@@ 4
bru@@ 4
iller 4
gaphone 4
spin@@ 4
KitchenAid 4
toast 4
substance 4
ulti@@ 4
cupcakes 4
gan 4
hamburgers 4
tons 4
-covered 4
Che@@ 4
convention 4
olo@@ 4
phin 4
pant 4
fati@@ 4
clou@@ 4
road@@ 4
are@@ 4
stronau@@ 4
wait@@ 4
Washington 4
moti@@ 4
ace 4
cause 4
participants 4
piercing 4
lear@@ 4
technique 4
bear@@ 4
solo 4
Le@@ 4
amar@@ 4
ken 4
nant 4
Mickey 4
za 4
clean@@ 4
Bur@@ 4
sham@@ 4
ack 4
hen@@ 4
z 4
stro@@ 4
fur@@ 4
ements 4
ft 4
photograph@@ 4
grin@@ 4
sement 4
Gr@@ 4
T-shirts 4
crayon 4
allow 4
dia@@ 4
supervi@@ 4
technolo@@ 4
chic@@ 4
uk@@ 4
Market 4
Joe 4
eting 4
cles 4
pal@@ 4
pain@@ 4
ass@@ 4
peop@@ 4
guitari@@ 4
lama 4
ath@@ 4
long-@@ 4
yst@@ 4
vest@@ 4
spea@@ 4
zz 4
outh 4
kni@@ 4
transport 4
Coca-Cola 4
cess@@ 4
equip@@ 4
bracelet 4
oing 4
adorable 4
aqu@@ 4
chool 4
nur@@ 4
once 4
fan@@ 4
Oklahoma 4
pun@@ 4
inf@@ 4
repor@@ 4
kickboxing 4
itation 4
impressi@@ 4
bulldog 4
bin@@ 4
fic 4
dan 4
Sal@@ 4
stants 4
Ken@@ 4
slip 4
Qu@@ 4
ees 4
locomoti@@ 4
descend 4
prof@@ 4
ctors 4
windo@@ 4
yc@@ 4
cade 4
ues 4
mb 4
bill@@ 4
blan@@ 4
dau@@ 4
ghters 4
go-@@ 4
compe@@ 4
Al@@ 4
una 4
participat@@ 4
domino@@ 4
seniors 4
tures 4
Park 4
puzzle 4
Nike 4
sig@@ 4
termin@@ 4
ind 4
stair@@ 4
boo@@ 4
ier 4
dings 4
He@@ 4
timate 4
boul@@ 4
pirates 4
note 4
enjo@@ 4
fel@@ 4
attraction 4
DS 4
20@@ 4
som@@ 4
file 4
backp@@ 4
bronze 4
hudd@@ 4
Yamaha 4
adm@@ 4
rit@@ 4
Apple 4
scout 4
frustr@@ 4
buggy 4
Boy 4
ping-pong 4
caf@@ 4
eria 4
acti@@ 4
Z@@ 4
bicyc@@ 4
muzz@@ 4
Vegas 4
stum@@ 4
bull@@ 4
double 4
respe@@ 4
eld 4
T 4
ora@@ 4
taxis 4
Jack@@ 4
skinned 4
ion 4
forces 4
collection 4
ek 4
salu@@ 4
electron@@ 4
prim@@ 4
tem@@ 4
neck@@ 4
fit@@ 4
rose 4
Ea@@ 4
ray@@ 4
door@@ 4
sumo 4
trio 4
Afri@@ 4
mo 4
baller@@ 4
stand@@ 4
hawk 4
oo 4
ssing 4
intense 4
intere@@ 4
poncho 4
iPod 4
cram@@ 4
od@@ 4
ey@@ 4
sent@@ 4
suppor@@ 4
fighter 4
va 4
vice 4
patri@@ 4
R 4
explo@@ 4
rer 4
gymna@@ 4
shar@@ 4
vel@@ 4
horse@@ 4
prepar@@ 4
cades 4
Bo@@ 4
potat@@ 4
sombrero 4
mart 4
proxim@@ 4
tran@@ 4
Starbucks 4
rab@@ 4
sant 4
vet@@ 4
Califor@@ 4
grimac@@ 4
stop@@ 4
fine 4
X@@ 4
oper 4
well-@@ 4
stom@@ 4
balcon@@ 4
dy@@ 4
simil@@ 4
id@@ 4
separ@@ 4
parasol 4
offee 4
famili@@ 4
ritu@@ 4
polit@@ 4
ny@@ 4
chem@@ 4
Min@@ 4
suspen@@ 4
incl@@ 4
drainage 4
possession 4
oop 4
gar 3
ust@@ 3
regar@@ 3
crou@@ 3
walkie 3
pren@@ 3
flambo@@ 3
yant 3
mid@@ 3
mob@@ 3
El@@ 3
bor 3
enti@@ 3
services 3
ara@@ 3
unu@@ 3
sually 3
Q 3
zen 3
laces 3
12 3
one@@ 3
pump@@ 3
vacuum@@ 3
batt@@ 3
swor@@ 3
handica@@ 3
anda 3
wai@@ 3
Ter@@ 3
mannequ@@ 3
kart 3
phon@@ 3
eth@@ 3
route 3
gam@@ 3
situ@@ 3
eless 3
ma 3
Jack 3
techn@@ 3
shin@@ 3
liber@@ 3
far@@ 3
stem 3
For@@ 3
dic@@ 3
golf@@ 3
flot@@ 3
sti@@ 3
turbans 3
tricycles 3
sai@@ 3
jo 3
eng@@ 3
yota 3
ov@@ 3
trav@@ 3
visit@@ 3
caress@@ 3
ro 3
fitness 3
pages 3
cycles 3
erie 3
af@@ 3
dig@@ 3
corn@@ 3
In@@ 3
chor@@ 3
cano@@ 3
san 3
das 3
uma 3
fal@@ 3
foo@@ 3
figur@@ 3
adul@@ 3
tex 3
oran@@ 3
gay 3
mom@@ 3
aves 3
illy 3
Monopoly 3
haw@@ 3
mur@@ 3
restaur@@ 3
suite 3
sou@@ 3
spor@@ 3
of@@ 3
adolescent 3
patron 3
trol@@ 3
session 3
ggage 3
uitar 3
ympics 3
onloo@@ 3
attend 3
retriever 3
ctant 3
cand@@ 3
spot@@ 3
aming 3
dor@@ 3
wrest@@ 3
bom@@ 3
nati@@ 3
fs 3
zed 3
ane 3
tack@@ 3
ollie 3
ore 3
oed 3
shion 3
stuff@@ 3
afri@@ 3
kil@@ 3
ton@@ 3
den@@ 3
di 3
pies 3
num@@ 3
vement 3
moder@@ 3
graffit@@ 3
tral 3
hy@@ 3
inspect@@ 3
ile 3
Spiderman 3
portraits 3
conven@@ 3
gout 3
euro@@ 3
Bar@@ 3
eg@@ 3
spectacu@@ 3
thoscope 3
prun@@ 3
yh@@ 3
zombie 3
Y 3
Squ@@ 3
explosion 3
Bull 3
eu@@ 3
em 3
horiz@@ 3
effort 3
pple 3
pony@@ 3
kly 3
ale 3
ands 3
Mex@@ 3
tresses 3
audi@@ 3
tabl@@ 3
vide 3
acrobat@@ 3
leot@@ 3
Fac@@ 3
umin@@ 3
allo@@ 3
new@@ 3
whe@@ 3
: 3
K 3
scu@@ 3
tout 3
tutus 3
quel@@ 3
ac 3
paintball 3
iser 3
spa 3
ctive 3
ween 3
note@@ 3
aver@@ 3
ockey 3
lance 3
roof@@ 3
gig@@ 3
Coca 3
Cola 3
shoul@@ 3
mas 3
appla@@ 3
condu@@ 3
dark@@ 3
cher 3
ere 3
vin@@ 3
AT@@ 3
bit@@ 3
ron 3
sque 3
ino@@ 3
gages 3
lo 3
BM@@ 3
aga@@ 3
shaw@@ 3
gon 3
ess@@ 3
Ve@@ 3
Spi@@ 3
vention 3
fortune 3
rand@@ 3
ya@@ 3
stant 3
gon@@ 3
ounds 3
sum@@ 3
tum@@ 3
trouble 3
brown@@ 3
avi@@ 3
RO@@ 3
G 3
acro@@ 3
illumin@@ 3
ch-@@ 3
bean@@ 3
enf@@ 3
sy@@ 3
onn@@ 3
acc@@ 3
oti@@ 3
Batman 3
lad@@ 3
Ford 3
act@@ 3
ur 3
rap@@ 3
melons 3
pause 3
val@@ 3
Ex@@ 3
tt 3
mock 3
atri@@ 3
middle-@@ 3
chur@@ 3
porter 3
tuba 3
mac 3
san@@ 3
50 3
bout 3
partment 3
bie 3
gie 3
violet 3
yer 3
brow@@ 3
She@@ 3
ador 3
beauti@@ 3
han@@ 3
sexy 3
lation 3
cross@@ 3
Sho@@ 3
page 3
l-@@ 3
manipu@@ 3
Ol@@ 3
care@@ 3
cycle 3
Chin@@ 3
Ber@@ 3
gent@@ 3
ide 3
scope 3
diver@@ 3
jog@@ 3
magi@@ 3
lev@@ 3
ato@@ 3
zombies 3
enthusi@@ 3
tee-shirt 3
quar@@ 3
cas@@ 3
blonds 3
bran@@ 3
vation 3
mor@@ 3
ly@@ 3
ang 3
Indi@@ 3
zz@@ 3
fini@@ 3
track@@ 3
Can@@ 3
tho@@ 3
blonde 3
tren@@ 2
erman 2
approa@@ 2
iers 2
mex@@ 2
bon 2
derly 2
dent 2
plan 2
ners 2
Mon@@ 2
vari@@ 2
align@@ 2
dem@@ 2
oli@@ 2
neigh@@ 2
tiv@@ 2
fam@@ 2
vin 2
orig@@ 2
particu@@ 2
patter@@ 2
video@@ 2
bonnet 2
ances 2
diffic@@ 2
class@@ 2
bes 2
ry-@@ 2
possi@@ 2
attenti@@ 2
ir 2
gel@@ 2
pel 2
wel 2
incen@@ 2
percussion 2
gall@@ 2
pig@@ 2
ux 2
lux@@ 2
ston 2
conditi@@ 2
traverse 2
ques 2
anese 2
obsc@@ 2
pret@@ 2
cture 2
jama 2
sa 2
ption 2
con 2
jam@@ 2
Mc@@ 2
cray@@ 2
bou@@ 2
wat@@ 2
cho 2
teet@@ 2
secon@@ 2
chet 2
carav@@ 2
alie 2
aut@@ 2
tomb@@ 2
suc@@ 2
iff@@ 2
met 2
ero 2
No@@ 2
mal 2
ret 2
mati@@ 2
vous 2
joy@@ 2
uti@@ 2
apr@@ 2
specta@@ 2
discu@@ 2
bridesmai@@ 2
onal@@ 2
gos 2
i-@@ 2
syn@@ 2
diti@@ 2
portant 2
cil 2
ado@@ 2
sales 2
IC@@ 2
xing 2
bott@@ 2
ette 2
scaffol@@ 2
Kit@@ 2
mp@@ 2
loy@@ 2
circu@@ 2
faux 2
sely 2
inst@@ 2
que 2
pean 2
ha 2
inform@@ 2
tiss@@ 2
instructions 2
cy@@ 2
pour 2
oi@@ 2
cour@@ 2
cle 2
distri@@ 2
bucks 2
cartons 2
wine@@ 2
pays 2
parti@@ 2
agricul@@ 2
j 2
agit@@ 2
journal 2
tyro@@ 2
sweat 2
close@@ 2
cket 2
,@@ 2
exerci@@ 2
rine 2
participant 2
jou@@ 2
une 2
allen@@ 2
xe 2
tech@@ 2
repair@@ 2
ried 2
bone 2
color@@ 2
EF 2
paper@@ 2
ambu@@ 2
buff@@ 2
scho@@ 2
stau@@ 2
blea@@ 2
fare 2
sph@@ 2
inged 2
ises 2
gul@@ 2
thday 2
las 2
deo 2
kar@@ 2
news@@ 2
vise 2
cers 2
ven@@ 2
nel 2
veral 2
even@@ 2
born 2
colum@@ 2
iment 2
trou@@ 2
volley 2
pti@@ 2
triangle 2
ena 2
invol@@ 2
classi@@ 2
age@@ 2
labra@@ 2
documents 2
due 2
comb@@ 2
ay@@ 2
scienti@@ 2
fighters 2
ph 2
long@@ 2
ensemble 2
So@@ 2
jet@@ 2
blond-@@ 2
ment@@ 2
former 2
riers 2
H 2
velo@@ 2
impre@@ 2
ffe 2
py@@ 2
lons 2
-skinned 2
shift 2
ope 2
mani@@ 2
laborat@@ 2
mau@@ 2
mine 2
Is@@ 2
enga@@ 2
cyc@@ 2
ann@@ 2
fau@@ 2
` 2
dread@@ 2
cock@@ 2
bli@@ 2
entre@@ 2
envelo@@ 2
% 2
citiz@@ 2
lue 2
hard@@ 2
oth@@ 2
rant 2
port@@ 2
us@@ 2
wister 2
table@@ 2
xy@@ 2
gen 2
altitude 2
admire 2
direct 2
cellu@@ 2
entran@@ 2
pom@@ 2
pav@@ 2
broch@@ 2
custom@@ 2
verse 2
ez 2
ras 2
puzz@@ 2
ga 2
ordin@@ 2
boutique 2
Joh@@ 2
locks 2
offici@@ 2
eries 2
plaque 2
lace 2
lac 2
asi@@ 2
du 2
gel 2
civ@@ 2
chin@@ 2
access@@ 2
te-@@ 2
brun@@ 2
kimon@@ 2
bandan@@ 2
religi@@ 2
ouvre 2
walk@@ 2
Asi@@ 2
Olympi@@ 2
passer 2
plom@@ 2
ddy 2
ctures 2
escal@@ 2
bystand@@ 2
gant 2
stun@@ 2
boar@@ 2
textile 2
wheelbar@@ 2
ences 2
Mo@@ 2
vie 2
oles 2
ota 2
ign 2
mari@@ 2
dribble 2
arro@@ 2
aya@@ 2
par 2
deser@@ 2
yon 2
plume 2
cau@@ 2
igh@@ 2
spra@@ 2
lows 2
maje@@ 2
uniform@@ 1
sup@@ 1
spec@@ 1
tree-@@ 1
lage 1
courts 1
rying 1
dinosau@@ 1
combin@@ 1
sul@@ 1
lins 1
tee@@ 1
guit@@ 1
footed 1
caban@@ 1
unes 1
isi@@ 1
mains 1
infir@@ 1
demand@@ 1
tis 1
emon@@ 1
aff@@ 1
sous-@@ 1
fig@@ 1
derman 1
rol@@ 1
rier 1
wheel@@ 1
fabri@@ 1
x-@@ 1
ket 1
dev@@ 1
inc@@ 1
shooter 1
quat@@ 1
ening 1
gies 1
casserole 1
bas 1
B 1
Gy@@ 1
treadm@@ 1
etting 1
scriptions 1
hill@@ 1
teen@@ 1
contra@@ 1
polos 1
Ti@@ 1
spectat@@ 1
aisi@@ 1
ond@@ 1
adolescen@@ 1
ghter 1
immense 1
hula@@ 1
ille 1
org@@ 1
venir 1
Euro@@ 1
uit@@ 1
hors 1
&apos;@@ 1
oeu@@ 1
vres 1
motif 1
rat@@ 1
grave@@ 1
g-@@ 1
suring 1
rette 1
chal@@ 1
attemp@@ 1
Soon@@ 1
footbal@@ 1
expl@@ 1
sible 1
iPo@@ 1
mol@@ 1
distribu@@ 1
bies 1
che 1
countr@@ 1
get@@ 1
tooth@@ 1
ave@@ 1
inspec@@ 1
ou 1
ne 1
pizzeria 1
silhou@@ 1
ettes 1
cup@@ 1
bonnets 1
pring 1
bal 1
arn 1
urer 1
esc@@ 1
label@@ 1
accordi@@ 1
dow 1
gue 1
bbing 1
public@@ 1
bermu@@ 1
stes 1
sual 1
urs 1
toboggan 1
olympi@@ 1
brand@@ 1
mans 1
indu@@ 1
bikin@@ 1
sombr@@ 1
bik@@ 1
res 1
dons 1
zzy 1
sous 1
usk 1
univer@@ 1
pizz@@ 1
panoram@@ 1
aband@@ 1
butter@@ 1
laugh@@ 1
thum@@ 1
wich 1
ange 1
monit@@ 1
tritus 1
flan@@ 1
busin@@ 1
shir@@ 1
ggy 1
Wa@@ 1
tripo@@ 1
mousta@@ 1
amer@@ 1
ica 1
musc@@ 1
raf@@ 1
uri@@ 1
mel@@ 1
Lon@@ 1
rayed 1
sav@@ 1
sang 1
client 1
Q@@ 1
ballons 1
outf@@ 1
nu 1
heav@@ 1
sson 1
squee@@ 1
twe@@ 1
iler 1
swee@@ 1
rent 1
itude 1
perform@@ 1
practi@@ 1
grimaces 1
mic@@ 1
pist@@ 1
colo@@ 1
barbel@@ 1
bed@@ 1
gars 1
lared 1
vette 1
attra@@ 1
snea@@ 1
cated 1
lau@@ 1
again@@ 1
ours 1
pian@@ 1
crav@@ 1
passage 1
carton 1
sse 1
-ball 1
dwalk 1
drome 1
outi@@ 1
brary 1
bil@@ 1
kaki 1
xylo@@ 1
Jo@@ 1
skate@@ 1
tux@@ 1
entre 1
automob@@ 1
iles 1
bers 1
dents 1
ffect@@ 1
dus 1
chu 1
flops 1
toa@@ 1
mout@@ 1
ix 1
bask@@ 1
US@@ 1
allu@@ 1
ress@@ 1
cart@@ 1
q@@ 1
numer@@ 1
oking 1
tele@@ 1
eur 1
hic@@ 1
jump@@ 1
milit@@ 1
gard@@ 1
hosp@@ 1
chute 1
ference 1
shop@@ 1
dying 1
pright 1
eurs 1
Sub@@ 1
shirt@@ 1
performan@@ 1
universit@@ 1
neu@@ 1
borne 1
dump@@ 1
si 1
roll@@ 1
visi@@ 1
kite@@ 1
ban 1
ades 1
w-@@ 1
wom@@ 1
grav@@ 1
enou@@ 1
enta@@ 1
nage 1
parall@@ 1
chemise 1
titude 1
bene@@ 1
utili@@ 1
gray@@ 1
ricksha@@ 1
q 1
sher 1
ream 1
fai@@ 1
after@@ 1
produ@@ 1
mascul@@ 1
resque 1
coupe 1
adverti@@ 1
adju@@ 1
-shirt 1
pital 1
squat@@ 1
autom@@ 1
7@@ 1
dure 1
cad@@ 1
unicyc@@ 1
if@@ 1
invisible 1
int@@ 1
supporters 1
bracel@@ 1
clar@@ 1
orn@@ 1
bub@@ 1
concre@@ 1
$ 1
xoph@@ 1
tale 1
ye 1
bras 1
photo@@ 1
Spee@@ 1
traver@@ 1
vert 1
cep@@ 1
enth@@ 1
entr@@ 1
yway 1
bronz@@ 1
oce@@ 1
Cau@@ 1
casi@@ 1
bas-@@ 1
reli@@ 1
dit 1
restau@@ 1
Orient 1
Fri@@ 1
dio 1
pay@@ 1
cathe@@ 1
articles 1
oph@@ 1
with@@ 1
accom@@ 1
mod@@ 1
ount 1
Superman 1
ful@@ 1
gun@@ 1
serv@@ 1
ory 1
vi 1
marine 1
iting 1
desser@@ 1
by@@ 1
lif@@ 1
nis 1
dale 1
F 1
telesc@@ 1
veget@@ 1
volle@@ 1
charge 1
inent 1
gile 1
barb@@ 1
fou@@ 1
ness 1
maine 1
esse 1
establi@@ 1
mering 1
musi@@ 1
jum@@ 1
pos 1
shment 1
bols 1
chalk@@ 1
filets 1
can-@@ 1
trace 1
ait 1
exer@@ 1
fon@@ 1
iors 1
smil@@ 1
protection 1
udi 1
cow@@ 1
conif@@ 1
cen@@ 1
fume 1
-po@@ 1
Ni@@ 1
ital 1
Vo@@ 1
plying 1
gency 1
stil@@ 1
document 1
synchron@@ 1
ym@@ 1
hin@@ 1
sac 1
harmon@@ 1
cass@@ 1
onne 1
binoc@@ 1
igne 1
fum@@ 1
quarter@@ 1
rollers 1
grat@@ 1
journ@@ 1
Tex@@ 1
ssive 1
acked 1
Haw@@ 1
liqui@@ 1
illo@@ 1
lette 1
chats 1
vel 1
usi@@ 1
adolescents 1
aud@@ 1
quette 1
adi@@ 1
nament 1
chap@@ 1
shoot@@ 1
short@@ 1
anti-@@ 1
differ@@ 1
coin 1
rece@@ 1
tram@@ 1
gratu@@ 1
midd@@ 1
bulldo@@ 1
transpor@@ 1
asse 1
inju@@ 1
obstacles 1
box@@ 1
Brit@@ 1
athle@@ 1
cation 1
borhood 1
pop@@ 1
utu@@ 1
auto@@ 1
vit@@ 1
tron@@ 1
leur 1
cham@@ 1
plumes 1
cuisine 1
= 1
tos 1
de-@@ 1
sembl@@ 1
pe-@@ 1
ami 1
hus@@ 1
bout@@ 1
-haired 1
bre 1
clients 1
surve@@ 1
expose 1
docum@@ 1
chain@@ 1
cobble@@ 1
cet 1
sma@@ 1
enter@@ 1
sent 1
lice 1
massi@@ 1
coup 1
spee@@ 1
plate@@ 1
/ 1
bandana 1
make@@ 1
gran@@ 1
seum 1
