a 52335
. 29350
in 15782
the 11757
on 8645
man 8189
is 7980
and 7849
of 7356
with 6646
woman 4227
, 4185
two 4118
are 3941
to 3327
people 3308
at 3102
an 3064
wearing 2750
young 2406
white 2370
shirt 2211
black 2132
his 2107
while 2056
blue 1999
men 1856
sitting 1843
girl 1821
dog 1806
red 1801
boy 1779
standing 1710
playing 1683
group 1648
street 1553
down 1490
walking 1474
front 1358
her 1337
holding 1302
one 1151
water 1145
by 1137
three 1110
women 1045
up 980
green 970
little 956
for 947
child 944
looking 928
as 921
large 917
outside 915
through 872
yellow 833
brown 817
children 816
person 816
ball 782
from 780
their 764
into 753
hat 751
small 731
other 710
next 697
dressed 671
over 661
some 661
out 660
building 646
running 623
riding 617
near 604
around 599
another 586
jacket 585
beach 566
sidewalk 563
field 562
orange 551
crowd 548
jumping 527
pink 527
stands 525
sits 517
behind 516
table 506
background 500
snow 497
grass 495
girls 485
city 476
stand 476
bike 471
&apos;s 471
air 455
player 451
wall 448
looks 444
top 436
several 431
dogs 428
that 426
four 424
older 423
off 416
park 410
dress 410
talking 408
camera 407
along 406
soccer 398
something 397
lady 394
walks 389
hair 386
play 380
boys 378
together 378
working 378
guitar 377
smiling 372
food 367
game 367
has 365
car 365
road 361
gray 359
picture 359
plays 349
it 348
hand 347
Asian 340
bench 336
holds 335
old 330
stage 327
him 322
pants 318
shorts 318
glasses 317
sit 317
carrying 315
walk 315
couple 312
side 312
baby 309
them 308
tree 306
bicycle 304
face 304
taking 302
race 298
&quot; 294
male 292
each 292
rock 291
pool 291
doing 286
watching 281
across 280
dirt 278
there 277
head 274
boat 274
area 273
jeans 272
guy 268
blond 264
day 262
hands 261
performing 260
ground 260
back 259
room 259
jumps 258
baseball 257
being 255
female 251
eating 248
coat 247
who 247
football 247
many 246
using 245
mouth 243
suit 242
under 241
purple 240
horse 240
striped 239
mountain 237
watch 237
kids 236
long 235
band 234
sand 230
store 229
sign 229
this 227
its 226
he 226
dark 225
runs 224
players 224
sunglasses 223
look 221
trees 220
construction 218
microphone 217
tennis 217
clothing 215
reading 213
middle 212
during 211
workers 207
basketball 207
uniform 206
ocean 206
toy 202
climbing 201
watches 201
elderly 199
past 199
helmet 198
against 198
dancing 197
restaurant 197
train 197
covered 195
t-shirt 195
window 193
rides 193
or 193
wooden 191
they 191
about 189
team 189
work 188
chair 187
be 187
floor 185
posing 184
outdoor 184
swimming 183
having 181
waiting 180
all 180
colorful 178
very 177
getting 176
trying 175
skateboard 175
five 174
busy 173
fence 173
shirts 172
bag 172
singing 167
ice 166
line 166
jump 164
lake 163
hill 162
laying 161
path 159
bright 158
river 158
cart 157
truck 157
tan 156
grassy 156
inside 156
book 156
cap 156
body 155
market 155
night 154
high 154
making 154
hats 153
ride 153
big 152
track 152
clothes 152
someone 151
others 151
takes 149
kitchen 149
light 148
bus 148
brick 148
umbrella 148
cellphone 147
surrounded 147
towards 146
full 146
outfit 145
motorcycle 145
paper 144
enjoying 143
ready 142
metal 141
swing 139
above 138
she 138
going 138
trick 136
colored 135
sweater 135
open 134
piece 134
bridge 134
stone 133
tank 133
snowy 132
shop 132
painting 131
adults 131
worker 129
stick 128
wave 128
music 127
beside 127
crowded 126
dance 126
phone 125
onto 125
house 124
board 124
shopping 124
vest 123
outdoors 123
photo 123
uniforms 123
hard 122
smiles 122
run 121
backpack 120
flowers 120
pole 120
drinking 117
lot 117
gear 117
toddler 115
kid 115
subway 115
hanging 115
catch 114
hockey 114
arms 114
family 113
fishing 113
costume 113
forest 113
away 112
event 112
like 111
police 111
beautiful 111
fire 111
gathered 111
sleeping 110
set 110
bar 110
leaning 109
guys 108
rope 108
rocks 108
fountain 108
preparing 107
object 107
after 107
steps 106
graffiti 106
stairs 106
selling 105
tall 104
machine 104
take 103
plaid 103
glass 103
volleyball 103
racing 103
chairs 102
asian 101
shirtless 100
shoes 100
arm 99
adult 99
parade 99
sky 98
sunny 98
throwing 98
mountains 98
setting 97
does 97
corner 97
wood 96
African 96
putting 96
pushing 95
public 94
pose 94
2 94
between 94
have 93
ramp 93
view 93
American 92
short 92
drink 92
woods 92
sun 91
plastic 91
slide 91
both 91
flag 90
couch 90
equipment 90
pictures 90
fish 89
laughing 89
ladies 89
poses 89
computer 89
party 89
instruments 88
concrete 88
statue 88
winter 88
buildings 87
sweatshirt 87
which 86
skirt 86
cowboy 86
trail 86
beard 85
playground 84
reads 84
get 84
distance 84
rider 84
yard 84
toward 83
midair 83
seated 82
bed 82
number 82
bikes 82
dock 81
cooking 81
what 81
crossing 80
cars 80
lined 80
flying 79
just 79
bags 79
beer 78
works 78
attire 78
instrument 78
horses 78
six 78
appears 78
leaves 78
rocky 77
vests 77
left 77
cliff 77
cutting 77
filled 77
make 77
showing 76
cross 76
blond-hair 76
pulling 76
where 76
spectators 76
few 76
show 76
parked 75
nearby 75
right 75
mother 75
friends 75
middle-aged 75
station 74
edge 74
skateboarder 74
door 74
carries 74
apron 74
Frisbee 74
tent 74
jersey 74
court 74
driving 73
painted 73
bearded 73
art 73
fruit 73
shore 73
flower 73
scarf 73
performs 73
snowboarder 73
structure 72
cream 72
lying 72
shot 72
concert 71
bowling 71
parking 71
perform 71
time 71
smile 71
grill 70
wet 70
home 70
vendor 70
school 70
cup 69
bird 69
drums 69
various 69
boots 69
dresses 69
vehicle 68
flags 68
paint 68
goggles 68
younger 68
net 68
martial 68
empty 68
smoking 68
box 68
competition 67
eyes 67
cigarette 67
rodeo 67
surfer 67
gentleman 66
hit 66
bucket 66
listening 66
practicing 66
rain 66
scene 65
coffee 65
kicking 65
bottle 65
swinging 65
arts 65
costumes 65
talks 65
prepares 65
students 65
waves 64
safety 64
bathing 64
roof 64
newspaper 64
jackets 64
ladder 63
conversation 63
different 63
audience 63
no 63
items 63
suits 63
onlookers 63
skateboarding 63
staring 63
competing 63
bunch 62
facing 62
railing 62
gather 62
sunset 62
military 62
biker 62
cleaning 61
blanket 61
bikini 61
sliding 61
bicycles 61
giving 61
coming 61
gloves 61
drinks 61
cement 61
sports 61
hot 61
class 60
bowl 60
stop 60
lawn 60
feet 60
match 60
uses 60
pointing 60
bull 60
before 60
desk 60
balloon 59
leaps 59
meal 59
pile 59
tries 59
streets 59
vegetables 59
teams 59
cake 58
walkway 58
platform 58
gathering 58
display 58
can 58
bride 57
huge 57
hold 57
mask 57
gets 57
wedding 56
skier 56
way 56
3 56
chasing 56
Indian 56
classroom 56
speaking 56
surfboard 56
marathon 56
fighting 55
wait 55
climbs 55
silver 55
country 55
kissing 55
counter 55
helmets 55
throw 55
surfing 55
gold 55
animal 55
basket 55
purse 54
lit 54
sings 54
musicians 54
talk 53
son 53
break 53
lights 53
alley 53
screen 53
pass 53
traditional 53
runner 53
tie 52
stroller 52
overlooking 52
legs 52
ski 52
sort 52
place 52
rail 51
seen 51
lap 51
course 51
blowing 51
re@@ 51
same 51
attempting 51
violin 51
females 51
tables 50
asleep 50
shoulder 50
kneeling 50
scooter 50
outfits 50
artist 50
mirror 50
waits 50
signs 50
father 49
waving 49
blond-haired 49
urban 49
faces 49
brunette 49
bald 49
officer 49
end 49
skating 49
writing 49
-@@ 49
skate 49
headphones 49
site 48
hole 48
balloons 48
bubbles 48
says 48
happy 48
business 48
alone 47
electric 47
made 47
swim 47
swings 47
leg 47
ed 47
base 47
close 47
teenage 46
church 46
sticks 46
ing 46
among 46
brightly 46
makes 46
plate 46
collar 46
foreground 46
gym 46
life 46
giant 45
leans 45
mud 45
fixing 45
dirty 45
helping 45
toys 45
clown 45
meat 45
diving 45
barefoot 45
go 45
dancers 45
shallow 45
leather 45
passing 45
skiing 45
umbrellas 45
traffic 45
wears 45
multicolored 44
do 44
below 44
washing 44
sandals 44
desert 44
enjoy 44
officers 44
office 44
falling 44
stadium 44
lone 44
doorway 44
goal 43
dark-haired 43
kick 43
row 43
leash 43
hiking 43
musical 43
deep 43
heads 43
foot 43
tattoo 42
resting 42
S@@ 42
pier 42
picking 42
photographer 42
performance 42
new 41
singer 41
reaching 41
video 41
sled 41
garden 41
; 41
balls 41
cafe 41
wheel 41
laptop 41
hoodie 41
eat 41
canoe 41
stunt 41
flies 41
males 40
catching 40
drawing 40
tunnel 40
golf 40
gives 40
accordion 40
fun 40
conversing 40
throws 40
members 40
drum 40
teeth 40
leaping 40
block 40
coats 40
digging 40
van 39
sweeping 39
hose 39
sculpture 39
hugging 39
atop 39
flip 39
shovel 39
un@@ 39
Christmas 39
friend 39
shows 39
climb 39
cat 39
tricks 39
bat 39
waterfall 39
relaxing 39
bicyclist 39
photograph 39
here 39
prepare 38
local 38
roller 38
how 38
wrestling 38
A@@ 38
catches 38
moving 38
B@@ 38
microscope 38
upside 38
cold 38
passes 38
chef 38
D@@ 38
town 38
tire 38
cloth 38
plants 38
pond 37
sleeps 37
trunks 37
cyclist 37
held 37
opposing 37
karate 37
shoulders 37
move 37
lots 37
carnival 37
mural 37
Chinese 37
C@@ 37
stream 37
beige 37
neck 37
underneath 37
daughter 37
individuals 36
jogging 36
cane 36
rolling 36
project 36
without 36
y 36
ring 36
customers 36
these 36
bicyclists 36
paved 36
splashing 36
waters 36
telescope 36
points 36
landscape 36
performer 36
well 36
clear 36
stuffed 35
booth 35
crosswalk 35
crying 35
wear 35
&apos; 35
cut 35
hiker 35
fight 35
trampoline 35
cloudy 35
fallen 35
produce 35
cyclists 35
runners 35
lays 34
M@@ 34
picnic 34
log 34
sandy 34
lab 34
mat 34
turn 34
straw 34
themselves 34
pulled 34
infant 34
goes 34
wooded 34
dances 34
s 34
square 34
dinner 34
makeup 34
matching 34
lunch 34
H@@ 34
closed 34
attempts 34
gun 34
third 34
P@@ 34
including 34
surface 34
taken 34
dancer 34
staircase 33
covering 33
sewing 33
nose 33
center 33
tracks 33
trash 33
balcony 33
help 33
pedestrians 33
racket 33
windows 33
deck 33
shoe 33
pitcher 33
circle 32
e@@ 32
boxes 32
driver 32
blouse 32
himself 32
seven 32
hikers 32
softball 32
chases 32
indoor 32
cow 32
porch 32
device 32
g@@ 32
athlete 32
pulls 32
slope 32
birds 32
teenagers 32
wrapped 32
pushes 32
festival 32
palm 32
4 32
grocery 32
marching 32
cheerleaders 32
speaks 32
not 31
puts 31
skis 31
gymnast 31
rest 31
ledge 31
heavy 31
opening 31
drives 31
shaking 31
sing 31
formal 31
robe 31
foreign 31
steep 31
kind 31
G@@ 30
overalls 30
plane 30
kayak 30
boats 30
wetsuit 30
ship 30
curb 30
puddle 30
books 30
bent 30
es 30
type 30
see 30
swims 30
cones 30
shaving 30
hoop 30
colors 30
teenager 30
gate 29
poles 29
sheet 29
pouring 29
nice 29
evening 29
paddling 29
seat 29
jean 29
kicks 29
reaches 29
lift 29
luggage 29
pot 29
gentlemen 29
fall 29
blocks 29
red-hair 29
enjoys 29
lies 29
wheelchair 29
pair 29
fingers 29
checking 29
opposite 29
attached 29
hangs 29
raft 29
robes 29
shooting 29
motorcycles 29
riders 29
airplane 29
sale 28
guard 28
mound 28
shoveling 28
red-haired 28
denim 28
try 28
brown-haired 28
hammer 28
railroad 28
tops 28
protective 28
in@@ 28
living 28
either 28
khaki 28
garb 28
string 28
soldier 28
laugh 28
hurdle 28
sea 28
fabric 28
arena 28
poster 28
podium 28
soldiers 28
skirts 28
image 28
piano 28
laundry 28
rugby 28
tractor 27
happily 27
part 27
goalie 27
eats 27
inflatable 27
clean 27
frame 27
moves 27
walls 27
juggling 27
stool 27
low 27
floating 27
s@@ 27
ear 27
groom 27
backyard 27
balancing 27
put 27
knee 27
camouflage 27
fair 27
golden 27
fans 27
pavement 27
oriental 27
bottom 27
flight 27
jerseys 27
hula 27
backwards 26
courtyard 26
shade 26
plant 26
5 26
multiple 26
caught 26
eye 26
keyboard 26
closeup 26
wine 26
tongue 26
garbage 26
buying 26
saxophone 26
rests 26
curly 26
socks 26
nap 26
fresh 26
ers 26
style 26
hay 26
use 26
polo 26
pajamas 26
you 25
ly 25
plaza 25
crouches 25
kneels 25
things 25
bikers 25
fenced 25
land 25
scaffolding 25
carriage 25
swimsuit 25
underwater 25
escalator 25
cheering 25
bread 25
student 25
E@@ 25
motocross 25
de@@ 25
musician 25
serving 25
step 25
dry 25
tube 25
er 25
laughs 25
appear 25
touching 25
round 25
suspended 25
frisbee 25
kiss 25
towel 25
New 25
married 25
shown 25
R@@ 25
professional 25
goods 25
sell 25
guitars 25
american 25
advertisement 24
magazine 24
dining 24
hood 24
direction 24
surf 24
tools 24
animals 24
hooded 24
welding 24
t 24
floral 24
club 24
long-haired 24
acoustic 24
backpacks 24
bucking 24
narrow 24
marketplace 24
checkered 24
thrown 24
fast 24
spray 24
hallway 24
paints 24
led 24
bandanna 24
decorated 24
chain 24
sets 24
Santa 24
opponent 24
native 24
start 24
pipe 24
stove 23
neon 23
raised 23
obstacle 23
climber 23
vehicles 23
brushing 23
bubble 23
money 23
candy 23
rowing 23
gravel 23
benches 23
seems 23
harness 23
compete 23
figure 23
amusement 23
bending 23
airport 23
feeding 23
post 23
sheep 23
German 23
branch 23
button 23
only 23
sink 23
F@@ 23
policeman 23
presentation 23
ears 23
sharing 23
sticking 23
wagon 23
L@@ 23
bushes 22
operating 22
entrance 22
grilling 22
tub 22
firefighters 22
print 22
pit 22
mom 22
amp 22
Japanese 22
attempt 22
participating 22
hitting 22
half 22
individual 22
cone 22
snowboarding 22
wire 22
good 22
heels 22
! 22
muddy 22
orchestra 22
fly 22
teacher 22
York 22
referee 22
lo@@ 22
I 22
bathroom 22
herself 22
athletic 22
smoke 22
sport 22
trumpet 22
examining 22
sporting 22
also 21
ropes 21
machinery 21
barbecue 21
map 21
song 21
lane 21
discussion 21
ceiling 21
passengers 21
garage 21
but 21
leading 21
summer 21
cleans 21
routine 21
ding 21
( 21
eight 21
jumpsuit 21
carpet 21
range 21
coach 21
jungle 21
action 21
motorcyclist 21
navy 21
banner 21
long-sleeved 21
lay 21
racetrack 21
puppy 21
tool 21
practice 21
tourists 21
chest 21
haircut 21
studio 21
photographs 21
drummer 21
ds 21
horseback 21
racer 21
pine 21
read 20
ATV 20
snow-covered 20
intersection 20
boardwalk 20
pull 20
dusk 20
snowboard 20
dreadlocks 20
d@@ 20
swimmer 20
fruits 20
) 20
sandwich 20
peace 20
houses 20
museum 20
celebrating 20
groups 20
observe 20
stones 20
stopped 20
bath 20
pe@@ 20
mustache 20
tag 20
indoors 20
st@@ 20
dune 20
cardboard 20
cobblestone 20
shaped 20
patio 20
bottles 20
hillside 20
calm 20
skateboards 20
scuba 20
dark-skinned 20
ahead 20
college 20
funny 20
wide 20
puck 20
crouching 20
headscarf 20
tattooed 20
speech 20
er@@ 20
vendors 20
heart 20
model 20
microphones 20
storefront 20
boxing 20
e 19
beam 19
rubber 19
duck 19
member 19
sword 19
hall 19
folding 19
helps 19
hospital 19
apartment 19
baskets 19
d 19
container 19
buy 19
ting 19
fencing 19
sleeveless 19
fancy 19
ders 19
barrel 19
beverage 19
doors 19
petting 19
shoot 19
youth 19
uniformed 19
catcher 19
outstretched 19
protest 19
a@@ 19
guitarist 19
fix 19
nighttime 19
slides 19
polka 19
ri@@ 19
neighborhood 19
tattoos 19
first 19
possibly 19
t-shirts 19
leaving 19
maroon 19
cricket 19
medical 19
ate 19
sells 19
speed 19
BMX 19
color 18
training 18
mixing 18
flipping 18
al@@ 18
mall 18
farm 18
card 18
handstand 18
brush 18
ar@@ 18
bank 18
tile 18
m 18
clay 18
motorbike 18
stroll 18
squatting 18
fluffy 18
I@@ 18
stretching 18
rink 18
pick 18
excited 18
rural 18
blows 18
turning 18
balding 18
great 18
ornate 18
t@@ 18
bass 18
lamp 18
pieces 18
bars 18
firetruck 18
pen 18
rough 18
live 18
position 18
wrestle 18
belt 18
en@@ 18
lines 18
item 18
choir 18
ethnic 18
moment 18
float 18
dishes 18
thin 18
reach 18
seats 18
buckets 18
inspecting 18
bow 18
mostly 18
calf 18
broom 18
chase 18
skates 18
st 18
jockey 18
surrounding 18
naked 18
1 18
tied 17
reflective 17
whilst 17
balance 17
hits 17
batter 17
doctor 17
gas 17
stack 17
cuts 17
derby 17
numerous 17
hang 17
castle 17
T-shirt 17
unicycle 17
discussing 17
backs 17
ted 17
crew 17
fisherman 17
emergency 17
wheels 17
el@@ 17
raises 17
swimmers 17
mobile 17
nets 17
clouds 17
formation 17
warm 17
spraying 17
snack 17
p@@ 17
protesting 17
starting 17
computers 17
vegetable 17
tents 17
pottery 17
bowls 17
more 17
hugs 17
ribbon 17
kite 17
necklace 17
autumn 17
grinding 17
mid 17
stairway 17
headband 17
an@@ 17
dead 17
following 17
stripes 17
stares 17
library 17
got 17
gymnasium 17
rainy 17
pitch 17
finish 17
pigeons 17
coloring 17
photographed 17
village 17
viewing 17
smokes 17
leads 17
spinning 17
finger 17
crosses 17
tourist 17
african 17
scenery 17
furniture 17
listens 17
broken 16
converse 16
candles 16
approaching 16
intently 16
chefs 16
skiers 16
chalk 16
elephant 16
spread 16
loading 16
crane 16
flip-flops 16
parents 16
ps 16
landing 16
&amp; 16
space 16
lounging 16
trailer 16
birthday 16
shed 16
dish 16
i@@ 16
control 16
horn 16
bear 16
redheaded 16
N@@ 16
name 16
k 16
we 16
ts 16
trunk 16
balances 16
raising 16
television 16
teammate 16
partially 16
engaged 16
observing 16
conference 16
overhead 16
plates 16
O@@ 16
peering 16
photos 16
electronic 16
carving 16
patient 16
hug 16
cameras 16
turns 16
ballerina 16
sofa 16
pillow 16
fireman 16
sprinkler 16
lifting 16
objects 16
hoops 16
clad 16
&apos;t 16
barrier 16
ded 16
homeless 16
performers 16
moped 16
beneath 16
spotted 15
rainbow 15
factory 15
binoculars 15
shovels 15
billboard 15
security 15
steel 15
pan 15
paddles 15
odd 15
ro@@ 15
flowered 15
athletes 15
hills 15
shining 15
waterway 15
carry 15
K@@ 15
o@@ 15
directions 15
amongst 15
con@@ 15
coaster 15
ter 15
sized 15
called 15
participate 15
cape 15
casual 15
share 15
tower 15
apple 15
ks 15
skater 15
taxi 15
wife 15
splashes 15
terrain 15
repair 15
flips 15
pack 15
straight 15
jewelry 15
backdrop 15
shaved 15
gift 15
upon 15
theater 15
drill 15
forward 15
material 15
stare 15
smaller 15
blow 15
barber 15
follows 15
slightly 15
newborn 15
fan 15
practices 15
crafts 15
l@@ 15
airborne 15
pretty 15
present 15
cool 15
telephone 15
h@@ 15
liquid 15
aisle 15
advertising 15
di@@ 15
relax 15
races 15
wings 15
monument 15
papers 15
corn 15
been 15
shades 15
lacrosse 15
shakes 14
k@@ 14
biking 14
donkey 14
silly 14
engine 14
repairs 14
check 14
caps 14
job 14
customer 14
cook 14
shoreline 14
fake 14
push 14
shops 14
cans 14
order 14
oven 14
heading 14
puppies 14
angel 14
weaving 14
sh@@ 14
bin 14
les 14
praying 14
craft 14
firemen 14
wading 14
ling 14
free 14
interacting 14
guns 14
y-@@ 14
bite 14
attention 14
repairing 14
teaching 14
placing 14
machines 14
downtown 14
played 14
der 14
keep 14
creek 14
case 14
receiving 14
if 14
most 14
drive 14
weather 14
still 14
consisting 14
vi@@ 14
modern 14
fur 14
th@@ 14
lounge 14
cups 14
g 14
se 14
passenger 14
glove 14
lifted 14
so 14
waterfront 14
bouquet 14
comes 14
camel 14
o 14
exercise 14
attending 14
overweight 14
sailing 14
sneakers 14
po@@ 14
boards 14
admiring 14
London 14
observes 13
ballet 13
studying 13
camping 13
bamboo 13
tropical 13
la@@ 13
iron 13
knit 13
saw 13
chainsaw 13
hut 13
learning 13
laptops 13
doll 13
messy 13
pro@@ 13
act 13
carts 13
wheelbarrow 13
nature 13
spoon 13
rickshaw 13
clapping 13
reflection 13
traveling 13
tires 13
exhibit 13
burgundy 13
examines 13
debris 13
gymnastics 13
firefighter 13
eggs 13
chatting 13
jet 13
merchandise 13
far 13
pizza 13
rod 13
l 13
sack 13
ated 13
touches 13
highway 13
rafting 13
tiny 13
cowboys 13
dust 13
tray 13
alleyway 13
sailboat 13
handing 13
patterned 13
Man 13
knife 13
was 13
flute 13
butterfly 13
stomach 13
form 13
filling 13
rows 13
places 13
rollerblading 13
bystanders 13
pre@@ 13
descent 13
checks 13
entering 13
groceries 13
sweeps 13
Caucasian 13
forehead 13
single 13
official 13
incline 13
ceremony 13
meeting 13
similar 13
paddle 13
dimly 13
w@@ 13
cheer 13
bleachers 13
tea 13
wheelie 13
6 13
applying 13
umpire 13
world 13
juice 13
come 13
browsing 13
bare 13
ty 13
crossed 13
aged 13
lead 13
gestures 13
i 12
artwork 12
trip 12
wild 12
picks 12
bricks 12
pigtails 12
magazines 12
scooters 12
helicopter 12
teen 12
paperwork 12
me@@ 12
chicken 12
cheek 12
du@@ 12
give 12
ch 12
boulder 12
story 12
ch@@ 12
branches 12
wires 12
stall 12
thumbs 12
soda 12
king 12
science 12
teal 12
located 12
adjusting 12
racers 12
diver 12
farmer 12
rapids 12
ponytail 12
hotel 12
tee 12
shadows 12
logs 12
carefully 12
ity 12
cooks 12
silhouette 12
chess 12
trucks 12
countryside 12
ine 12
dough 12
blankets 12
ked 12
newly 12
China 12
falls 12
seem 12
games 12
beanie 12
shoppers 12
gs 12
cards 12
bagpipes 12
tricycle 12
laundromat 12
wares 12
visiting 12
sunlight 12
us 12
wh@@ 12
speak 12
p 12
beret 12
listen 12
per@@ 12
serves 12
target 12
wrap 12
on@@ 12
upward 12
pillows 12
em@@ 12
inspects 12
stops 12
suitcase 12
yarn 12
motorcyclists 12
sides 12
star 12
watched 12
long-sleeve 12
mo@@ 12
dives 12
opens 12
casually 12
unusual 12
greyhound 12
monkey 12
newspapers 12
complete 12
tossing 12
crouched 12
over@@ 12
tackle 12
visible 12
gallery 12
tights 12
snowshoes 12
ac@@ 12
movie 12
lecture 12
cage 12
cute 12
playfully 12
knees 12
amidst 12
biting 12
tape 12
dad 12
n 12
beverages 12
rally 12
point 12
deer 12
ched 12
fireworks 12
yoga 12
ates 12
celebration 12
do@@ 12
als 12
skaters 12
wrestler 12
kayaks 12
snowsuit 12
focused 12
patch 11
march 11
no@@ 11
lighted 11
wi@@ 11
types 11
thumb 11
hand@@ 11
load 11
suspenders 11
pilot 11
Mar@@ 11
dusty 11
belts 11
chopping 11
underwear 11
m@@ 11
placed 11
covers 11
ck 11
injured 11
si@@ 11
arcade 11
horizon 11
banjo 11
African-American 11
f@@ 11
larger 11
gu@@ 11
folded 11
scarves 11
bu@@ 11
screaming 11
shadow 11
earphones 11
furry 11
hiding 11
W@@ 11
brother 11
y@@ 11
me 11
mop 11
pots 11
we@@ 11
ating 11
teens 11
v@@ 11
printed 11
rollerskating 11
chalkboard 11
swimsuits 11
whom 11
strange 11
be@@ 11
involving 11
scenic 11
auditorium 11
location 11
loom 11
cop 11
Mohawk 11
inter@@ 11
record 11
transportation 11
rice 11
gathers 11
poor 11
khakis 11
n@@ 11
my 11
dumpster 11
floats 11
ping 11
leaf 11
parachute 11
built 11
turned 11
cycling 11
hotdog 11
u@@ 11
finishing 11
turquoise 11
christmas 11
gazes 11
black-haired 11
displayed 11
oranges 11
planting 11
pu@@ 11
passersby 11
mug 11
salon 11
sts 11
to@@ 11
collared 11
circular 11
cello 11
lifts 11
displaying 11
ans 11
designs 11
mower 11
hike 11
tackling 11
ls 11
valley 11
involved 11
stacked 11
meet 11
done 11
headed 11
motorized 11
couples 11
surgery 11
surfs 11
Army 11
trolley 11
supplies 11
score 11
fashion 11
products 11
riot 11
recording 11
lighting 11
closely 11
blazer 11
torch 11
2012 11
gazing 10
toddlers 10
rooftop 10
frozen 10
tribal 10
dive 10
nurses 10
darkened 10
ti@@ 10
handrail 10
-like 10
maintenance 10
trashcan 10
washes 10
leap 10
aprons 10
stilts 10
highchair 10
monitor 10
cotton 10
pins 10
walked 10
adjusts 10
booths 10
farmers 10
cluttered 10
creating 10
ke 10
quickly 10
stepping 10
John 10
ties 10
experiment 10
foliage 10
pathway 10
gardening 10
burning 10
fog 10
Asia 10
serve 10
morning 10
tiled 10
pet 10
own 10
upset 10
winding 10
spot 10
sprayed 10
roadside 10
strapped 10
T@@ 10
grabbing 10
goat 10
cab 10
kayaking 10
lens 10
ning 10
driveway 10
c@@ 10
flannel 10
displays 10
pin 10
medium 10
quarterback 10
gaze 10
eastern 10
army 10
d-@@ 10
scaffold 10
portrait 10
ful 10
blood 10
brushes 10
pumpkin 10
The 10
tripod 10
shiny 10
pads 10
pencil 10
ation 10
checkers 10
featuring 10
even 10
decorative 10
department 10
canvas 10
fully 10
hind 10
laden 10
le@@ 10
chinese 10
America 10
activity 10
crowds 10
dragging 10
contraption 10
arch 10
facility 10
shape 10
workshop 10
ble 10
workout 10
leotard 10
crates 10
juggles 10
chewing 10
fa@@ 10
link 10
lobby 10
shepherd 10
peeking 10
ment 10
than 10
headdress 10
venue 10
our 10
chopsticks 10
apart 10
menu 10
process 10
camels 10
2@@ 10
vintage 10
rafts 10
sad 10
writes 10
gray-haired 10
# 10
1@@ 10
indian 10
cloud 10
ses 10
approaches 10
fla@@ 10
afternoon 10
abandoned 10
clowns 10
leggings 10
tight 10
gesture 10
belongings 10
touch 10
trench 10
will 10
est 10
ws 10
stair 10
shirted 10
parasailing 10
b@@ 10
co@@ 10
sideways 10
embracing 10
cheese 10
for@@ 10
Olympics 10
numbers 10
pin@@ 10
heavily 10
guards 10
celebrate 10
J@@ 10
wig 10
City 10
rifle 10
drawn 10
bathtub 10
cover 10
Canadian 10
second 10
almost 9
fat 9
bends 9
ol@@ 9
bles 9
stoop 9
antique 9
ce 9
teammates 9
car@@ 9
strolls 9
decorations 9
kilt 9
canyon 9
jogs 9
pale 9
complex 9
operates 9
presenting 9
Elmo 9
service 9
bs 9
section 9
shaggy 9
task 9
waiter 9
staff 9
bicycling 9
stuck 9
painter 9
sniffing 9
ging 9
joy 9
breakdancing 9
sparring 9
attractive 9
tired 9
raincoat 9
white-@@ 9
brass 9
DJ 9
Mexican 9
cks 9
ingredients 9
tags 9
or@@ 9
Shepherd 9
design 9
containing 9
handle 9
Texas 9
ad 9
rug 9
cellphones 9
environment 9
underground 9
pinata 9
downhill 9
sorting 9
draw 9
variety 9
projector 9
bouncing 9
wind 9
US 9
accident 9
chocolate 9
travel 9
wheeled 9
fishes 9
Bu@@ 9
sawing 9
caucasian 9
mid-@@ 9
gesturing 9
really 9
ra@@ 9
waist 9
treat 9
ss 9
plank 9
because 9
fell 9
peaks 9
pushed 9
interesting 9
motion 9
peer 9
soap 9
crayons 9
skies 9
sledding 9
.@@ 9
TV 9
news 9
warehouse 9
photographers 9
fl@@ 9
industrial 9
jumped 9
ticket 9
icy 9
images 9
scouts 9
short-haired 9
win 9
notebook 9
rings 9
stump 9
temple 9
curly-haired 9
turban 9
tending 9
pattern 9
ducks 9
muzzle 9
U@@ 9
grabs 9
motor 9
columns 9
r@@ 9
4@@ 9
speeding 9
notes 9
figures 9
tu@@ 9
rollerblades 9
cleaner 9
tiger 9
toothbrush 9
lower 9
muzzled 9
crashing 9
begins 9
protesters 9
unique 9
jumper 9
doesn 9
fields 9
followed 9
ic 9
th 9
jockeys 9
loaded 9
egg 9
canal 9
human 9
dot 9
focus 9
husband 8
ta@@ 8
barefooted 8
supermarket 8
meadow 8
crops 8
-colored 8
much 8
too 8
forested 8
scrubs 8
napping 8
classic 8
frying 8
adorned 8
et 8
workman 8
somewhere 8
mouths 8
written 8
strolling 8
cor@@ 8
cries 8
surgical 8
spins 8
per 8
plain 8
had 8
bottoms 8
employees 8
skills 8
redhead 8
transit 8
amount 8
late 8
visor 8
vending 8
labeled 8
camp 8
hammock 8
ching 8
masks 8
ex@@ 8
splashed 8
thick 8
stuff 8
-looking 8
companion 8
stretches 8
raining 8
Hawaiian 8
flat 8
b 8
hydrant 8
campfire 8
draped 8
let 8
crawls 8
earth 8
legged 8
midst 8
synchronized 8
skinny 8
ages 8
squeezing 8
league 8
nun 8
say 8
cherry 8
washer 8
dryer 8
lips 8
ma@@ 8
al 8
de 8
ss@@ 8
pping 8
mesh 8
at@@ 8
jeep 8
information 8
mountainous 8
unhappy 8
protect 8
Jenga 8
Cafe 8
call 8
boarding 8
strollers 8
punch 8
separate 8
purses 8
measuring 8
package 8
sea@@ 8
mix 8
artists 8
signing 8
candle 8
colorfully 8
rugs 8
en 8
foggy 8
directing 8
Spanish 8
lively 8
demonstration 8
handed 8
sli@@ 8
fountains 8
tournament 8
pocket 8
buried 8
texting 8
shawl 8
illuminated 8
banners 8
ches 8
punching 8
cheerleading 8
social 8
citizens 8
maybe 8
canoes 8
ker 8
bra 8
f 8
gown 8
casting 8
bundle 8
stringed 8
mess 8
judges 8
babies 8
perched 8
bananas 8
easel 8
beads 8
peers 8
care 8
tarp 8
filming 8
ic@@ 8
harmonica 8
company 8
squats 8
lanterns 8
daytime 8
bridesmaids 8
laboratory 8
Eastern 8
surfers 8
9@@ 8
sprays 8
id 8
diner 8
homemade 8
w 8
leopard 8
when 8
Asians 8
pours 8
conductor 8
ir@@ 8
muscular 8
mixer 8
monitors 8
battle 8
silhouetted 8
chased 8
ster 8
il@@ 8
sed 8
looked 8
tackled 8
8 8
hardwood 8
vibrant 8
establishment 8
examine 8
trains 8
c 8
fetch 8
backseat 8
e-@@ 8
strings 8
ze 8
foods 8
tutu 8
product 8
kisses 8
India 8
grab 8
hammering 8
nail 8
commercial 8
11 8
sunbathing 8
employee 8
mounted 8
bedroom 8
tug-of-war 8
tail 8
spotlight 8
bo@@ 8
grinds 8
acrobatic 8
licking 8
aquarium 8
speaker 8
striking 8
draws 8
poodle 8
tour 8
packed 8
religious 8
bartender 8
sters 8
bikinis 8
drying 8
create 8
lands 8
waterskiing 8
characters 8
potato 8
destination 8
- 8
ish 8
ordering 8
lining 8
murky 8
mohawk 8
amid 8
victory 8
gra@@ 8
pay 8
navigates 8
carrier 8
le 8
power 8
cigar 8
speeds 8
sidelines 8
5@@ 8
digital 8
prepared 8
upwards 8
sculptures 8
Olympic 8
lion 7
slacks 7
olive 7
hotdogs 7
though 7
ler 7
railings 7
ba@@ 7
sharp 7
tubes 7
rustic 7
starring 7
applies 7
shes 7
feathered 7
woodland 7
pony 7
cast 7
completing 7
trophy 7
nude 7
bush 7
fork 7
dge 7
dig 7
lush 7
stores 7
puppet 7
cre@@ 7
cartwheel 7
com@@ 7
find 7
bar@@ 7
mitt 7
elaborate 7
feather 7
bur@@ 7
marble 7
makeshift 7
ills 7
miniature 7
trotting 7
favorite 7
mascot 7
ings 7
parent 7
heavyset 7
patrons 7
snacks 7
beating 7
sunshine 7
resort 7
mowing 7
rimmed 7
desks 7
mu@@ 7
head@@ 7
elder 7
policemen 7
op@@ 7
cu@@ 7
casino 7
conducting 7
purchase 7
ard 7
tracksuit 7
stretched 7
skyline 7
out@@ 7
war@@ 7
divers 7
pointed 7
storm 7
level 7
laid 7
snowball 7
pans 7
Square 7
support 7
collie 7
Ch@@ 7
vacuum 7
stripe 7
beers 7
expression 7
picket 7
bongo 7
rabbit 7
fuzzy 7
merry-go-round 7
pirate 7
V@@ 7
shack 7
cheerleader 7
waitress 7
C 7
bowtie 7
blocking 7
advertisements 7
were 7
roll 7
watermelons 7
cargo 7
presents 7
shower 7
blower 7
buffet 7
ist 7
contest 7
crate 7
A 7
pigeon 7
tree-lined 7
bit 7
discuss 7
acting 7
cigarettes 7
bounds 7
boxers 7
rolls 7
cameraman 7
tre@@ 7
foam 7
harbor 7
guide 7
begin 7
Walmart 7
monk 7
soup 7
crosscountry 7
ATM 7
aqua 7
newlywed 7
warming 7
arrow 7
marked 7
tying 7
barrels 7
seafood 7
barely 7
clock 7
treadmill 7
European 7
butcher 7
sold 7
finished 7
dump 7
exercising 7
cur@@ 7
pedestrian 7
rag 7
aring 7
spring 7
activities 7
logo 7
forming 7
oil 7
flock 7
cats 7
cave 7
film 7
reception 7
go-cart 7
somebody 7
crown 7
fedora 7
ons 7
quiet 7
bows 7
wash 7
rolled 7
daily 7
named 7
entertain 7
seating 7
clothed 7
dinosaur 7
cannon 7
wilderness 7
accompanied 7
greyhounds 7
marker 7
? 7
roses 7
huddled 7
ceremonial 7
els 7
love 7
exiting 7
pops 7
ur@@ 7
features 7
character 7
topless 7
fill 7
disc 7
jumpsuits 7
Red 7
stance 7
typing 7
vegetation 7
dotted 7
ally 7
barking 7
British 7
cking 7
waterside 7
skydiving 7
cash 7
fit 7
semi 7
tow 7
cted 7
framed 7
nine 7
chin 7
await 7
nurse 7
designed 7
pyramid 7
sailor 7
3@@ 7
vacuuming 7
sleeves 7
war 7
boxer 7
necklaces 7
ber@@ 7
scattered 7
7 7
missing 7
blurred 7
deserted 7
checkout 7
xylophone 7
sta@@ 7
wrestlers 7
scientist 7
doctors 7
dolls 7
ator 7
travels 7
rollerskates 7
hilly 7
snowboards 7
bend 7
fellow 7
cathedral 7
se@@ 7
actors 7
Europe 7
opponents 7
series 7
confetti 7
political 7
convenience 7
photographing 7
crest 7
defender 7
system 6
gliding 6
am 6
McDonald 6
climbers 6
soars 6
dis@@ 6
main 6
youths 6
flowing 6
sweaters 6
bakery 6
ped 6
reddish 6
assembled 6
hea@@ 6
ously 6
barbecuing 6
wheeler 6
spatula 6
cardigan 6
scooping 6
curved 6
fashioned 6
flaming 6
Muslim 6
elevated 6
coast 6
briefcase 6
slopes 6
may 6
bib 6
watering 6
probably 6
dragon 6
rush 6
weapon 6
spots 6
checked 6
ky 6
grills 6
facial 6
anvil 6
hour 6
is@@ 6
propped 6
expanse 6
stirring 6
off-camera 6
te@@ 6
waterskier 6
talent 6
floaties 6
ve 6
ways 6
crawling 6
split 6
ar 6
teddy 6
hook 6
barriers 6
swords 6
tomatoes 6
thing 6
Ar@@ 6
pipes 6
raking 6
scaling 6
red-@@ 6
goatee 6
pacifier 6
french 6
bundled 6
lime 6
aiming 6
stunts 6
man@@ 6
gh@@ 6
str@@ 6
hear 6
pan@@ 6
show@@ 6
mates 6
within 6
wineglasses 6
ger 6
radio 6
relaxes 6
combat 6
9 6
and@@ 6
strike 6
oms 6
cli@@ 6
baked 6
shines 6
bones 6
soft 6
emerges 6
ravine 6
pped 6
crash 6
min@@ 6
woven 6
message 6
length 6
zone 6
steers 6
dots 6
lean 6
skull 6
pe 6
ils 6
vast 6
lanes 6
register 6
arrangement 6
pad 6
Times 6
nightclub 6
sc@@ 6
campers 6
tablecloth 6
flowery 6
knitting 6
pitching 6
personnel 6
riverbank 6
shingles 6
ski@@ 6
words 6
Halloween 6
poodles 6
pillar 6
grasping 6
raise 6
ins 6
shorter 6
clap 6
rack 6
overlook 6
aid 6
sample 6
licks 6
razor 6
ering 6
socializing 6
professor 6
aboard 6
freshly 6
turkey 6
parachutes 6
identical 6
cable 6
mountainside 6
lovely 6
mountaintop 6
snowman 6
im@@ 6
noses 6
damaged 6
any 6
bodysuit 6
upright 6
dropping 6
splash 6
glacier 6
iling 6
handbag 6
relay 6
cabin 6
ban@@ 6
mittens 6
herding 6
bi@@ 6
badge 6
liquor 6
ess 6
harvesting 6
can@@ 6
banana 6
actively 6
artistic 6
USA 6
assisting 6
helmeted 6
Middle 6
angle 6
flames 6
magnifying 6
Jewish 6
ruins 6
dding 6
fireplace 6
huddle 6
those 6
sses 6
brooms 6
gloved 6
belly 6
aerial 6
trimming 6
bronco 6
hunched 6
tri@@ 6
cows 6
featured 6
grand 6
rails 6
ving 6
beams 6
two-@@ 6
squad 6
deli 6
posed 6
microscopes 6
sundress 6
shouting 6
t-@@ 6
devices 6
Sooners 6
progress 6
column 6
peach 6
white-haired 6
lipstick 6
connected 6
massive 6
ct 6
quad 6
return 6
des 6
fol@@ 6
Seattle 6
ru@@ 6
lie 6
ribbons 6
re-@@ 6
stars 6
piles 6
handheld 6
sted 6
terminal 6
excitedly 6
para@@ 6
walkers 6
zing 6
constructed 6
follow 6
unloading 6
floors 6
med 6
snake 6
jo@@ 6
lea@@ 6
build 6
crafting 6
jog 6
hearts 6
O 6
wheelchairs 6
skateboarders 6
ho@@ 6
nails 6
arrive 6
award 6
stride 6
special 6
mature 6
antly 6
curve 6
sprinklers 6
tips 6
Legos 6
completely 6
toe 6
braided 6
sister 6
broad 6
kiosk 6
boogie 6
portable 6
age 6
well-dressed 6
iner 6
mic 6
medieval 6
fo@@ 6
il 6
test 6
creates 6
owner 6
10 6
ol 6
wing 6
keys 6
pro 6
ancient 6
cockpit 6
scissors 6
caution 6
Con@@ 6
rusty 6
dessert 6
saris 6
Miami 6
armed 6
seagulls 6
gr@@ 6
tackles 6
monster 6
goers 6
bee 6
na@@ 6
tagged 6
letters 6
barren 6
digs 6
kicked 6
cha@@ 6
weight 6
kes 6
able 6
seashore 6
Com@@ 6
key 6
it@@ 6
cowgirl 6
sol@@ 6
tra@@ 6
parallel 6
mule 6
ea@@ 6
ad@@ 6
asking 6
sons 6
z@@ 6
fixes 6
senior 6
cables 6
bulldozer 6
competitive 6
given 6
runway 6
ultimate 6
axe 6
ations 6
nearly 6
NY 6
clutching 6
holes 6
gowns 6
congregate 6
el 6
State 6
badminton 6
White 5
su@@ 5
roadway 5
seesaw 5
know 5
packing 5
ascending 5
windbreaker 5
drilling 5
mou@@ 5
phones 5
pancake 5
rubs 5
flour 5
operation 5
javelin 5
partying 5
burgers 5
eye@@ 5
fills 5
sheer 5
pretending 5
ten@@ 5
petals 5
structures 5
torches 5
smooth 5
breath 5
tor@@ 5
knee-high 5
pen@@ 5
j@@ 5
kers 5
grins 5
gro@@ 5
sk@@ 5
fleece 5
searching 5
pride 5
terrier 5
perhaps 5
backlit 5
major 5
sound 5
padded 5
cooked 5
ters 5
persons 5
cooler 5
tiara 5
bookshelf 5
interviewed 5
watermelon 5
ction 5
backhoe 5
rubble 5
now 5
interact 5
unseen 5
evil 5
arid 5
faced 5
multicolor 5
stacks 5
cartoon 5
wiping 5
turtle 5
pper 5
hand-@@ 5
tongs 5
vertical 5
peeks 5
wades 5
earmuffs 5
served 5
exhibition 5
ators 5
robot 5
ple@@ 5
pauses 5
sting 5
drops 5
suitcases 5
handles 5
cheeks 5
peak 5
ear@@ 5
mi@@ 5
plush 5
farm@@ 5
shoeshine 5
cal 5
word 5
strikes 5
greenery 5
handling 5
emerging 5
blindfolded 5
instructing 5
concentrates 5
cloths 5
sculpting 5
goats 5
loose 5
last 5
ces 5
community 5
siting 5
ul@@ 5
ci@@ 5
competitors 5
tugging 5
yelling 5
ent@@ 5
ang@@ 5
stretch 5
weapons 5
clothesline 5
sniffs 5
li@@ 5
domin@@ 5
ance 5
beginning 5
region 5
chat 5
slicing 5
tomato 5
backstroke 5
leashes 5
posts 5
wakeboard 5
bun@@ 5
masked 5
mannequin 5
L 5
balanced 5
recreational 5
likely 5
r 5
bell 5
Mouse 5
contents 5
ved 5
shields 5
blocked 5
St. 5
cradles 5
litter 5
thinking 5
trays 5
saying 5
motorbikes 5
seagull 5
ca@@ 5
formations 5
unfinished 5
toilet 5
dribbles 5
potted 5
parachuting 5
snaps 5
rises 5
clearing 5
installing 5
hi@@ 5
asphalt 5
glider 5
East 5
whole 5
carried 5
face-@@ 5
sweatshirts 5
fairy 5
Hu@@ 5
marches 5
baton 5
le-@@ 5
shelves 5
suburban 5
lets 5
cupcake 5
piled 5
snowing 5
monopoly 5
passed 5
conditions 5
dilapidated 5
run-down 5
layers 5
carved 5
bounding 5
rock@@ 5
superman 5
cliffs 5
breaking 5
haired 5
nicely 5
backward 5
tumbling 5
completed 5
er-@@ 5
cityscape 5
chained 5
text 5
whistle 5
punk 5
steam 5
ger@@ 5
scantily 5
wa@@ 5
dyed 5
priest 5
chips 5
apples 5
girlfriend 5
escape 5
growing 5
daylight 5
Concert 5
singers 5
ferry 5
ing@@ 5
towels 5
sweatsuit 5
casts 5
rowboat 5
appearing 5
ax 5
collecting 5
parts 5
spanish 5
din@@ 5
sleep 5
lost 5
comfortable 5
organ 5
mothers 5
batman 5
En@@ 5
ately 5
archway 5
embrace 5
convertible 5
foot@@ 5
Rollerblades 5
chunk 5
opened 5
Street 5
lonely 5
lar 5
eyeglasses 5
ous 5
pain 5
ining 5
lowered 5
win@@ 5
mustard 5
engage 5
headset 5
ref 5
snap 5
starts 5
inspect 5
banging 5
k-@@ 5
earrings 5
least 5
hel@@ 5
vocalist 5
passerby 5
attentively 5
goo@@ 5
panel 5
ca 5
De@@ 5
pri@@ 5
oar 5
blurry 5
chains 5
sponsored 5
struggling 5
tulips 5
peacock 5
attendant 5
watercraft 5
rake 5
crazy 5
reclines 5
shady 5
rounding 5
facade 5
descending 5
drop 5
fishermen 5
cattle 5
tuxedo 5
Native 5
Americans 5
hooping 5
dly 5
kites 5
caricature 5
on-@@ 5
equestrian 5
bites 5
sw@@ 5
bunny 5
surround 5
want 5
sleeve 5
bushy 5
sy 5
tossed 5
snowcapped 5
sur@@ 5
angry 5
cookies 5
canopy 5
milk 5
SpongeBob 5
sail 5
carve 5
mattress 5
includes 5
donkeys 5
occupied 5
breaks 5
besides 5
D 5
utility 5
cobbled 5
consi@@ 5
leaned 5
gum 5
Am@@ 5
pedal 5
wraps 5
clarinet 5
assistant 5
areas 5
storefronts 5
cked 5
unknown 5
popcorn 5
strap 5
edi@@ 5
poking 5
button-up 5
hairstyle 5
metro 5
theme 5
jets 5
crowns 5
elementary 5
costumed 5
-up 5
air@@ 5
ga@@ 5
baseman 5
sacks 5
drivers 5
stra@@ 5
dropped 5
scales 5
paintings 5
oned 5
ver@@ 5
jar 5
year 5
apparatus 5
armor 5
confused 5
surgeons 5
directs 5
rollerblader 5
chews 5
skimpy 5
spandex 5
minivan 5
businessman 5
brow 5
pinned 5
stle 5
stylish 5
lantern 5
Amish 5
am@@ 5
pictured 5
N 5
returns 5
dried 5
expressions 5
Obama 5
kn@@ 5
pub 5
ves 5
lingerie 5
fle@@ 5
kimonos 5
ten 5
Subway 5
workmen 5
struggles 5
Claus 5
feathers 5
dunes 5
season 5
themed 5
dunking 5
harp 5
spike 5
elephants 5
Re@@ 5
exploring 5
ics 5
McDonalds 5
pat@@ 5
excitement 5
Japan 5
cts 5
pinstriped 5
mats 5
historic 5
colle@@ 5
squirrel 5
snowboarders 5
swan 5
firing 5
cruise 5
comforting 5
bmx 5
go@@ 5
eagerly 5
ges 5
ned 5
high-@@ 5
gy 5
tunic 5
graffitied 5
6@@ 5
carousel 5
exits 5
coolers 5
marks 5
merchant 5
champagne 5
hum@@ 5
old-fashioned 5
lasso 5
spin 5
Boston 5
else 5
soil 5
fe@@ 5
decorating 5
Fi@@ 5
mate 5
ys 5
S 5
um@@ 5
campsite 5
vo@@ 5
mops 5
incoming 5
University 5
rollerskaters 5
observers 5
Car@@ 5
St 5
decor@@ 5
0s 5
offering 5
sheets 5
postal 5
zebra 5
positioned 5
symbol 5
posters 5
pillars 5
varying 5
mini 5
grey 5
ets 4
trained 4
weird 4
grown 4
villagers 4
directly 4
smoothing 4
solitary 4
footbridge 4
ddles 4
tribe 4
she@@ 4
communicating 4
brochure 4
lounges 4
extremely 4
firetrucks 4
weathered 4
dozens 4
mascara 4
onal 4
automobile 4
driven 4
sen@@ 4
removing 4
four-wheeler 4
stools 4
constructing 4
headbands 4
lers 4
Speedo 4
Blue 4
frog 4
seeds 4
camper 4
flo@@ 4
jewelery 4
hur@@ 4
seaweed 4
ig@@ 4
Welcome 4
pig 4
paintbrush 4
telling 4
zoo 4
stea@@ 4
tip 4
tru@@ 4
apparel 4
awning 4
early 4
tw@@ 4
retail 4
begging 4
crab 4
piggyback 4
ge 4
lip 4
kno@@ 4
weeds 4
sucking 4
pic@@ 4
someones 4
sat 4
hips 4
statues 4
circuit 4
change 4
Deere 4
cting 4
stirs 4
cing 4
skin 4
Disney 4
orders 4
straps 4
bea@@ 4
buoy 4
braids 4
rest@@ 4
tightly 4
ther 4
maneuvering 4
dro@@ 4
sausages 4
loop 4
bookstore 4
Island 4
kilts 4
headscarves 4
Hotel 4
rode 4
spear 4
steaks 4
bordered 4
golfer 4
ink 4
stationary 4
crib 4
plowing 4
formed 4
overhang 4
terrace 4
videotaping 4
york 4
youngsters 4
flea 4
graduation 4
trombone 4
fri@@ 4
gri@@ 4
megaphone 4
high-fives 4
KitchenAid 4
toast 4
gold-@@ 4
substance 4
cupcakes 4
Women 4
tasting 4
waring 4
hamburgers 4
lemons 4
eling 4
tan@@ 4
ponders 4
claw 4
salad 4
uring 4
pur@@ 4
inflated 4
convention 4
pie 4
gated 4
picker 4
yo-yo 4
pitchers 4
whispering 4
stri@@ 4
oxen 4
cs 4
hung 4
por@@ 4
tly 4
dra@@ 4
overpass 4
ladders 4
charcoal 4
dolphin 4
ized 4
pastries 4
pant 4
twirls 4
sure 4
ley 4
mechanic 4
roadwork 4
exciting 4
scra@@ 4
drag 4
par@@ 4
Co@@ 4
Bla@@ 4
Washington 4
your 4
boss 4
spreads 4
powder 4
submerged 4
mixed 4
beat 4
Green 4
layered 4
plugging 4
Par@@ 4
readying 4
tattered 4
ure 4
cause 4
bringing 4
bay 4
peeling 4
participants 4
passionately 4
entertainer 4
soldering 4
piercing 4
weave 4
instructor 4
rocking 4
technique 4
curious 4
owners 4
solo 4
sunhat 4
avoid 4
exposed 4
occurring 4
controls 4
Mickey 4
cleaned 4
memorial 4
Bur@@ 4
floppy 4
itself 4
ends 4
mailbox 4
strip 4
lid 4
henna 4
spi@@ 4
overturned 4
ay 4
messenger 4
despite 4
think 4
dar@@ 4
der@@ 4
such 4
stro@@ 4
delicious 4
fur@@ 4
pressure 4
wrapping 4
hopscotch 4
down@@ 4
typical 4
galloping 4
wor@@ 4
topic 4
pl@@ 4
ements 4
rear 4
mustached 4
hikes 4
blue-green 4
playpen 4
cinder 4
photography 4
junk 4
basement 4
winning 4
ill 4
roping 4
retrieving 4
ti 4
T-shirts 4
swe@@ 4
eter 4
halter 4
wal@@ 4
warmly 4
lifeguards 4
stay 4
rooster 4
spo@@ 4
oning 4
bridal 4
crayon 4
arm@@ 4
allow 4
studies 4
slot 4
hauling 4
snow@@ 4
cri@@ 4
rise 4
bouncy 4
technology 4
clerk 4
gorgeous 4
p-@@ 4
swampy 4
vely 4
assembly 4
paws 4
lollipop 4
exit 4
bales 4
chickens 4
leafless 4
scratching 4
snowbank 4
ukulele 4
organizing 4
metallic 4
spikes 4
Market 4
ize 4
sloping 4
Joe 4
bead 4
greeting 4
Y@@ 4
selecting 4
lon@@ 4
sight 4
squ@@ 4
fences 4
sculptor 4
chiseling 4
cakes 4
twirling 4
overcoat 4
sailboats 4
tosses 4
plucking 4
guitarists 4
accepting 4
so@@ 4
ily 4
speakers 4
media 4
col@@ 4
sparse 4
wicker 4
prizes 4
viewed 4
South 4
basketballs 4
knives 4
beards 4
transport 4
horns 4
saddle 4
bowler 4
poverty 4
Coca-Cola 4
stocking 4
sees 4
bathrobe 4
spiked 4
bracelet 4
known 4
sunrise 4
adorable 4
bat@@ 4
shit 4
alike 4
ot@@ 4
snorkel 4
ob@@ 4
mid-jump 4
School 4
squares 4
remote 4
hispanic 4
ph@@ 4
pokes 4
streetlight 4
bungee 4
cords 4
depicting 4
once 4
ce@@ 4
weighing 4
tightrope 4
pla@@ 4
stacking 4
came 4
projected 4
reflections 4
pa@@ 4
washed 4
marsh 4
viewer 4
Oklahoma 4
ou@@ 4
un 4
floored 4
operated 4
dribbling 4
markings 4
Arabic 4
geese 4
sweaty 4
kickboxing 4
craftsman 4
impressive 4
crutches 4
the@@ 4
bulldog 4
circus 4
batons 4
used 4
Li@@ 4
oversized 4
comb 4
vacation 4
mar@@ 4
chip 4
tram 4
currently 4
shoots 4
rising 4
handlebars 4
noodles 4
scrap 4
carpeted 4
Ken@@ 4
dolly 4
demonstrating 4
slip 4
Qu@@ 4
railway 4
hoses 4
siding 4
calling 4
shapes 4
yet 4
chan@@ 4
aircraft 4
kayaker 4
descend 4
safe 4
oo@@ 4
flatbed 4
bark 4
glo@@ 4
twelve 4
button-down 4
helped 4
sandal 4
unidentified 4
available 4
ie 4
ue 4
closer 4
except 4
taught 4
mechanical 4
motor@@ 4
purchasing 4
run@@ 4
taste 4
fetching 4
Gre@@ 4
packages 4
kayakers 4
limb 4
foundation 4
one-@@ 4
knight 4
over-sized 4
daughters 4
competes 4
sh 4
s-@@ 4
wool 4
texts 4
chil@@ 4
Al@@ 4
oc@@ 4
ridding 4
beyond 4
warning 4
participates 4
ni@@ 4
dominoes 4
seniors 4
decide 4
via 4
Park 4
creature 4
kiddie 4
puzzle 4
Nike 4
workbench 4
ors 4
fluorescent 4
best 4
videotapes 4
steer 4
sashes 4
stairwell 4
Scottish 4
ran@@ 4
eatery 4
ged 4
surroundings 4
sip 4
celebrates 4
web 4
inner 4
boulders 4
pirates 4
note 4
dramatically 4
poised 4
strawberry 4
fel@@ 4
la 4
attraction 4
DS 4
entertained 4
poli@@ 4
twilight 4
file 4
py 4
kitten 4
coconuts 4
grass@@ 4
bronze 4
Yamaha 4
scared 4
landed 4
alcohol 4
ff@@ 4
tter 4
ramps 4
promoting 4
hun@@ 4
Apple 4
scout 4
diners 4
frustrated 4
buggy 4
Boy 4
husky 4
wipes 4
ping-pong 4
cafeteria 4
collide 4
cubicle 4
sa@@ 4
muzzles 4
Vegas 4
bull@@ 4
double 4
breakfast 4
taxis 4
ditch 4
rushing 4
tuning 4
quick 4
storage 4
skinned 4
fort 4
forces 4
band@@ 4
collection 4
ek 4
shing 4
black-@@ 4
gling 4
dreads 4
electronics 4
competitively 4
refer@@ 4
artificial 4
gar@@ 4
pes 4
receive 4
keeping 4
fit@@ 4
Oriental 4
slam 4
fourth 4
frosting 4
rose 4
sleds 4
fed 4
ornament 4
ent 4
puffy 4
defenders 4
sumo 4
trio 4
sprinting 4
contemplating 4
guarding 4
La@@ 4
ballerinas 4
stand@@ 4
created 4
kettle 4
violinist 4
wetsuits 4
hawk 4
mind 4
maneuver 4
open-air 4
receives 4
stockings 4
zes 4
tea@@ 4
returning 4
sp@@ 4
frames 4
-style 4
civil 4
beats 4
streaks 4
shave 4
port 4
motorboat 4
era 4
curling 4
hap@@ 4
intense 4
sorts 4
cemetery 4
dec@@ 4
inline 4
ble@@ 4
poncho 4
bra@@ 4
iPod 4
sunbathers 4
cookie 4
dunk 4
quaint 4
yellow-@@ 4
brimmed 4
partly 4
ge@@ 4
blue-@@ 4
lock 4
professionals 4
a-@@ 4
unpaved 4
fighter 4
Day 4
joggers 4
extended 4
approach 4
prints 4
ingly 4
pickup 4
adjust 4
fr@@ 4
wigs 4
R 4
gymnastic 4
chubby 4
law 4
disk 4
records 4
selection 4
mermaid 4
unpacking 4
octopus 4
troops 4
shar@@ 4
enthusiastically 4
ture 4
polish 4
dri@@ 4
slab 4
enclosed 4
preparation 4
stalks 4
Bo@@ 4
sm@@ 4
slender 4
padding 4
potatoes 4
write 4
designer 4
sombrero 4
tap 4
mart 4
et@@ 4
ies 4
mini-@@ 4
fist 4
fashionable 4
ian 4
Starbucks 4
rabbits 4
janitor 4
au@@ 4
California 4
buses 4
ver 4
da@@ 4
hidden 4
fine 4
dishwasher 4
scale 4
thought 4
pierced 4
boating 4
ong 4
holiday 4
lighthouse 4
torn 4
Station 4
swimwear 4
observed 4
pled 4
roots 4
hoo@@ 4
serene 4
balconies 4
taller 4
similarly 4
ups 4
signal 4
parasol 4
spectate 4
east 4
moon 4
slices 4
ritual 4
tasty 4
desolate 4
bel@@ 4
ther@@ 4
cti@@ 4
bookbag 4
bly 4
metropolitan 4
coveralls 4
planes 4
organized 4
trims 4
ists 4
peaceful 4
drainage 4
defensive 4
rounds 4
national 4
possession 4
vault 4
defends 4
scoop 4
feeder 4
pulley 3
playhouse 3
slowly 3
sprinkling 3
jars 3
won 3
shielding 3
propane 3
ple 3
trave@@ 3
tr@@ 3
skyscraper 3
downwards 3
black@@ 3
beans 3
30 3
some@@ 3
samurai 3
crouch 3
shake 3
walkie 3
talkie 3
light@@ 3
responding 3
squat 3
suds 3
sparks 3
positions 3
canister 3
mid@@ 3
blown 3
arrival 3
free@@ 3
zer 3
wrong 3
prevent 3
Gap 3
wards 3
hamburger 3
snows 3
enter 3
rags 3
tells 3
El@@ 3
shish 3
collected 3
sle@@ 3
princess 3
medium-sized 3
secures 3
tar@@ 3
expensive 3
smel@@ 3
takeout 3
commuters 3
pers 3
services 3
demonstrates 3
rectangular 3
meals 3
trumpets 3
pot@@ 3
butchering 3
cages 3
unusually 3
pee 3
inger 3
uphill 3
bowed 3
crashed 3
Q 3
dozen 3
cleats 3
trots 3
sock 3
12 3
countertop 3
sprinkles 3
season@@ 3
sponge 3
tends 3
size 3
stone-@@ 3
pr@@ 3
wakeboards 3
ske@@ 3
wers 3
footprints 3
lou@@ 3
napkin 3
pumpkins 3
vacuums 3
removes 3
cheers 3
battling 3
dumps 3
ious 3
handicapped 3
panda 3
wai@@ 3
rig 3
manhole 3
jackhammer 3
ripped 3
films 3
satchel 3
less 3
mannequins 3
overlooks 3
Angels 3
thread 3
symphony 3
ev@@ 3
iller 3
headgear 3
darts 3
cal@@ 3
route 3
spinner 3
intricate 3
Food 3
adding 3
press 3
0 3
mixes 3
mirrored 3
umber 3
ma 3
leafy 3
woodworking 3
Jack 3
Ru@@ 3
ell 3
sippy 3
Wall 3
forklift 3
shin@@ 3
he@@ 3
lakeside 3
hula-hoops 3
ironing 3
canned 3
ashore 3
pedd@@ 3
ry 3
explores 3
tasks 3
partner 3
trough 3
challenge 3
liberty 3
spar@@ 3
sel@@ 3
sprinkled 3
renaissance 3
keyboards 3
paw 3
pastry 3
offers 3
addresses 3
graying 3
ms 3
mat@@ 3
ef 3
slu@@ 3
mer 3
stem 3
sks 3
For@@ 3
lottery 3
tickets 3
astronaut 3
toilets 3
ruler 3
briefs 3
braces 3
donuts 3
director 3
flotation 3
fenced-in 3
vivid 3
interview 3
France 3
attired 3
took 3
tethered 3
Autumn 3
hula-hoop 3
turbans 3
tv 3
bored 3
streams 3
spiral 3
tricycles 3
ats 3
water@@ 3
distorted 3
lemon 3
Gi@@ 3
mosaic 3
dojo 3
all@@ 3
eng@@ 3
blow-up 3
Toyota 3
waited 3
straining 3
dirt-@@ 3
medals 3
interior 3
ey 3
amazing 3
dentist 3
ank@@ 3
pregnant 3
caressing 3
procession 3
volunteers 3
grid 3
clams 3
die 3
Renaissance 3
Pizza 3
fitness 3
school-aged 3
pages 3
cycles 3
dir@@ 3
People 3
tug 3
pack@@ 3
aging 3
reci@@ 3
elevator 3
texas 3
char@@ 3
tank-top 3
digger 3
crag 3
corn@@ 3
yawning 3
utensils 3
kick@@ 3
pairs 3
unison 3
ward 3
enclosure 3
ssed 3
handful 3
inflating 3
livestock 3
ood 3
manner 3
paving 3
jug 3
study 3
expe@@ 3
Tur@@ 3
descends 3
ung 3
paneled 3
vacant 3
zip 3
skeleton 3
gifts 3
congregating 3
shadowed 3
geometric 3
congregated 3
fold-up 3
whose 3
ei@@ 3
fists 3
machete 3
crocodile 3
electrical 3
val 3
curtain 3
Free 3
reco@@ 3
dimly-lit 3
veil 3
poorly 3
high@@ 3
foo@@ 3
gy@@ 3
pursued 3
ec@@ 3
pop 3
unwraps 3
ke@@ 3
adul@@ 3
battery 3
misty 3
latex 3
ght 3
masonry 3
force 3
extreme 3
gay 3
Fla@@ 3
bagpipe 3
Ocean 3
Company 3
aves 3
launches 3
cereal 3
our@@ 3
pretends 3
cho@@ 3
ran 3
Monopoly 3
ai@@ 3
awe 3
flood 3
earbuds 3
wade 3
restaurants 3
campaign 3
Mike 3
ly-@@ 3
saucer 3
circles 3
suite 3
parka 3
flights 3
littered 3
bits 3
flooded 3
ste 3
spor@@ 3
painters 3
hol@@ 3
rainstorm 3
nuts 3
00 3
om 3
hero 3
Wii 3
llama 3
sunhats 3
applied 3
cat@@ 3
boa 3
crotch 3
exposing 3
strewn 3
crystal 3
shelter 3
adolescent 3
investig@@ 3
assortment 3
communic@@ 3
od 3
liter@@ 3
ary 3
bats 3
tle 3
patron 3
jazz 3
Pe@@ 3
Latin 3
ragged 3
solid 3
mesmerized 3
seemingly 3
ha@@ 3
tiles 3
remove 3
saxophones 3
sto@@ 3
equipped 3
session 3
nee@@ 3
baggage 3
shelf 3
coun@@ 3
topped 3
pump 3
Guitar 3
grouped 3
robed 3
patiently 3
fer@@ 3
welds 3
onlooker 3
toss 3
ve@@ 3
moose 3
r. 3
ead 3
aquatic 3
reviewing 3
attend 3
sco@@ 3
vers 3
bl@@ 3
ain 3
igh 3
retriever 3
banquet 3
freeway 3
screwdriver 3
bare-chested 3
wallet 3
nursing 3
Or@@ 3
popu@@ 3
cabinet 3
half-@@ 3
secured 3
dorm 3
blacktop 3
pane 3
happening 3
boun@@ 3
trails 3
blossoming 3
turtleneck 3
fu@@ 3
bom@@ 3
ber 3
fan@@ 3
scoops 3
zed 3
ane 3
enthusiast 3
better 3
adv@@ 3
bathed 3
infants 3
te 3
M 3
bounce 3
ff 3
entertains 3
ollie 3
natural 3
arguing 3
os 3
mustachioed 3
sprints 3
plan@@ 3
mark 3
cushion 3
border 3
mad 3
Ja@@ 3
afri@@ 3
captain 3
treats 3
states 3
pedals 3
ath@@ 3
but@@ 3
answers 3
kil@@ 3
ducking 3
E 3
struggle 3
Buddhist 3
highly 3
rowers 3
tuxedos 3
numbered 3
moder@@ 3
bands 3
knits 3
bounces 3
containers 3
00@@ 3
testing 3
ite 3
polka-dot 3
fish@@ 3
cord 3
sips 3
tend 3
needs 3
letter 3
P 3
ball@@ 3
drenched 3
violins 3
graze 3
contestants 3
play@@ 3
pper@@ 3
scre@@ 3
An@@ 3
cess 3
powered 3
electrician 3
chew 3
statute 3
scent 3
sparklers 3
3rd 3
delivery 3
uncompleted 3
Bank 3
profile 3
Spiderman 3
Spain 3
portraits 3
den 3
sweating 3
penguin 3
stained 3
bird@@ 3
Latino 3
overall 3
dugout 3
piercings 3
cry 3
elbow 3
graduate 3
Coney 3
strumming 3
contains 3
sketch 3
Bar@@ 3
ney 3
tailed 3
racquet 3
lei 3
rehearsing 3
mopping 3
tow@@ 3
spectacular 3
recently 3
honor 3
stethoscope 3
heartbeat 3
sipping 3
popping 3
greet 3
plea@@ 3
capes 3
needed 3
pruning 3
pi@@ 3
wildflowers 3
yhound 3
caged 3
fliers 3
clo@@ 3
opportunity 3
zombie 3
smirking 3
twirl 3
spilled 3
darkness 3
o-@@ 3
every 3
SquarePants 3
explosion 3
everyone 3
blue@@ 3
Bull 3
sun@@ 3
bathe 3
kit 3
knee-@@ 3
em 3
windowsill 3
sun-@@ 3
dappled 3
hurdles 3
Do@@ 3
might 3
sandpit 3
matches 3
hatted 3
patches 3
writer 3
shells 3
noodle 3
vaulting 3
threw 3
effort 3
IG@@ 3
dom@@ 3
mon@@ 3
ths 3
beagle 3
sheepdog 3
captures 3
cameramen 3
trap 3
towering 3
bulls 3
len@@ 3
ponytails 3
ME 3
backhand 3
dealer 3
Coun@@ 3
upcoming 3
sari 3
ceramic 3
flu@@ 3
everywhere 3
content 3
leashed 3
crashes 3
wrist@@ 3
steering 3
amused 3
dustpan 3
bowties 3
guest 3
Mexico 3
shaded 3
brindle 3
audio 3
county 3
shading 3
charging 3
cashier 3
mushroom 3
kinds 3
provide 3
rid 3
subject 3
intimate 3
spreading 3
spiking 3
grounds 3
bearer 3
leotards 3
launch 3
screams 3
deflated 3
aluminum 3
cra@@ 3
real 3
addressing 3
housing 3
festive 3
grandmother 3
pockets 3
feeds 3
wheeling 3
clu@@ 3
trips 3
puddles 3
: 3
AI@@ 3
menus 3
frolic 3
side@@ 3
jagged 3
meditating 3
Ca@@ 3
patrol 3
lodge 3
somersault 3
paying 3
concession 3
pastor 3
stry 3
cutout 3
tutus 3
nibbling 3
sweet 3
marina 3
canes 3
directed 3
union 3
government 3
uniquely 3
rip@@ 3
pling 3
hammers 3
huddling 3
tted 3
sauna 3
va@@ 3
index 3
Grand 3
paintball 3
admires 3
pets 3
blade 3
briskly 3
sand@@ 3
sticker 3
multi-color 3
enthusiastic 3
-shaped 3
powerpoint 3
handmade 3
bicycler 3
brightly-colored 3
rain@@ 3
streetlights 3
maneuvers 3
huts 3
treatment 3
halloween 3
notebooks 3
wind@@ 3
T 3
proud 3
camcorder 3
throughout 3
seamstress 3
pul@@ 3
counters 3
rakes 3
bodies 3
manual 3
sal 3
quilt 3
ockey 3
lemonade 3
om@@ 3
entertainment 3
nat@@ 3
master 3
underway 3
Italian 3
informal 3
dom 3
roof@@ 3
suited 3
Coca 3
Cola 3
outcropping 3
friendly 3
glow 3
should 3
glass@@ 3
sizes 3
pasture 3
don 3
primitive 3
feed 3
duffel 3
ponchos 3
condu@@ 3
temporary 3
shell 3
frowning 3
ery 3
darkly 3
awaits 3
enters 3
life@@ 3
Hispanic 3
sparkler 3
cracks 3
spending 3
ere 3
arth 3
sleigh 3
holidays 3
Easter 3
bumper 3
prayer 3
strobe 3
ended 3
dwelling 3
ens 3
rom@@ 3
wheat 3
vin@@ 3
zi@@ 3
creative 3
Africa 3
spic@@ 3
limo 3
entertaining 3
interviews 3
rescue 3
aim 3
unk 3
skill 3
disc@@ 3
barricade 3
hundreds 3
outstreached 3
mosque 3
Dom@@ 3
ino 3
engages 3
French 3
unkempt 3
BMW 3
shawls 3
released 3
butter 3
fre@@ 3
keeper 3
lassoing 3
wrists 3
camps 3
sty@@ 3
flaps 3
outfielder 3
ren@@ 3
cl@@ 3
chimney 3
advantage 3
salmon 3
upside-down 3
poker 3
final 3
dressing 3
protester 3
coconut 3
interested 3
pedal@@ 3
shots 3
bloom 3
8@@ 3
av@@ 3
bordering 3
Mets 3
hazard 3
corral 3
Korean 3
agility 3
fortune 3
flowering 3
Challenge 3
navigating 3
healthcare 3
chart 3
bouncer 3
staying 3
dering 3
fi@@ 3
ght@@ 3
Father 3
coverings 3
cultural 3
ads 3
period 3
deli@@ 3
iced 3
hair@@ 3
hovering 3
kneel 3
Pi@@ 3
swans 3
24 3
organ@@ 3
treads 3
solider 3
roller-skating 3
patriotic 3
tum@@ 3
trouble 3
fingertips 3
pitched 3
skillfully 3
RO@@ 3
corridor 3
years 3
forrest 3
pressing 3
Jesus 3
explorer 3
dries 3
U.S. 3
propel@@ 3
enforcement 3
tobacco 3
kickboxer 3
upper 3
Batman 3
ladle 3
Fa@@ 3
snowmobile 3
save 3
Nintendo 3
wonder@@ 3
Ford 3
tail@@ 3
fair@@ 3
dges 3
ddle 3
evergreen 3
parlor 3
chipper 3
drunk 3
pitches 3
ail 3
gers 3
rappelling 3
two-piece 3
arranged 3
pon@@ 3
vel@@ 3
Ne@@ 3
horse-drawn 3
qu@@ 3
monks 3
decals 3
melons 3
pause 3
related 3
hairnet 3
stony 3
green-@@ 3
Ba@@ 3
thin@@ 3
ely 3
barricades 3
mock 3
hon@@ 3
middle-age 3
awnings 3
hedge 3
churning 3
earring 3
representing 3
Pho@@ 3
acts 3
ars 3
flashlight 3
air-@@ 3
reporter 3
disa@@ 3
bled 3
celebr@@ 3
notice 3
approximately 3
tuba 3
locked 3
shrubbery 3
language 3
kicker 3
lives 3
mac 3
transporting 3
laps 3
taping 3
ities 3
stroke 3
math 3
equ@@ 3
accompanies 3
pleasant 3
sho@@ 3
Young 3
header 3
grimacing 3
Golden 3
defen@@ 3
gig 3
50 3
bout 3
Fire 3
assist 3
garment 3
SUV 3
serious 3
pointy 3
barbie 3
hurt 3
proudly 3
violet 3
boarder 3
waking 3
presses 3
sweep 3
pouting 3
She@@ 3
bre@@ 3
ny 3
ines 3
matador 3
cut-out 3
ju@@ 3
ced 3
beautifully 3
towed 3
Russi@@ 3
soon 3
rods 3
cool@@ 3
back@@ 3
surfboards 3
sexy 3
refreshing 3
Brazil 3
tick@@ 3
hate 3
Po@@ 3
cross@@ 3
butt 3
-down 3
Hollister 3
fingernail 3
eal 3
and-@@ 3
fox 3
page 3
launching 3
granddaughter 3
attaches 3
extends 3
silk 3
careful 3
cell 3
che@@ 3
squinting 3
lin@@ 3
graphic 3
gripping 3
holing 3
Police 3
shrimp 3
cycle 3
flippers 3
slim 3
mail 3
owned 3
Coffee 3
views 3
fiel@@ 3
captured 3
To@@ 3
professionally 3
Berlin 3
fires 3
landmark 3
fixture 3
winded 3
walker 3
families 3
miniskirt 3
thers 3
pray 3
sin@@ 3
crow@@ 3
scope 3
Lakers 3
sands 3
bri@@ 3
stoc@@ 3
diverse 3
jogger 3
brick-paved 3
twigs 3
reflecting 3
magic 3
mot@@ 3
solar 3
zombies 3
enthusiasm 3
focuses 3
bears 3
tee-shirt 3
tes 3
schoolgirl 3
shoo@@ 3
nap@@ 3
moved 3
blonds 3
unicef 3
shut@@ 3
leader 3
suspension 3
stopping 3
removed 3
geisha 3
dy 3
rather 3
paddlers 3
bran@@ 3
tanned 3
mor@@ 3
bru@@ 3
Indians 3
kissed 3
winds 3
tening 3
wed 3
finishes 3
pace 3
turing 3
weight@@ 3
vigorously 3
tambourine 3
explains 3
inclined 3
track@@ 3
spits 3
safely 3
referees 3
wer 3
sleek 3
dunks 3
recliner 3
icing 3
thy 3
catamaran 3
overgrown 3
Team 3
cream@@ 3
signals 3
banks 3
blonde 3
trendy 2
sequence 2
powdered 2
gar 2
tro 2
Just@@ 2
Bi@@ 2
urinal 2
handler 2
creation 2
regarding 2
um 2
tains 2
warri@@ 2
riverbed 2
baker 2
ap@@ 2
wo@@ 2
Dob@@ 2
erman 2
contained 2
volkswagen 2
assem@@ 2
regi@@ 2
approached 2
flamboyant 2
Skiiers 2
corsage 2
clasps 2
cul@@ 2
peppers 2
snowmobiling 2
awaiting 2
mexican 2
tipped 2
sling 2
funky 2
motor-scooter 2
Pabst 2
Ribbon 2
Di@@ 2
Coke 2
sunflower 2
camera@@ 2
aters 2
beds 2
blacksmith 2
shoeing 2
freight 2
Walkman 2
hide 2
chop@@ 2
derly 2
ka@@ 2
pit@@ 2
clips 2
bor 2
ot 2
surprised 2
builds 2
copies 2
MC 2
tilted 2
drummers 2
enti@@ 2
culinary 2
locking 2
toil 2
worshi@@ 2
programs 2
re 2
slan@@ 2
bal@@ 2
measu@@ 2
supervision 2
mingle 2
frown 2
respon@@ 2
consults 2
plan 2
leven 2
nished 2
upper-class 2
snarling 2
ners 2
clever 2
Mon@@ 2
golian 2
varied 2
rough-@@ 2
acks 2
cru@@ 2
conne@@ 2
wife-beater 2
travelers 2
experien@@ 2
platforms 2
align@@ 2
source 2
cheerful 2
mood 2
ctor 2
spe@@ 2
bean 2
wakeboarding 2
demoli@@ 2
version 2
neighbors 2
visit 2
slamic 2
animatedly 2
captivated 2
retaining 2
swung 2
backflip 2
bloody 2
fer 2
eyeliner 2
haul 2
high-five 2
stormy 2
arran@@ 2
famous 2
tinted 2
reacting 2
UBA 2
attended 2
calendar 2
meats 2
Calvin 2
Klein 2
wra@@ 2
coaches 2
pharmacy 2
swa@@ 2
origin 2
particular 2
pineapples 2
cent 2
counting 2
sword@@ 2
cac@@ 2
extin@@ 2
gui@@ 2
spac@@ 2
ateway 2
grate 2
mover 2
sleepy 2
YMCA 2
spattered 2
sewer 2
video@@ 2
slee@@ 2
bonnet 2
forearm 2
snuggling 2
ances 2
innertube 2
ascends 2
ethnicities 2
gambling 2
mass@@ 2
class@@ 2
Michigan 2
14 2
height 2
sked 2
ninja 2
outer 2
swir@@ 2
water-filled 2
crabs 2
Tim 2
hor@@ 2
tons 2
situation 2
blooming 2
bloss@@ 2
treeless 2
cuc@@ 2
mes 2
Smo@@ 2
slamming 2
moss-covered 2
coast@@ 2
tri-colored 2
past@@ 2
ures 2
cher@@ 2
ry-@@ 2
technician 2
Great 2
lizard 2
egret 2
excav@@ 2
bun 2
aving 2
ative 2
twent@@ 2
stu@@ 2
Baseball 2
closing 2
reflects 2
white-water 2
turbulent 2
surfboarder 2
alpine 2
wel@@ 2
leaf-@@ 2
fluid 2
brigh@@ 2
aims 2
saws 2
sushi 2
populated 2
dip 2
affection 2
platter 2
fatigues 2
clou@@ 2
welder 2
erected 2
Fin@@ 2
comical 2
pice 2
culture 2
worked 2
room@@ 2
kerchi@@ 2
wells 2
cells 2
possible 2
gli@@ 2
oddly 2
attentive 2
nips 2
questions 2
ir 2
wondering 2
knotted 2
Alaska 2
patties 2
berries 2
roller@@ 2
sweatpants 2
ribs 2
scrubbing 2
answer 2
Nes@@ 2
onary 2
cola 2
hit@@ 2
golfers 2
postcards 2
volunteer 2
organiz@@ 2
become 2
pearls 2
fast@@ 2
humans 2
swerves 2
gen@@ 2
motions 2
slow 2
headbutting 2
gypsy 2
Notre 2
Dame 2
Angeles 2
occasion 2
zards 2
pel 2
sti@@ 2
VW 2
loudspeaker 2
ace 2
trowel 2
cracked 2
water-@@ 2
shi@@ 2
started 2
Gardens 2
plywood 2
bush@@ 2
ka 2
physically 2
learns 2
twined 2
sk 2
hugged 2
incense 2
renov@@ 2
sections 2
appy 2
ade 2
stainless 2
extravagant 2
devil 2
copy 2
guiding 2
scar 2
Cor@@ 2
Le@@ 2
slips 2
visitors 2
drunken 2
delivering 2
dueling 2
LA 2
need 2
drain 2
adventure 2
percussion 2
gallon 2
bling 2
shuffles 2
necks 2
adjacent 2
airline 2
ste@@ 2
Prin@@ 2
pig@@ 2
berry 2
moun@@ 2
clipboard 2
web@@ 2
headfirst 2
tux 2
luxury 2
conver@@ 2
Houston 2
isle 2
coastline 2
coeds 2
aft 2
residence 2
oncoming 2
shampoo 2
conditi@@ 2
cleav@@ 2
search 2
recorder 2
cook@@ 2
gradu@@ 2
awk@@ 2
brindle-@@ 2
coated 2
growling 2
harne@@ 2
bullet 2
washers 2
In@@ 2
weigh@@ 2
cork 2
chores 2
traverse 2
congregation 2
canoeing 2
Southeast 2
japanese 2
dach@@ 2
obsc@@ 2
busily 2
z 2
pretzels 2
tor 2
Col@@ 2
snorkeling 2
spout 2
eager 2
parachutist 2
kill 2
ct@@ 2
sibling 2
wooden-@@ 2
consulting 2
mea@@ 2
glances 2
jackhammers 2
antlers 2
upstairs 2
architecture 2
lease 2
burger 2
comforter 2
gingerbread 2
pajama 2
milling 2
snowdrift 2
raging 2
sodas 2
self 2
ak 2
harvested 2
David 2
add 2
loader 2
astoni@@ 2
grinning 2
toenails 2
lettering 2
blinds 2
pigs 2
falcon 2
assists 2
Tree 2
wn 2
gener@@ 2
gger 2
ddling 2
sites 2
sidewalks 2
pos@@ 2
sessions 2
ferns 2
cally 2
pamph@@ 2
jam@@ 2
ming 2
Mc@@ 2
crayola 2
Pokemon 2
stake 2
aloud 2
eeps 2
dental 2
examin@@ 2
peep 2
names 2
exam 2
diagra@@ 2
drifts 2
goal@@ 2
london 2
ature 2
supervi@@ 2
coworker 2
orange-red 2
wat@@ 2
coin-operated 2
kee@@ 2
chee@@ 2
expre@@ 2
ati@@ 2
C.@@ 2
seminar 2
spaghetti 2
silverware 2
drawer 2
moms 2
cottage 2
limbs 2
sisters 2
ab@@ 2
drab 2
refreshments 2
frilly 2
Groucho 2
Marx 2
ice-skating 2
locker 2
igloo 2
hoping 2
patrolling 2
sta 2
ican 2
scores 2
teet@@ 2
Chi@@ 2
pt 2
glassy 2
ox 2
releases 2
stab@@ 2
pout 2
secon@@ 2
guidebook 2
appropri@@ 2
curbside 2
palace 2
hatchet 2
snowsuits 2
sky-view 2
ts-@@ 2
caravan 2
landscaped 2
mirrors 2
refuge 2
reaction 2
chest@@ 2
seeing 2
ass@@ 2
vase 2
repelling 2
dol@@ 2
peop@@ 2
wrist 2
function 2
long-@@ 2
handled 2
penguins 2
pounces 2
dew 2
parrot 2
discovering 2
mountain@@ 2
based 2
metal@@ 2
beauty 2
Live 2
operate 2
fier 2
delight 2
swallowing 2
examined 2
happy-@@ 2
placid 2
rackets 2
angels 2
tomb@@ 2
four-@@ 2
shined 2
trol@@ 2
leys 2
elev@@ 2
ki 2
vider 2
oping 2
suc@@ 2
cess@@ 2
warmers 2
halfway 2
met 2
hu@@ 2
sky-@@ 2
lack 2
zip-@@ 2
sman 2
breast 2
lego 2
bul@@ 2
A. 2
assistance 2
crushed 2
open-@@ 2
racks 2
filed 2
Hero 2
garter 2
olympics 2
knock 2
No@@ 2
normal 2
bares 2
attacked 2
ret 2
dalmati@@ 2
baller 2
ner@@ 2
vous 2
glides 2
tain 2
arrange 2
joy@@ 2
distracted 2
consoles 2
overcast 2
twin 2
dou@@ 2
soaked 2
reluctant 2
Capris 2
goofy 2
bespectacled 2
street-@@ 2
ave 2
sunflowers 2
discusses 2
indi@@ 2
roller-blading 2
slumped 2
hurry 2
bridesmaid 2
Keep 2
sliced 2
wrestles 2
wn@@ 2
zigzag 2
simply 2
buck 2
western 2
rin@@ 2
scarfs 2
scrabble 2
speckled 2
anxiously 2
dia@@ 2
ama@@ 2
ut@@ 2
h 2
OU 2
would 2
tackler 2
pun@@ 2
psing 2
coaching 2
grooms 2
stic@@ 2
travelling 2
Castro 2
snowstorm 2
handbags 2
submerges 2
i-@@ 2
sion 2
sauce 2
mugs 2
syn@@ 2
auditioning 2
pebbles 2
state 2
important 2
reporters 2
waffle 2
anticipation 2
chipping 2
maintain 2
see@@ 2
snail 2
spirit 2
Baltimore 2
imitation 2
steals 2
nam@@ 2
cil 2
watery 2
aired 2
rocker 2
drum@@ 2
prays 2
spher@@ 2
juggle 2
secure 2
tear 2
received 2
stories 2
fours 2
handhold 2
mold 2
sales 2
strung 2
selections 2
iti@@ 2
custody 2
conta@@ 2
Crocs 2
Rai@@ 2
lementary 2
specific 2
flexing 2
mossy 2
heel 2
vered 2
med-evil 2
exterior 2
sweets 2
physi@@ 2
squirts 2
leaped 2
improvement 2
formally 2
bottled 2
ffles 2
trans@@ 2
Ma@@ 2
routines 2
thor@@ 2
ette 2
victim 2
cutouts 2
bump 2
cob 2
punches 2
carro@@ 2
semi-formal 2
vulture 2
designing 2
repor@@ 2
median 2
Central 2
scaffolds 2
hydraulic 2
tel@@ 2
Kitty 2
mp@@ 2
loy@@ 2
locomotives 2
lar@@ 2
winks 2
inspectors 2
screens 2
tests 2
circuits 2
guides 2
faux 2
sely 2
campground 2
bar-b-@@ 2
que 2
burying 2
massage 2
cutoff 2
kabob 2
grilled 2
chisels 2
thousands 2
instructors 2
ence 2
tongues 2
conventi@@ 2
ush 2
acy 2
Western 2
non-@@ 2
couches 2
quilted 2
twins 2
bucked 2
executes 2
Jeep 2
young@@ 2
questi@@ 2
wand 2
flash 2
Cyclone 2
european 2
simultaneously 2
pow@@ 2
bust 2
hops 2
kish 2
loaf 2
informally 2
u 2
Pain 2
Segway 2
bor@@ 2
advent@@ 2
bla@@ 2
brick-@@ 2
atever 2
stricken 2
turkeys 2
depicted 2
instructions 2
wise 2
owl 2
irons 2
ligh@@ 2
sedan 2
pour 2
suspect 2
feels 2
wants 2
blues 2
Shel@@ 2
attack 2
Popsicle 2
smelling 2
d-up 2
scruffy 2
refriger@@ 2
backing 2
describing 2
dollar 2
bill@@ 2
list 2
alcoholic 2
prepping 2
port-@@ 2
likes 2
maracas 2
tambourines 2
hog 2
Shorts 2
blank 2
hitter 2
district 2
go-kart 2
groom@@ 2
tie-@@ 2
Volkswagen 2
one-man 2
paral@@ 2
turn@@ 2
masses 2
son@@ 2
horizontal 2
ffs 2
gry 2
changing 2
mime 2
entertainers 2
streamers 2
type@@ 2
writ@@ 2
brace 2
household 2
bucks 2
colourful 2
egg@@ 2
grou@@ 2
ili@@ 2
rinsing 2
fiercely 2
Sesame 2
pressed 2
researchers 2
obstru@@ 2
common 2
trading 2
sausage 2
cartons 2
spare 2
crow 2
aer@@ 2
lun@@ 2
wling 2
super 2
soa@@ 2
broad@@ 2
poin@@ 2
lapsed 2
KE 2
IS@@ 2
tilts 2
bandage 2
blankly 2
Hol@@ 2
tails 2
wineglass 2
bemused 2
ale 2
signi@@ 2
fic@@ 2
pro-@@ 2
trinkets 2
wands 2
terminals 2
vaul@@ 2
pays 2
preschool 2
plaster 2
Sunday 2
skim 2
grind 2
stout 2
wered 2
parti@@ 2
agricul@@ 2
crop 2
dj 2
slin@@ 2
rusted 2
dough@@ 2
nut 2
campus 2
pil@@ 2
mattresses 2
agit@@ 2
Heineken 2
grin 2
diaper 2
yells 2
tablet 2
exotic 2
mallet 2
ed@@ 2
whi@@ 2
tears 2
acrobatics 2
cel@@ 2
Jum@@ 2
paired 2
high-heeled 2
Factory 2
ck@@ 2
roasting 2
marshm@@ 2
allows 2
newsca@@ 2
grand@@ 2
back-up 2
enjo@@ 2
steeplechase 2
wagons 2
EGO 2
bonding 2
cou@@ 2
ton 2
oval 2
journal 2
2008 2
yed 2
sky@@ 2
manure 2
tive 2
lab@@ 2
stock 2
Styrofoam 2
scu@@ 2
snoopy 2
then 2
nu@@ 2
ster@@ 2
capri 2
sweat 2
close@@ 2
toll 2
sym@@ 2
colli@@ 2
twos 2
fetches 2
pou@@ 2
curiously 2
cket 2
backpackers 2
melon 2
95@@ 2
,000 2
stru@@ 2
thorugh 2
perfe@@ 2
toting 2
ancing 2
locomotive 2
styled 2
bundles 2
exercises 2
top@@ 2
detergent 2
sla@@ 2
natives 2
pitbull 2
frothy 2
internet 2
comfort 2
Thomas 2
Tank 2
Engine 2
lovers 2
sews 2
shrine 2
conf@@ 2
lettuce 2
dging 2
gir@@ 2
cro@@ 2
windsurfer 2
scrapping 2
snoo@@ 2
linked 2
participant 2
frantically 2
wildfire 2
miners 2
off-screen 2
patchy 2
masterpiece 2
inten@@ 2
star@@ 2
parks 2
guests 2
targets 2
daring 2
fundraiser 2
Beach 2
modeling 2
jousting 2
packs 2
wrangle 2
docked 2
x@@ 2
Zune 2
wielding 2
triangle-shaped 2
polka-dotted 2
Samsung 2
stumbling 2
shor@@ 2
times 2
arches 2
spa 2
respective 2
crank 2
scythe 2
jack-o-@@ 2
specialized 2
challenging 2
shield 2
xe 2
comfor@@ 2
horsemen 2
rifles 2
bazaar 2
heritage 2
average 2
handgun 2
bathro@@ 2
yel@@ 2
stre@@ 2
stati@@ 2
hunter 2
ag@@ 2
technical 2
ites 2
blasts 2
sending 2
waterfalls 2
bake 2
Michael 2
Jackson 2
scrimmage 2
architectural 2
repairman 2
aside 2
clenches 2
bushel 2
worried 2
gal@@ 2
bone 2
color@@ 2
graffited 2
garish 2
kings 2
Airways 2
hal@@ 2
certific@@ 2
supervised 2
smock 2
ki@@ 2
paperback 2
oling 2
pork 2
Las 2
coached 2
ire 2
xion 2
ensure 2
ambulance 2
collision 2
humping 2
decides 2
private 2
briefcases 2
bowled 2
salute 2
superior 2
seas 2
18@@ 2
buffalo 2
gig@@ 2
post-@@ 2
plow 2
underside 2
handkerchiefs 2
skit 2
hip 2
ored 2
mas 2
rates 2
dim 2
lamps 2
saving 2
schools 2
forms 2
bble 2
broccoli 2
loit@@ 2
miscellaneous 2
DI@@ 2
ng 2
pretend 2
cem@@ 2
Lincoln 2
Mem@@ 2
itting 2
blea@@ 2
oper@@ 2
fare 2
scan 2
shrubs 2
backp@@ 2
intrigued 2
swi@@ 2
chested 2
incredible 2
necktie 2
whisking 2
Paris 2
wetland 2
fronds 2
sick 2
reason 2
splits 2
joking 2
pf 2
paraphernalia 2
condoms 2
fringed 2
roller-bla@@ 2
bad 2
trekking 2
twister 2
snowfalls 2
ises 2
disco 2
gul@@ 2
snowflakes 2
indeer 2
Story 2
rs. 2
Birthday 2
soapy 2
leave 2
sucks 2
starfish 2
abs 2
Enrolling 2
Stones 2
cler@@ 2
Cla@@ 2
Ju@@ 2
dea 2
crumbling 2
attacking 2
throat 2
mantle 2
flow 2
curvy 2
gap 2
licked 2
kelp 2
bug 2
tortillas 2
door@@ 2
Ra@@ 2
deo 2
choppy 2
toes 2
slalom 2
neck@@ 2
lake-side 2
dumping 2
indigenous 2
breakdances 2
top-hat 2
instru@@ 2
folds 2
Giants 2
Jim 2
karaoke 2
heron 2
dangling 2
contorts 2
statement 2
brador 2
wok 2
eagle 2
deciding 2
thful 2
creepy 2
upraised 2
rugged 2
prote@@ 2
spotlights 2
fun@@ 2
restaraunt 2
news@@ 2
ries 2
hollow 2
setup 2
fencers 2
headlight 2
motor-cross 2
thatched 2
lavender 2
orn 2
flashy 2
nel 2
gging 2
AT@@ 2
OI@@ 2
hamper 2
eat@@ 2
Sveral 2
ader 2
bit@@ 2
Chev@@ 2
fashi@@ 2
ably 2
bum@@ 2
tinsel 2
atm 2
lem@@ 2
defending 2
drills 2
proclaim 2
risk 2
ino@@ 2
strips 2
animated 2
evenly 2
gates 2
ical 2
hello 2
kit@@ 2
bulbs 2
judge 2
retrie@@ 2
Ha@@ 2
herbs 2
born 2
again 2
vision 2
Power 2
anger 2
bins 2
projection 2
pean@@ 2
taped 2
lambs 2
dun@@ 2
peddling 2
grain 2
Tye-dyed 2
flinging 2
ull 2
K 2
brea@@ 2
learn 2
downward 2
mowed 2
softly 2
tin 2
witne@@ 2
Por@@ 2
Oregon 2
colum@@ 2
coloni@@ 2
itch 2
accompaniment 2
flutes 2
oo 2
tics 2
handshake 2
buys 2
tal 2
ess@@ 2
afar 2
tering 2
tress 2
glittery 2
outboard 2
Nor@@ 2
large-@@ 2
spiky 2
geyser 2
soaking 2
Out@@ 2
ron@@ 2
fitting 2
homework 2
memorabilia 2
contingent 2
bagpipers 2
choreographed 2
lares 2
Care 2
pelican 2
volley 2
parasail 2
comic 2
openings 2
Spider-Man 2
downing 2
applauding 2
triangle 2
bibs 2
anside 2
at-@@ 2
cramped 2
mischi@@ 2
colleagues 2
vention 2
rec@@ 2
quietly 2
pouncing 2
fumes 2
cir@@ 2
strums 2
seal 2
semi-circle 2
insect 2
Ge@@ 2
candlelight 2
proper@@ 2
wre@@ 2
Grand@@ 2
Trader 2
com 2
long-distance 2
hamming 2
ya@@ 2
flap 2
poultry 2
EN@@ 2
bale 2
eyeing 2
issue 2
involves 2
dandelion 2
puff 2
classical 2
raw 2
ctively 2
eyed 2
face-painted 2
age@@ 2
left-handed 2
landscaping 2
roun@@ 2
ornamental 2
grinder 2
lapse 2
labradoodle 2
pee@@ 2
documents 2
leisurely 2
dim@@ 2
release 2
presented 2
contestant 2
grandfather 2
comb@@ 2
supports 2
trailing 2
amber 2
sailors 2
scienti@@ 2
tough 2
attends 2
fix@@ 2
sculp@@ 2
stoops 2
UFC 2
fighters 2
mounds 2
ancy 2
unny 2
lava 2
trim 2
showgirl 2
projects 2
pum@@ 2
gondola 2
ey@@ 2
releasing 2
swoops 2
ensemble 2
rehear@@ 2
cupping 2
sash 2
sends 2
shabby 2
oneer 2
view@@ 2
mixture 2
bring 2
ism 2
feature 2
teaches 2
wounds 2
consum@@ 2
binder 2
jet@@ 2
clog 2
blond-headed 2
recycling 2
barn 2
batting 2
chief 2
brownish 2
slo@@ 2
completes 2
tame 2
teachers 2
weights 2
aviator 2
leaf@@ 2
illuminating 2
breaststroke 2
ild 2
transformer 2
der-@@ 2
graffiti-@@ 2
greenhouse 2
buttons 2
folders 2
ecstatically 2
smith 2
terriers 2
ump 2
Star 2
velo@@ 2
ch-@@ 2
Pan@@ 2
impre@@ 2
Vietnamese 2
paddled 2
mini-golf 2
hedges 2
medal@@ 2
lions 2
mane 2
lowing 2
remember 2
upturned 2
grandparents 2
eclectic 2
bean@@ 2
showers 2
syrup 2
manicured 2
Conn@@ 2
diag@@ 2
peaking 2
lons 2
sm 2
nears 2
Bill 2
NY@@ 2
juggler 2
pac@@ 2
capture 2
styling 2
stylist 2
white@@ 2
back-@@ 2
to-@@ 2
Hopper 2
camo 2
chili 2
Au@@ 2
billiard 2
colonial 2
dragster 2
AH@@ 2
-skinned 2
crammed 2
wan 2
Multi@@ 2
contem@@ 2
shu@@ 2
bunk 2
Tri@@ 2
arri@@ 2
blur 2
supported 2
dag@@ 2
atic 2
Ve@@ 2
skulls 2
espresso 2
confe@@ 2
peruses 2
oars 2
drags 2
MMA 2
grips 2
emptying 2
shift 2
inspired 2
anny 2
spoons 2
gro 2
trade 2
short-sleeve 2
bonfire 2
Mach@@ 2
val@@ 2
opinions 2
stern 2
volcano 2
tions 2
sou@@ 2
west 2
ope 2
Ex@@ 2
fresco 2
linens 2
ner 2
putt 2
off-@@ 2
grains 2
securing 2
don@@ 2
in-@@ 2
manu@@ 2
registered 2
blackboard 2
elaborately 2
bunches 2
mauve 2
management 2
busker 2
mine 2
contested 2
obscene 2
motioning 2
rad 2
forehand 2
Isra@@ 2
glowing 2
neatly 2
engaging 2
experiments 2
historical 2
pineapple 2
cle@@ 2
regal 2
gle 2
exhau@@ 2
martini 2
moth 2
poun@@ 2
filmed 2
smi@@ 2
salesman 2
sledgehammer 2
Y 2
ink@@ 2
won@@ 2
announcement 2
resour@@ 2
Year 2
ja@@ 2
cavern 2
murals 2
fau@@ 2
lt 2
navigate 2
greets 2
calmly 2
inches 2
` 2
tin@@ 2
dread@@ 2
Mi@@ 2
ddle-Eastern 2
scary 2
tent-like 2
nual 2
tote 2
rum@@ 2
aling 2
peoples 2
emotion 2
oblivious 2
shadowy 2
protectors 2
fac@@ 2
wrench 2
forefront 2
ese 2
furiously 2
random 2
Bra@@ 2
envelope 2
veter@@ 2
fingernails 2
veteran 2
harvest 2
brilliant 2
hitchhiking 2
Run 2
% 2
barbed 2
Patrick 2
empanadas 2
jack 2
fore@@ 2
80 2
thong 2
citizen 2
Pri@@ 2
glue 2
hardware 2
shund 2
wl 2
climbed 2
adds 2
detail 2
unload 2
domed 2
vice 2
gyro 2
ne@@ 2
Big 2
snowshoe 2
gie 2
hides 2
oth@@ 2
Tea 2
samples 2
future 2
mer@@ 2
could 2
saluting 2
blue-shirted 2
guardra@@ 2
flexible 2
dies 2
respectively 2
yer 2
prop 2
brow@@ 2
ornaments 2
ter@@ 2
Business 2
jects 2
oper 2
terrori@@ 2
braid 2
roads 2
potenti@@ 2
pard 2
op 2
irritated 2
ridges 2
assign@@ 2
ments 2
actions 2
retrieve 2
album 2
servic@@ 2
tipping 2
enjoyed 2
true 2
sey 2
presumably 2
missed 2
dged 2
turf 2
well-lit 2
sers 2
donations 2
hoe 2
Twister 2
aris 2
hitching 2
check@@ 2
ion 2
table@@ 2
-covered 2
podiums 2
Scouts 2
nibbles 2
oxygen 2
super@@ 2
wits 2
brook 2
drawings 2
sowing 2
hoi@@ 2
milking 2
han@@ 2
plu@@ 2
altitude 2
seller 2
admire 2
addy 2
treed 2
offer 2
direct 2
cellular 2
shacking 2
congre@@ 2
Pelo@@ 2
entran@@ 2
sive 2
Ro@@ 2
hoodies 2
bility 2
ckle 2
shouts 2
glancing 2
lation 2
anorak 2
King 2
ply 2
pasta 2
urinating 2
pompoms 2
squirted 2
diamond 2
multitasking 2
concentr@@ 2
onally 2
watered 2
sary 2
pavilion 2
signpost 2
brochures 2
tar 2
exten@@ 2
timber 2
wns 2
demonstr@@ 2
Del@@ 2
special@@ 2
Shop 2
fli@@ 2
cast@@ 2
customs 2
Le 2
Fire@@ 2
fying 2
bow@@ 2
ston@@ 2
converses 2
letting 2
self-@@ 2
euro 2
slung 2
Thursday 2
mob 2
relaxed 2
mainly 2
saddled 2
spend 2
aty@@ 2
manipulating 2
Lea@@ 2
decked 2
mage 2
headdresses 2
urn 2
Mardi 2
Gras 2
apparently 2
puzzled 2
pies 2
marshal 2
Old 2
extra@@ 2
ordinary 2
rubbing 2
sig@@ 2
boutique 2
messages 2
residential 2
attaching 2
pastel 2
hid 2
hairdresser 2
l-like 2
scratches 2
blind 2
Johns 2
hard-hat 2
wea@@ 2
Oxford 2
Circus 2
recent 2
rat 2
Harlem 2
hijab 2
hear@@ 2
locks 2
Thai 2
ited 2
acrobat 2
nation 2
separated 2
thought@@ 2
amplifier 2
disinterested 2
omy 2
Atlanta 2
sideline 2
drawers 2
officials 2
question 2
Summer 2
Series 2
Mor@@ 2
array 2
fin@@ 2
comforts 2
plaque 2
separates 2
fiddles 2
boot 2
Ara@@ 2
Chin@@ 2
frowns 2
chisel 2
focal 2
gating 2
Ri@@ 2
scramble 2
knitted 2
Love 2
rust 2
armored 2
offered 2
bells 2
lace 2
Morgan 2
gently 2
settings 2
screened 2
Ital@@ 2
stomachs 2
unfriendly 2
lowering 2
bra-@@ 2
asians 2
latin 2
emp@@ 2
sandwiches 2
du 2
men@@ 2
Gen@@ 2
double-decker 2
coke 2
spill 2
Bron@@ 2
Komo@@ 2
occu@@ 2
medi@@ 2
international 2
grasses 2
bagel 2
20@@ 2
embraces 2
flipped 2
illing 2
civilians 2
gre@@ 2
ater 2
homes 2
pollution 2
magician 2
farming 2
int 2
concentrating 2
breeze 2
levels 2
chinatown 2
affe@@ 2
controlled 2
reenactment 2
access@@ 2
pebble 2
illustr@@ 2
te-@@ 2
bistro 2
altar 2
price 2
Forever 2
brunet 2
maple 2
trooper 2
royal 2
wandering 2
kimono 2
chemical 2
garments 2
eld 2
wavy 2
tugs 2
V 2
ggle 2
Side 2
three-@@ 2
globe 2
le-like 2
moored 2
quartet 2
bandannas 2
Jack@@ 2
violence 2
doorstep 2
Wonder 2
Woman 2
ral@@ 2
pal@@ 2
cutter 2
Oh 2
pancakes 2
Per@@ 2
tic 2
Louvre 2
showcasing 2
swaddled 2
bir@@ 2
cin@@ 2
Mad@@ 2
festiv@@ 2
pomeranian 2
sub@@ 2
tucked 2
brothers 2
sucker 2
EL@@ 2
handrails 2
Min@@ 2
troop 2
orous 2
mass 2
smear 2
cue 2
saxophoni@@ 2
street-side 2
off-white 2
walkways 2
compartment 2
low@@ 2
assisted 2
semi-@@ 2
Asi@@ 2
abstract 2
Olympi@@ 2
herd 2
textiles 2
izing 2
instruction 2
wristband 2
vessel 2
hairdo 2
histor@@ 2
Penn 2
props 2
placard 2
flame 2
clustered 2
selects 2
meter 2
process@@ 2
occurred 2
flier 2
Life 2
Men 2
acker 2
idle 2
passer 2
diplom@@ 2
Den@@ 2
ashtray 2
reclining 2
liner 2
sh-@@ 2
cr@@ 2
mustang 2
tun@@ 2
ctures 2
ee 2
adventurous 2
escalators 2
wanting 2
tech 2
streaming 2
mingling 2
countries 2
smoky 2
metalworking 2
edEx 2
bystander 2
Sol@@ 2
Space 2
Needle 2
peb@@ 2
shoc@@ 2
Jer@@ 2
Salvation 2
elegant 2
drumming 2
fil@@ 2
greenish 2
simple 2
kins 2
mist 2
boaters 2
previously 2
hipsters 2
stunning 2
span@@ 2
Tw@@ 2
waterproof 2
slingshot 2
ice-@@ 2
speci@@ 2
13 2
br@@ 2
remode@@ 2
fierce 2
snowed 2
aloft 2
squash 2
baking 2
balling 2
textile 2
dy@@ 2
wheelbarrows 2
lockers 2
hairy 2
recital 2
sax 2
mulch 2
hokey 2
short-sleeved 2
part@@ 2
clicking 2
stuffs 2
tered 2
dum@@ 2
stic 2
ences 2
38 2
fting 2
mount 2
backed 2
figurines 2
carpenter 2
oni@@ 2
Ohio 2
Mo@@ 2
assorted 2
beaker 2
Navy 2
helper 2
planks 2
chemistry 2
hooked 2
race@@ 2
cept 2
sac@@ 2
Orioles 2
perch 2
dash 2
bowing 2
ari@@ 2
63 2
stringing 2
role 2
inverted 2
sails 2
stum@@ 2
loses 2
appreciate 2
zooms 2
yan 2
Minnesota 2
Iowa 2
conveyor 2
determined 2
reluctantly 2
Ho@@ 2
eyebrows 2
dal 2
align 2
Rodgers 2
dirt-bike 2
present@@ 2
mariachi 2
dribble 2
Yel@@ 2
arro@@ 2
ouse 2
cops 2
aya@@ 2
trail@@ 2
grasps 2
drape 2
blu@@ 2
ish-@@ 2
spar 2
scored 2
gain 2
scoring 2
slouched 2
paths 2
ign@@ 2
busking 2
wood@@ 2
freestyle 2
later 2
steal 2
oming 2
Los 2
shoelaces 2
jostle 2
mil@@ 2
atv 2
deser@@ 2
Volley@@ 2
sew 2
go-@@ 2
cheered 2
windsurfing 2
Canyon 2
ceful 2
sanitation 2
plume 2
folder 2
sleeved 2
archaeologists 2
He@@ 2
colleague 2
always 2
cau@@ 2
ina 2
fatigued 2
igh@@ 2
LeBron 2
James 2
ferris 2
layup 2
frolics 2
United 2
States 2
tle@@ 2
well-maintained 2
composed 2
sprawled 2
negoti@@ 2
rebound 2
arly 2
ying 2
lows 2
mem@@ 2
ples 2
maje@@ 2
shine 2
sal@@ 2
sniff 2
inging 2
operator 2
goth 2
focusing 2
windmill 2
regalia 2
tsy 2
alongside 2
NOTHING 2
clouded 2
evergreens 2
conic 2
moss 2
pagoda 2
snout 2
tshirt 2
marshy 2
refle@@ 2
spans 2
blades 2
bundt 1
clarin@@ 1
eber 1
uniform@@ 1
ameCube 1
sup@@ 1
spec@@ 1
tree-@@ 1
ath 1
sin 1
collage 1
pren@@ 1
tice 1
beetle 1
four@@ 1
house@@ 1
courts 1
jugg@@ 1
rying 1
clut@@ 1
bab 1
ee@@ 1
dinosau@@ 1
rs 1
home@@ 1
combin@@ 1
sul@@ 1
squir@@ 1
Fl@@ 1
orida 1
lins 1
fen@@ 1
ams 1
rements 1
nic@@ 1
cident 1
ara@@ 1
steak 1
Tea@@ 1
tee@@ 1
ello 1
guit@@ 1
bud@@ 1
laces 1
cabin@@ 1
odd@@ 1
footed 1
caban@@ 1
one@@ 1
unes 1
tins 1
isiana 1
exams 1
scraper 1
Ku@@ 1
thhoop 1
ute 1
mains 1
scar@@ 1
infir@@ 1
st-@@ 1
Terrible 1
graph@@ 1
aval 1
demand@@ 1
ham 1
hard-@@ 1
kart 1
tis 1
emon@@ 1
pression 1
brutal@@ 1
aff@@ 1
diffic@@ 1
ulti@@ 1
lobes 1
sous-chef 1
fig@@ 1
frisbeen 1
spiderman 1
centi@@ 1
Chevrolet 1
Terrier 1
dded 1
archaeologi@@ 1
wheel@@ 1
fabri@@ 1
co 1
Je@@ 1
crustac@@ 1
x-@@ 1
pep 1
uten@@ 1
correct@@ 1
Sparrow 1
tro@@ 1
mail@@ 1
shy 1
fargo 1
andy 1
trin@@ 1
ket 1
are@@ 1
dev@@ 1
prised 1
Vinci 1
straw@@ 1
wait@@ 1
ckberry 1
quik 1
dicti@@ 1
shooter 1
anti@@ 1
quat@@ 1
ening 1
spark@@ 1
ud 1
mop@@ 1
buggies 1
k-9 1
ash@@ 1
ant 1
hio 1
sch 1
communication 1
casserole 1
immigration 1
tubas 1
eter@@ 1
bear@@ 1
U 1
B 1
S. 1
Grou@@ 1
wis 1
amar@@ 1
itan 1
spir@@ 1
Gy@@ 1
ro 1
girl@@ 1
side-@@ 1
by-@@ 1
treadm@@ 1
etting 1
spiration 1
sations 1
Wendy 1
golf@@ 1
camaraderie 1
Stop 1
Whack 1
snork@@ 1
ethnic@@ 1
sno@@ 1
kel 1
ackers 1
credi@@ 1
Hulk 1
aker 1
illet 1
rub@@ 1
rem@@ 1
antiques 1
unds 1
pharmac@@ 1
scriptions 1
lass 1
lector 1
hill@@ 1
dition 1
far@@ 1
fu 1
business@@ 1
wning 1
papasan 1
teen@@ 1
sa 1
puma 1
contra@@ 1
ption 1
fairway 1
polos 1
ounge 1
Gr@@ 1
marsh@@ 1
CD 1
mul@@ 1
hummer 1
Ti@@ 1
icle 1
centri@@ 1
donald 1
figurine 1
spectat@@ 1
rot@@ 1
aisi@@ 1
bou@@ 1
non@@ 1
tubing 1
dirondack 1
adolescen@@ 1
capped 1
tent@@ 1
U.B.A. 1
ior 1
fal@@ 1
sarong 1
airway 1
tandem 1
TAGA 1
barbecues 1
armer 1
Must@@ 1
angs 1
capital@@ 1
haw@@ 1
tau@@ 1
ghter 1
immense 1
Vons 1
cago 1
Tourist-Info 1
Tehelka 1
mur@@ 1
hula@@ 1
ckabee 1
sem@@ 1
exag@@ 1
ille 1
orgis 1
souvenir 1
Euro@@ 1
Lou@@ 1
Vuitton 1
human@@ 1
oid 1
dan@@ 1
gles 1
phins 1
athalie 1
ollHouse 1
hors 1
&apos;@@ 1
oeuvres 1
waterpro@@ 1
of@@ 1
motif 1
eds 1
lars 1
Stewart 1
enatar 1
Th@@ 1
magni@@ 1
ock@@ 1
rat@@ 1
violini@@ 1
grave@@ 1
grave 1
sence 1
lit@@ 1
g-@@ 1
iffel 1
eleon 1
suring 1
recor@@ 1
shampooing 1
dor 1
bro@@ 1
pain@@ 1
majo@@ 1
rette 1
ender 1
ellingham 1
yo@@ 1
uti@@ 1
cand@@ 1
spot@@ 1
pplebee 1
tubu@@ 1
creaming 1
chal@@ 1
helmet@@ 1
heeled 1
scant@@ 1
dandeli@@ 1
cious 1
national@@ 1
Puma 1
attemp@@ 1
W 1
Sooner 1
footbal@@ 1
silver@@ 1
logos 1
yranka 1
explore 1
lap@@ 1
sible 1
iPods 1
mol@@ 1
tomat@@ 1
Broadway 1
garita 1
woo@@ 1
avins 1
distribu@@ 1
freesbies 1
che 1
fs 1
stuff@@ 1
uro 1
zz 1
plains 1
adop@@ 1
ep 1
helsea 1
Fran@@ 1
ampard 1
verpool 1
craftzine 1
bin@@ 1
IC@@ 1
Stonehurst 1
countr@@ 1
rhododendron 1
di 1
ris 1
perm@@ 1
maximi@@ 1
aspirations 1
maneu@@ 1
hippies 1
aniels 1
sage 1
queen 1
dles 1
Sudan 1
vest@@ 1
get@@ 1
Sallie 1
oran@@ 1
graffit@@ 1
Sting 1
tooth@@ 1
thered 1
Arabi@@ 1
nington 1
attro 1
ilburn 1
ave@@ 1
inspec@@ 1
canon 1
Walter 1
ou 1
ne 1
ees 1
pizzeria 1
silhouettes 1
rawr 1
inst@@ 1
cup@@ 1
bonnets 1
as@@ 1
ercury 1
Spring 1
jury 1
shel@@ 1
aura 1
bal 1
window@@ 1
zod 1
onable 1
stco 1
We@@ 1
ero@@ 1
ddha 1
lottes 1
arn 1
tiss@@ 1
ergizer 1
urer 1
sine 1
alle@@ 1
gi@@ 1
sl@@ 1
ums 1
park@@ 1
Shipping 1
cylin@@ 1
escor@@ 1
cade 1
silence 1
excavation 1
sequ@@ 1
oia 1
appre@@ 1
courte@@ 1
Eng@@ 1
division 1
Ugg 1
label@@ 1
UCKY 1
JA@@ 1
Tar@@ 1
lam@@ 1
ock 1
Wall-E 1
ound 1
ventil@@ 1
barbecu@@ 1
spaghet@@ 1
break@@ 1
fire@@ 1
accordi@@ 1
eugeot 1
admi@@ 1
dow 1
inno@@ 1
cence 1
book@@ 1
cuto@@ 1
alls 1
una 1
rogue 1
sn@@ 1
pple 1
Tae 1
Do 1
bbing 1
fisheye 1
bingo 1
roney 1
Braz@@ 1
zoom 1
NO@@ 1
public@@ 1
mgren 1
Seahaw@@ 1
tained 1
dense 1
aqu@@ 1
mess@@ 1
bunker 1
bermuda 1
stes 1
secu@@ 1
rely 1
ral 1
Verizon 1
gol@@ 1
en-@@ 1
gan 1
boo@@ 1
emer@@ 1
sual 1
Sprite 1
cam 1
reen@@ 1
soap@@ 1
blo@@ 1
Che@@ 1
esecake 1
compos@@ 1
carab@@ 1
jodhpurs 1
pet@@ 1
toboggan 1
festi@@ 1
WALK 1
armosa 1
mush@@ 1
olympi@@ 1
clas@@ 1
fertili@@ 1
execu@@ 1
ffle 1
sus 1
brand@@ 1
d-in 1
ermans 1
sermon 1
Hello 1
indu@@ 1
votion 1
barrica@@ 1
surroun@@ 1
turt@@ 1
power@@ 1
ltimate 1
orado 1
bikin@@ 1
sar@@ 1
opper 1
sombreros 1
arie 1
snar@@ 1
iMac 1
rav@@ 1
mill 1
pening 1
spla@@ 1
burrit@@ 1
bodyless 1
terior 1
stro 1
mater@@ 1
nies 1
Ore@@ 1
bik@@ 1
res 1
all-@@ 1
condiments 1
xes 1
parkour 1
accep@@ 1
rol 1
lassos 1
acti@@ 1
ori@@ 1
bison 1
dons 1
exu@@ 1
pensive 1
decker 1
remem@@ 1
zzy 1
menorah 1
fet@@ 1
ssel 1
sous 1
ballot 1
usk 1
yable 1
08 1
every@@ 1
oll 1
gressi@@ 1
Salyo 1
Thriller 1
safari 1
ele@@ 1
univer@@ 1
Touchdown 1
ales 1
NICEF 1
commandos 1
pizzas 1
panoram@@ 1
vamp@@ 1
comple@@ 1
aband@@ 1
stered 1
ured 1
ctic 1
butter@@ 1
vic@@ 1
laugh@@ 1
thum@@ 1
mit@@ 1
wich 1
ange 1
rasta 1
post-it 1
monit@@ 1
take@@ 1
tritus 1
flan@@ 1
busin@@ 1
prof@@ 1
ghts 1
sheep@@ 1
social@@ 1
budgets 1
appla@@ 1
ligator 1
stau@@ 1
cla@@ 1
rothy 1
wrest@@ 1
eval 1
embro@@ 1
dered 1
orial 1
secrets 1
ffordshire 1
spl@@ 1
bob@@ 1
twi@@ 1
Wood 1
Silk 1
cher 1
translu@@ 1
indigo 1
acking 1
lay-up 1
baggy 1
ckled 1
ulk 1
atmosph@@ 1
Wa@@ 1
tripo@@ 1
flash@@ 1
moustaches 1
SMU 1
sled@@ 1
breakdancer 1
Toy 1
amer@@ 1
ica 1
inn 1
musc@@ 1
raf@@ 1
Kawasaki 1
tango 1
centuri@@ 1
ser 1
allo@@ 1
ssy 1
ware 1
Volvo 1
deal@@ 1
passion@@ 1
mel@@ 1
antically 1
Lon@@ 1
ghorns 1
ffe@@ 1
torii 1
blind@@ 1
enpeace 1
dal@@ 1
mation 1
swo@@ 1
rayed 1
breakdancers 1
sav@@ 1
cots 1
phabet 1
otic 1
toise 1
ctive 1
ryant 1
jade 1
secret 1
read@@ 1
supervise 1
identification 1
dden 1
sang 1
maid 1
chi@@ 1
anten@@ 1
dresser 1
client 1
OR@@ 1
DU 1
Q@@ 1
UE 1
RE 1
vocabu@@ 1
loo@@ 1
ron 1
garages 1
ballons 1
hir@@ 1
outf@@ 1
itted 1
chor@@ 1
Lat@@ 1
Wh@@ 1
gnu 1
heav@@ 1
ier 1
loa@@ 1
sson 1
stream@@ 1
squee@@ 1
bitat 1
uman@@ 1
prim@@ 1
Afri@@ 1
ut 1
dayglo 1
rottweiler 1
ree 1
ck-@@ 1
craf@@ 1
swee@@ 1
rent 1
tat@@ 1
tland 1
itude 1
Scout 1
kan@@ 1
gos 1
cosm@@ 1
perform@@ 1
practi@@ 1
lung 1
baggie 1
bes 1
bases 1
glit@@ 1
deon 1
grimaces 1
mic@@ 1
pist@@ 1
Ta@@ 1
colo@@ 1
des@@ 1
bon@@ 1
physiques 1
Vespa 1
ha 1
World 1
barbel@@ 1
ssing 1
pid@@ 1
gin 1
troupe 1
gnant 1
hy@@ 1
ack@@ 1
bed@@ 1
red@@ 1
bapti@@ 1
erena 1
Williams 1
gras@@ 1
Oce@@ 1
wil@@ 1
gars 1
odgers 1
lared 1
Sorvette 1
lados 1
vig@@ 1
attractions 1
diction 1
snea@@ 1
avrovulcan.@@ 1
dress@@ 1
compli@@ 1
cated 1
TEAM 1
inspect@@ 1
gallo@@ 1
obbins 1
perple@@ 1
refu@@ 1
butcher@@ 1
ketchup 1
Subaru 1
bassi@@ 1
aver@@ 1
lau@@ 1
fi 1
Sedan 1
respir@@ 1
again@@ 1
multi@@ 1
due 1
woks 1
ind@@ 1
ay@@ 1
take-down 1
juke@@ 1
fic 1
uke 1
appe@@ 1
skelet@@ 1
ours 1
Steph 1
pian@@ 1
long@@ 1
crav@@ 1
mom@@ 1
novice 1
passage 1
intere@@ 1
ople 1
Sox 1
inning 1
cases 1
gyp@@ 1
carton 1
eg@@ 1
sna@@ 1
nations 1
fermentation 1
adm@@ 1
nur@@ 1
ser@@ 1
cop@@ 1
G 1
acro@@ 1
sse 1
alcons 1
impact 1
anci@@ 1
sco 1
lock@@ 1
tens 1
-ball 1
H 1
dwalk 1
budweiser 1
drome 1
asonic 1
outi@@ 1
inclu@@ 1
host@@ 1
ppy 1
Yongsan 1
brary 1
sprin@@ 1
prin@@ 1
bil@@ 1
oxford 1
kaki 1
Tartuffe 1
flamboy@@ 1
transform@@ 1
tri 1
ah 1
Stor@@ 1
que@@ 1
limbo 1
shmonger 1
natu@@ 1
py@@ 1
xylo@@ 1
patrioti@@ 1
Joker 1
unningham 1
screw@@ 1
chy 1
snowfla@@ 1
skate@@ 1
renmark 1
Tools 1
steners 1
tux@@ 1
cent@@ 1
ric 1
rog 1
corgi 1
liance 1
zda 1
GR@@ 1
AM 1
purpose 1
entre 1
illy 1
cactus 1
swim@@ 1
milkshake 1
uts 1
toen@@ 1
Air@@ 1
blush 1
dram@@ 1
mosqu@@ 1
toon 1
inner@@ 1
explo@@ 1
automob@@ 1
iles 1
veeta 1
vada 1
CK@@ 1
Mac 1
Glam@@ 1
Wiki 1
tou@@ 1
mo 1
gent 1
expertise 1
bers 1
dents 1
surge@@ 1
Vira 1
Virou 1
ystery 1
cooby-Doo 1
v 1
esti@@ 1
tack@@ 1
affect@@ 1
up@@ 1
odus 1
icchu 1
chaparral 1
Sonoma 1
tisan 1
Sourdough 1
flops 1
hippie 1
cappuccinos 1
mani@@ 1
kin 1
calligraph@@ 1
mission 1
SWAT 1
crime 1
tacti@@ 1
diatri@@ 1
dep@@ 1
0@@ 1
dollars 1
pursu@@ 1
toa@@ 1
new@@ 1
eblo 1
ariachi 1
server 1
counter@@ 1
lama 1
description 1
sail@@ 1
mout@@ 1
botron 1
enix 1
bask@@ 1
silo 1
culti@@ 1
vate 1
satin 1
TE@@ 1
US@@ 1
UCK@@ 1
recyc@@ 1
allu@@ 1
ress@@ 1
experts 1
ph 1
cart@@ 1
ith 1
concessions 1
Stitch 1
greens 1
burqa 1
gur@@ 1
cocktails 1
situ@@ 1
ongboard 1
ssic 1
numer@@ 1
nin@@ 1
oking 1
gi 1
ge-@@ 1
tele@@ 1
entrepreneur 1
scri@@ 1
mini@@ 1
loin@@ 1
blow@@ 1
radars 1
Ter@@ 1
hic@@ 1
jump@@ 1
gla@@ 1
thre@@ 1
vietnam@@ 1
ssi@@ 1
Spyder 1
blin@@ 1
viking 1
milit@@ 1
ants 1
constru@@ 1
rand@@ 1
ignore 1
pass@@ 1
prest@@ 1
efs 1
recei@@ 1
Stanford 1
MacBook 1
san@@ 1
custo@@ 1
hartt 1
idiot 1
partment 1
scot@@ 1
tish 1
stop@@ 1
recl@@ 1
ined 1
sole 1
gard@@ 1
school@@ 1
dre@@ 1
hospital@@ 1
atta@@ 1
rou@@ 1
chute 1
Ten 1
ference 1
shop@@ 1
pli@@ 1
seem@@ 1
sham@@ 1
contro@@ 1
lling 1
drift 1
dine 1
medit@@ 1
wake@@ 1
sum@@ 1
atched 1
dying 1
kets 1
pright 1
XSWO 1
Swan 1
staurant 1
SportsCenter 1
entrepren@@ 1
eurs 1
Sub@@ 1
brownies 1
Fac@@ 1
ial 1
Tissues 1
ado@@ 1
layboy 1
shirt@@ 1
tures 1
kea 1
tisserie 1
performan@@ 1
pher@@ 1
vac@@ 1
fantasy 1
body@@ 1
eterson 1
Pol@@ 1
cloth@@ 1
patience 1
universit@@ 1
stom@@ 1
arti@@ 1
fact 1
zmat 1
certifi@@ 1
neu@@ 1
tral 1
borne 1
invention 1
inf@@ 1
dump@@ 1
Sport 1
pact 1
si 1
Wheels 1
frisbees 1
Roller@@ 1
roll@@ 1
Sh@@ 1
GAP 1
Express 1
ce-@@ 1
catacom@@ 1
interacti@@ 1
Work 1
beg@@ 1
visi@@ 1
kite@@ 1
Zales 1
riff@@ 1
ghtly 1
gham 1
ruz 1
assistants 1
berdeen 1
sel 1
basket@@ 1
eReader 1
intenti@@ 1
bari@@ 1
tch 1
riel 1
ShoeGasm 1
ban 1
charades 1
land@@ 1
dable 1
w-@@ 1
Wells 1
incubat@@ 1
wom@@ 1
regrets 1
Shine 1
heap 1
Tab 1
ole 1
proxim@@ 1
sor@@ 1
ld 1
ignon 1
serpent@@ 1
grav@@ 1
impro@@ 1
Shi@@ 1
vem@@ 1
enou@@ 1
gh 1
sket@@ 1
Converse 1
dashiki 1
ounds 1
saint 1
nard 1
bratwurst 1
Teva 1
euroscience 1
elena 1
omez 1
param@@ 1
del 1
negie 1
ellon 1
eishas 1
enta@@ 1
loc@@ 1
rayer 1
oth 1
ug@@ 1
street@@ 1
El 1
Tambor 1
l-@@ 1
Victoria 1
tie-dye 1
tresses 1
gor@@ 1
volunte@@ 1
uga 1
fuchsia 1
Singer 1
nage 1
parall@@ 1
eled 1
spon@@ 1
atican 1
enthusia@@ 1
mode@@ 1
chemise 1
carou@@ 1
tion 1
wr@@ 1
didgeridoo 1
Pap@@ 1
id@@ 1
multitude 1
ulton 1
bene@@ 1
utili@@ 1
sterdam 1
gray@@ 1
ustr@@ 1
ali@@ 1
ep@@ 1
House 1
ricksha@@ 1
UA 1
miniatures 1
fez 1
q 1
conviction 1
sher 1
Pop@@ 1
ara 1
shioned 1
ream 1
croquet 1
pic 1
fai@@ 1
mooch 1
after@@ 1
tiac 1
production 1
Staples 1
Ea@@ 1
masculine 1
port@@ 1
okay 1
Seahawks 1
didas 1
Tai@@ 1
Har@@ 1
resque 1
SWATCH 1
coupe 1
Stripe 1
didgerido@@ 1
Si@@ 1
adverti@@ 1
ascen@@ 1
Pen@@ 1
ske 1
simultane@@ 1
apit@@ 1
chardson 1
adju@@ 1
da 1
brind@@ 1
work@@ 1
-shirt 1
hipster 1
orgio 1
eiko 1
pital 1
squat@@ 1
panama 1
oration 1
cura 1
autom@@ 1
Tha@@ 1
7@@ 1
Bir@@ 1
mingham 1
landsca@@ 1
valve 1
proce@@ 1
dure 1
cancer 1
To 1
dday 1
alty 1
builder 1
cad@@ 1
illac 1
IN@@ 1
TON 1
consul@@ 1
totem 1
unicyc@@ 1
igar 1
if@@ 1
YFD 1
ide 1
eer 1
gypti@@ 1
kal@@ 1
stal@@ 1
curry 1
islaw 1
rowski 1
horrible 1
invisible 1
THEFACESHOP 1
beanbag 1
smo@@ 1
tem@@ 1
brown@@ 1
niver@@ 1
pick-up 1
qua@@ 1
int@@ 1
handle@@ 1
supporters 1
Tommy 1
ilfiger 1
owntown 1
bracelets 1
lesbi@@ 1
ram@@ 1
breast@@ 1
trident 1
handkerchi@@ 1
clar@@ 1
ach@@ 1
wit@@ 1
orn@@ 1
techn@@ 1
ici@@ 1
VO 1
bub@@ 1
ler@@ 1
clipse 1
kas 1
Victor@@ 1
concre@@ 1
$ 1
ny@@ 1
VS 1
sphinx 1
Musli@@ 1
Chan@@ 1
Steakhouse 1
devises 1
gard 1
okee 1
eXXXotica 1
lor 1
conce@@ 1
horizon@@ 1
tal@@ 1
famili@@ 1
lockbuster 1
mob@@ 1
ility 1
Sa@@ 1
xoph@@ 1
gladi@@ 1
eropostale 1
cob@@ 1
conven@@ 1
ye 1
bras 1
ji 1
photo@@ 1
afro 1
musta@@ 1
Union 1
pler 1
eltics 1
bicyc@@ 1
anto 1
ingo 1
boulevard 1
humvee 1
Spee@@ 1
dos 1
bulletin 1
traver@@ 1
voc@@ 1
vie@@ 1
goth@@ 1
stant 1
wand@@ 1
vert 1
cepts 1
laun@@ 1
arlova 1
manipula@@ 1
enth@@ 1
gadgets 1
avenue 1
roller-@@ 1
af@@ 1
entr@@ 1
yway 1
bronz@@ 1
offee 1
ail@@ 1
wri@@ 1
ops 1
dd@@ 1
religion 1
oce@@ 1
Cau@@ 1
casi@@ 1
La 1
chance 1
gigan@@ 1
ols 1
bas-relief 1
splendi@@ 1
aniums 1
vote 1
dit 1
restaurant.@@ 1
viol@@ 1
imi 1
endrix 1
Chinatown 1
hakespeare 1
Orient 1
Fri@@ 1
lub 1
Bienvenue 1
ddies 1
scribe 1
quar@@ 1
marlboro 1
neapolis 1
Not@@ 1
tingham 1
VE@@ 1
AG@@ 1
carca@@ 1
tradition 1
Radio 1
Thorn 1
abdomen 1
arch@@ 1
pay@@ 1
cathe@@ 1
dr@@ 1
cy 1
uma 1
eu@@ 1
tory 1
articles 1
exhib@@ 1
porary 1
cled 1
schizoph@@ 1
hudd@@ 1
metro@@ 1
polis 1
ffe 1
with@@ 1
Walgreens 1
ell@@ 1
accom@@ 1
mod@@ 1
ount 1
burritos 1
nimaniacs 1
Superman 1
acific 1
Wiggles 1
omphe 1
bath@@ 1
Kawasa@@ 1
ful@@ 1
gun@@ 1
observation 1
Cadillac 1
serv@@ 1
ory 1
vi 1
marine 1
acrobat@@ 1
sketball 1
hula-@@ 1
ok 1
ippie 1
Ret@@ 1
religi@@ 1
iting 1
eas 1
luck 1
incl@@ 1
desserts 1
b-@@ 1
seamstre@@ 1
cheer@@ 1
abor 1
Sugarland 1
sear@@ 1
graffiti@@ 1
jewel@@ 1
ares 1
senal 1
FC 1
by@@ 1
ine@@ 1
yppens 1
lif@@ 1
transparent 1
Swiffer 1
laser 1
lamas 1
nis 1
risty 1
lydesdale 1
dist@@ 1
bing 1
Bol@@ 1
lywood 1
lungi 1
condiment 1
cooby 1
Doo 1
cree@@ 1
ER@@ 1
F 1
telesc@@ 1
opes 1
alie 1
rant 1
caddy 1
vent 1
fra@@ 1
sofas 1
ong@@ 1
fro 1
installation 1
veget@@ 1
volle@@ 1
infe@@ 1
equip@@ 1
UV 1
guar 1
tightro@@ 1
bulance 1
grimac@@ 1
river@@ 1
Cir@@ 1
ength 1
billy 1
charge 1
prom@@ 1
inent 1
ir-@@ 1
fragile 1
press@@ 1
major@@ 1
barb@@ 1
fou@@ 1
grizzly 1
erry 1
itness 1
maine 1
flat@@ 1
ppers 1
bodyboarder 1
Francisco 1
corset 1
sweats 1
atten@@ 1
beater 1
fts 1
slou@@ 1
finesse 1
troll 1
suspen@@ 1
VEDA 1
VA 1
Theatre 1
cocker 1
establi@@ 1
sim@@ 1
mering 1
flow@@ 1
VD 1
musi@@ 1
yak 1
jum@@ 1
pos 1
ya 1
pea@@ 1
sant 1
innocent 1
shment 1
stupi@@ 1
identi@@ 1
climb@@ 1
bols 1
chalk@@ 1
key@@ 1
boar@@ 1
shing@@ 1
coa@@ 1
scape 1
gon 1
Toronto 1
aple 1
button@@ 1
filets 1
stomach@@ 1
can-@@ 1
smartphone 1
anie 1
Whole 1
oods 1
trace 1
ait 1
licans 1
exer@@ 1
copil@@ 1
fondue 1
cosplay 1
ango 1
ang 1
iors 1
ns 1
laddin 1
smine 1
smil@@ 1
vies 1
lis 1
protection 1
ctant 1
lances 1
udi 1
tranqu@@ 1
hispan@@ 1
cowgirls 1
maintained 1
manic@@ 1
exhi@@ 1
conif@@ 1
exmark 1
ninjas 1
jave@@ 1
cen@@ 1
swor@@ 1
fume 1
-po@@ 1
Ni@@ 1
kon 1
igital 1
Voice 1
agascar 1
plying 1
yatt 1
gency 1
stil@@ 1
document 1
ov@@ 1
multi-@@ 1
voluti@@ 1
agpie 1
ids 1
my@@ 1
bardier 1
synchron@@ 1
recit@@ 1
ym@@ 1
hin@@ 1
Su@@ 1
sac 1
rang@@ 1
danger@@ 1
beach@@ 1
ography 1
ariboos 1
Bre@@ 1
skimboarder 1
oring 1
perches 1
suzu 1
vie 1
rer 1
harmon@@ 1
row@@ 1
unt 1
pac 1
cassonne 1
nons 1
flee@@ 1
sunbath@@ 1
ograph@@ 1
binoc@@ 1
dilig@@ 1
ently 1
vril 1
avigne 1
den@@ 1
end@@ 1
urance 1
Yanke@@ 1
respect 1
zabella 1
fum@@ 1
arcs 1
tribute 1
quarterbacks 1
rollers 1
Weezer 1
longboards 1
secre@@ 1
off@@ 1
mechan@@ 1
competit@@ 1
ered 1
grat@@ 1
jet-ski 1
Spi@@ 1
journ@@ 1
alist 1
cap@@ 1
antici@@ 1
f-@@ 1
Texans 1
Vikings 1
za 1
ssive 1
cer 1
Tannehill 1
acked 1
Haw@@ 1
keyes 1
Spartans 1
solution 1
liqui@@ 1
aw@@ 1
t-like 1
aron 1
onald 1
iznos-Subs 1
atives 1
illo@@ 1
Vi@@ 1
na 1
ment@@ 1
ft 1
hegan 1
Sun 1
sity 1
ly@@ 1
handball 1
xiously 1
visit@@ 1
ctantly 1
dishdashas 1
abobank 1
ox@@ 1
lette 1
outfiel@@ 1
swer@@ 1
Eiffel 1
lubri@@ 1
excit@@ 1
chats 1
traven@@ 1
dic@@ 1
trou@@ 1
difficul@@ 1
radi@@ 1
electri@@ 1
yc@@ 1
se-@@ 1
tment 1
mmed 1
Sky-Watcher 1
tex@@ 1
ores 1
vel 1
Roller 1
Derby 1
body-builder 1
iPad 1
sat@@ 1
craw@@ 1
chers 1
cracker 1
unidentifi@@ 1
surf@@ 1
essi 1
oosevelt 1
usi@@ 1
adolescents 1
aud@@ 1
zo@@ 1
permanent 1
riffin 1
Ang@@ 1
lippers 1
rizzles 1
quette 1
adison 1
Garden 1
Tournament 1
verse 1
ement 1
att 1
Oakland 1
chap@@ 1
continu@@ 1
shoot@@ 1
shortboar@@ 1
console 1
AC@@ 1
WA@@ 1
eless 1
anti-immigration 1
chwinn 1
dford 1
differ@@ 1
fy 1
ik 1
presu@@ 1
The@@ 1
rail@@ 1
coin 1
karts 1
Soy 1
inhal@@ 1
vapori@@ 1
finale 1
rockabilly 1
ginger@@ 1
rece@@ 1
yacht 1
tram@@ 1
basem@@ 1
pick@@ 1
cour@@ 1
billi@@ 1
ards 1
mong 1
kazoo 1
gratu@@ 1
lations 1
auburn 1
syduck 1
scrat@@ 1
midd@@ 1
iPhone 1
monoboard 1
sele@@ 1
olina 1
kabo@@ 1
stat@@ 1
kly 1
bulldozers 1
transpor@@ 1
top-@@ 1
sparkasse 1
inju@@ 1
tiki 1
som@@ 1
remo@@ 1
old-@@ 1
thro@@ 1
obstacles 1
biscu@@ 1
backgammon 1
Tor@@ 1
box@@ 1
than@@ 1
abo@@ 1
und 1
relax@@ 1
ruce 1
Springsteen 1
alth 1
Yor@@ 1
kie 1
paint@@ 1
ant@@ 1
sten@@ 1
calzone 1
Seuss 1
oti@@ 1
ically 1
crushers 1
pelling 1
Cyc@@ 1
lothon 1
snooker 1
Brit@@ 1
akland 1
athle@@ 1
application 1
pover@@ 1
archer 1
gent@@ 1
incredi@@ 1
manag@@ 1
omet@@ 1
borhood 1
gg@@ 1
awlings 1
amphi@@ 1
popsicles 1
progra@@ 1
Stevie 1
concerts 1
ia 1
Wor@@ 1
shap@@ 1
forge 1
Canada 1
timb@@ 1
cari@@ 1
joint 1
ampu@@ 1
embla@@ 1
ayores 1
fea@@ 1
Tebow 1
utual 1
pra@@ 1
ympics 1
autograph@@ 1
ident@@ 1
vit@@ 1
ket@@ 1
cano@@ 1
od@@ 1
Wisconsin 1
TEP 1
limb@@ 1
continue 1
tronas 1
Yankees 1
ouleur 1
contin@@ 1
ues 1
rejo@@ 1
ddy 1
champi@@ 1
repli@@ 1
ots 1
plumes 1
tabl@@ 1
vement 1
illed 1
naheim 1
coo@@ 1
horse@@ 1
wiel@@ 1
chu@@ 1
cuisine 1
Z@@ 1
heal@@ 1
bel 1
= 1
tos 1
ore 1
vise 1
spen@@ 1
ker@@ 1
de-@@ 1
rora 1
taupe 1
flyer 1
crocs 1
dobe 1
mb@@ 1
ands 1
sembl@@ 1
trek 1
pe-@@ 1
ini@@ 1
Torah 1
pol@@ 1
stically 1
snap@@ 1
oi@@ 1
nylon 1
lil@@ 1
acs 1
diam@@ 1
thermos 1
quinox 1
ami 1
ez 1
wran@@ 1
tho@@ 1
auto 1
spin@@ 1
dle 1
hus@@ 1
bout@@ 1
onn@@ 1
lass@@ 1
oom 1
-haired 1
huss@@ 1
sabre 1
peri@@ 1
ails 1
clients 1
Bal@@ 1
zy 1
surve@@ 1
discrimination 1
expose 1
zz@@ 1
Tyson 1
unchout 1
ynyrd 1
Skynyrd 1
donut 1
... 1
ere@@ 1
docum@@ 1
entary 1
P. 1
porate 1
dvice 1
potluck 1
cos 1
beach-@@ 1
chain@@ 1
skateboar@@ 1
cobble@@ 1
days 1
avi@@ 1
cet 1
wee@@ 1
regards 1
oria 1
sticia 1
Sin 1
Ol@@ 1
vido 1
sma@@ 1
biolo@@ 1
poni@@ 1
costum@@ 1
sprint 1
enter@@ 1
roger 1
mytholo@@ 1
sent 1
iners 1
concentration 1
spect@@ 1
kickboxers 1
marines 1
cani@@ 1
lice 1
orthodon@@ 1
primate 1
har@@ 1
crum@@ 1
EF 1
wled 1
tting 1
eing 1
selfie 1
loun@@ 1
chim@@ 1
neys 1
hat@@ 1
sect 1
massi@@ 1
astronau@@ 1
coup 1
spee@@ 1
ur 1
green@@ 1
Southern 1
ents 1
plate@@ 1
gon@@ 1
illumin@@ 1
pati@@ 1
erie 1
depic@@ 1
ise 1
cylindri@@ 1
weed 1
ty@@ 1
cyc@@ 1
/ 1
pai@@ 1
planter 1
bandana 1
ambi@@ 1
dye 1
cascades 1
chandeliers 1
stee@@ 1
choreograph@@ 1
estoga 1
under@@ 1
make@@ 1
gecko 1
gran@@ 1
es@@ 1
guise 1
coli@@ 1
seum 1
instant 1
braham 1
concer@@ 1
