un 32676
. 29417
une 19122
de 14962
en 10447
d 8744
dans 8582
sur 8536
homme 8086
des 7943
et 7912
avec 7738
la 6046
à 5624
, 5112
femme 4719
l 4548
&apos;un 4537
deux 4321
le 4009
est 3372
&apos;une 2907
debout 2113
se 2099
personnes 2082
sont 2053
jeune 1934
devant 1896
tandis 1895
fille 1853
du 1810
les 1801
groupe 1789
chien 1773
garçon 1767
assis 1756
hommes 1722
au 1705
son 1583
rue 1568
rouge 1534
qu 1454
noir 1451
portant 1405
blanc 1400
pour 1368
T-shirt 1191
gens 1180
trois 1154
train 1141
bleu 1121
fait 1100
femmes 1098
&apos;eau 1088
sa 1020
qui 1014
enfant 1009
côté 973
que 937
tient 932
petit 920
regarde 916
enfants 892
s 855
près 844
joue 844
personne 831
jouant 792
tenant 790
par 770
vêtu 761
photo 721
jaune 704
jeunes 684
chemise 684
vélo 682
lors 672
petite 664
jouent 660
regardant 642
dehors 639
bâtiment 637
a 634
blanche 619
marche 614
lunettes 608
faisant 600
ses 594
trottoir 585
veste 583
assise 579
saute 571
regardent 570
autre 562
cheveux 558
marchant 557
&apos;air 557
tout 555
foule 555
plage 551
derrière 537
bleue 535
vert 535
porte 523
table 507
neige 497
court 496
ballon 493
main 483
plusieurs 480
filles 475
rose 472
quelque 471
arrière-plan 462
grand 461
chose 459
brun 453
tenue 449
&apos;herbe 439
quatre 436
marchent 434
aux 431
chiens 430
football 430
orange 428
ville 428
&quot; 428
chapeau 425
vers 423
soleil 411
mur 411
noire 407
sous 403
autour 402
leurs 387
robe 386
bois 385
font 384
balle 384
course 382
&apos;il 379
guitare 374
garçons 369
parc 369
assises 366
&apos;autre 366
sac 362
scène 357
marron 356
terre 351
long 347
ensemble 345
banc 336
il 333
terrain 333
joueur 331
voiture 323
gars 321
maillot 321
vêtue 320
asiatique 315
haut 309
route 307
très 307
tête 306
lui 305
jean 304
pantalon 301
costume 300
gris 298
casque 297
y 297
bord 295
dos 292
verte 290
gros 287
short 284
casquette 283
couple 282
match 280
cheval 277
bateau 275
&apos;autres 275
bébé 273
vêtements 272
milieu 269
pendant 269
rouges 268
grande 265
sautant 261
sable 260
téléphone 259
courant 259
magasin 258
piscine 256
au-dessus 253
sol 252
nourriture 249
prend 249
champ 246
leur 241
faire 235
&apos;elle 235
manteau 234
parle 227
visage 227
noirs 226
blancs 225
skateboard 225
journée 224
&apos;homme 222
passe 220
bras 220
vieil 219
contre 215
face 211
courent 211
âgé 208
blonde 207
lit 206
micro 206
montagne 205
souriant 204
sourit 202
restaurant 202
arbre 202
&apos;@@ 198
tennis 198
salle 198
mains 195
pose 194
piste 193
portable 192
chemin 192
fleurs 191
&apos;océan 188
par-dessus 188
tente 184
autres 184
cinq 181
moto 181
plein 179
baseball 179
âgée 178
travers 177
marché 176
jeu 176
cuisine 175
travaille 174
parlant 172
tenues 172
beaucoup 171
plan 171
nuit 169
après 168
où 167
bain 166
lac 166
quelqu 165
ou 165
vêtus 163
rivière 162
joueurs 160
jouer 159
travaillant 159
gueule 158
planche 156
&apos;extérieur 155
rayé 155
rampe 155
camion 154
habillé 153
tiennent 153
pont 153
&apos;hommes 153
jouet 152
débardeur 152
dessus 150
blanches 150
livre 150
américain 149
pièce 148
semble 148
ce 148
maison 146
bleus 146
musique 146
cycliste 145
bus 145
&apos;enfants 145
rocher 144
nu 144
violet 144
ouvriers 143
pierre 142
air 142
fenêtre 141
travaillent 141
sweat 141
quelques 139
danse 139
clôture 138
petits 138
spectateurs 138
chaise 137
eux 137
elle 137
bas 136
torse 133
public 133
pelouse 133
appareil 132
plus 131
chante 131
arbres 131
utilise 130
costumes 130
bonnet 129
&apos;objectif 128
équipe 128
gilet 127
forêt 127
corde 126
entre 126
figure 125
stand 125
marches 124
métro 123
glace 123
allongé 123
posent 122
fête 122
polo 122
vague 122
point 121
zone 121
adultes 121
manger 120
pieds 120
objet 120
prenant 120
balançoire 120
chariot 119
montre 119
parlent 119
bâton 118
couleur 117
sacs 117
t-shirt 116
colline 116
trouve 116
regarder 116
montagnes 116
oranges 115
jaunes 114
briques 112
machine 112
verre 112
peint 111
chaussures 111
prendre 111
&apos;intérieur 110
famille 110
beige 110
quai 110
fontaine 109
vieux 108
&apos;ils 108
enneigée 107
carreaux 107
pull 107
longs 107
pente 107
être 106
passent 106
canapé 105
photos 105
cyclistes 105
combinaison 104
ciel 104
parmi 103
parapluie 103
extérieur 102
casques 102
graffitis 102
noires 102
asiatiques 102
tous 101
blond 101
bleues 101
bruns 101
utilisant 101
saut 101
café 100
prépare 100
sorte 100
escalier 99
hockey 99
alors 99
sommet 99
attraper 99
loin 99
pêche 99
papier 98
feu 98
ensoleillée 98
arrière 98
vif 98
frisbee 97
descend 96
ont 96
nombreux 96
T-shirts 96
dont 95
fruits 95
cette 95
bouche 94
panneau 94
proximité 94
attendant 94
vue 94
barbe 94
dansent 93
attendent 93
plastique 93
béton 93
gilets 93
rochers 93
frapper 93
statue 93
travail 93
basket 93
nus 92
genoux 92
feuilles 92
uniforme 91
pied 91
toit 91
adulte 90
pleine 90
numéro 90
bureau 90
spectacle 90
vêtues 90
ouvrier 89
passant 89
dansant 89
attend 88
tas 88
airs 88
traverse 88
posant 88
nombreuses 88
portent 87
drapeau 87
fréquentée 87
ligne 87
chaises 87
essayant 86
cour 86
&apos;arbres 86
monte 86
clair 86
lisant 85
journal 85
tire 85
pancarte 85
maillots 85
défilé 85
classe 84
&apos;est 84
foncés 84
foot 84
sautent 83
place 83
concert 83
jupe 83
promène 83
yeux 83
six 83
entouré 83
met 83
sauter 82
lancer 82
sweat-shirt 82
voitures 82
fauteuil 82
paysage 82
sport 82
structure 81
pousse 81
tapis 81
métallique 81
mangeant 81
mère 81
bar 81
rodéo 81
&apos;âge 81
&apos;hiver 81
compétition 80
sourient 80
coin 80
chapeaux 79
sécurité 79
dort 79
rocheuse 79
comme 79
avant 79
rempli 79
grosse 79
événement 79
bière 78
belle 78
prennent 78
vieille 78
brune 78
ski 78
lance 78
ordinateur 78
instruments 77
repas 77
depuis 77
étant 77
sentier 77
tablier 76
vélos 76
sans 75
moyen 75
bâtiments 75
légumes 75
écrit 75
panier 75
battent 74
couleurs 74
&apos;eux 74
&apos;équipe 74
nombre 74
habillée 74
uniformes 74
pilote 73
toboggan 73
chantant 73
Noël 73
coup 72
drapeaux 72
verts 72
gauche 72
donne 72
grise 72
jardin 72
artiste 72
barbu 71
buvant 71
glisse 71
skateur 71
&apos;arrière 70
ballons 70
traversent 70
colorés 70
falaise 70
&apos;apprête 70
cours 70
bottes 70
surf 70
produits 70
véhicule 69
morceau 69
instrument 69
blonds 69
cigarette 69
longue 69
roulant 69
poteau 69
pluie 69
policier 68
grands 68
pavée 68
âgées 67
frappe 67
petites 67
chevaux 67
escalade 67
dame 67
roses 67
vitrine 67
dé@@ 67
habillés 67
doigt 67
peinture 66
mange 66
vendeur 66
capuche 66
gants 66
robes 66
rassemblent 66
snowboardeur 66
fils 65
étendue 65
côte 65
parking 65
seau 65
foncé 65
bien 65
préparant 65
traversant 65
jeux 64
construction 64
boule 64
bowling 64
elles 64
longues 64
parler 64
surfeur 64
&apos;attraper 63
caméra 63
bouteille 63
courses 63
martiaux 63
motocross 63
coucher 63
nage 63
pas 63
peu 63
musiciens 63
chantier 62
sombre 62
premier 62
temps 62
cascade 62
mangent 61
but 61
on 61
ée 61
é 61
vertes 61
masque 61
ayant 61
couverture 60
rivage 60
skieur 60
matériel 60
vendant 60
lieu 60
même 60
collier 60
cow-boy 60
préparent 59
discutent 59
lire 59
droite 59
canne 59
espace 59
père 58
allongée 58
pompiers 58
penche 58
descendant 58
filet 58
manches 58
rayée 58
âgés 57
bikini 57
bulles 57
ouverte 57
mer 57
laisse 57
poussette 56
poisson 56
&apos;art 56
tour 56
forme 56
vend 56
ent 56
&apos;entre 56
base-ball 56
vole 56
échelle 55
gâteau 55
couvert 55
adolescent 55
c 55
tirant 55
batterie 55
différentes 55
terrasse 55
remplie 55
photographe 55
recouverte 55
immeuble 54
vagues 54
essaie 54
violette 54
taureau 54
coloré 53
voie 53
conversation 53
coureur 53
boissons 53
violon 53
roule 53
ne 53
mariée 52
boue 52
&apos;elles 52
sort 52
oiseau 52
comptoir 52
marcher 52
clients 52
équilibre 52
dents 52
montrant 52
centre 51
pause 51
és 51
randonnée 51
base 51
animée 51
peluche 50
avion 50
électrique 50
avoir 50
&apos;é@@ 50
boisson 50
vient 50
traverser 50
profonde 50
policiers 50
ciment 50
tableau 50
surfe 50
équipes 50
mariage 49
coupe 49
chauve 49
roller 49
écran 49
amis 49
cordes 49
tasse 48
attrape 48
coureurs 48
pelle 48
jouets 48
lève 48
miroir 48
promenant 48
rassemblées 48
joueuse 48
marathon 48
promenade 47
rousse 47
écharpe 47
affiche 47
paroi 47
rit 47
recouvert 47
conduit 46
fond 46
cravate 46
barbecue 46
tables 46
ant 46
passage 46
trou 46
monsieur 46
station 46
foulard 46
eau 46
&apos;escalade 46
cuir 46
skate 46
chemisier 45
taille 45
vestes 45
clown 45
pays 45
volley 45
salon 45
motard 45
seul 44
jette 44
entourée 44
discutant 44
métal 44
désert 44
ées 44
re@@ 44
nageant 44
pierres 44
stade 44
bordée 44
écouteurs 44
membres 44
courts 44
ruisseau 44
suspendu 44
pom-pom 44
manège 43
juste 43
sandales 43
épaules 43
surplombant 43
boit 43
&apos;arbre 43
batte 43
endroit 43
hors 43
orchestre 43
tuyau 42
snowboard 42
golf 42
balance 42
effectuant 42
viande 42
jambe 42
poussant 42
jusqu 42
ruelle 42
vive 42
quartier 42
plantes 42
sculpture 41
virage 41
rues 41
tunnel 41
barrière 41
souriante 41
habillées 41
hauts 41
mouvement 41
cet 41
objets 41
prairie 41
représentant 40
multicolore 40
kayak 40
ils 40
&apos;ombre 40
repose 40
énorme 40
protection 40
remorque 40
microscope 40
B@@ 40
chef 40
toutes 40
caisse 40
fume 40
basket-ball 40
passerelle 39
accroupi 39
rangée 39
signe 39
bâtons 39
réunis 39
vide 39
chat 39
kaki 39
animal 39
sauvetage 39
tronc 39
enneigé 39
grimpe 38
police 38
travailler 38
sieste 38
ces 38
colorées 38
va 38
courir 38
allée 38
jambes 38
laboratoire 38
trampoline 38
roulent 38
campagne 38
eaux 38
fumant 38
colorée 38
raquette 38
motifs 38
produit 38
aire 37
&apos;aide 37
donnant 37
piétons 37
bol 37
rient 37
endormi 37
er 37
karaté 37
escaliers 37
lumières 37
promènent 37
roue 37
militaire 37
intérieur 37
adolescents 37
télescope 37
boîte 37
figures 37
tissu 37
cérémonie 37
profitant 37
volleyball 37
solitaire 36
bondée 36
voit 36
scooter 36
sale 36
église 36
semblent 36
brosse 36
poubelle 36
effectue 36
balustrade 36
lumière 36
batteur 36
park 36
gymnase 36
Voici 36
façade 36
étudiants 36
&apos;éloigne 36
descendent 35
vendre 35
sept 35
paille 35
uns 35
nettoie 35
projet 35
&apos;enfant 35
chemises 35
nez 35
seule 35
&apos;arts 35
chinois 35
soit 35
é@@ 35
fresque 35
touche 35
têtes 35
roulettes 35
participant 35
girls 35
escaladant 35
shorts 35
gare 35
glissant 34
cercle 34
balaie 34
gardien 34
soirée 34
sourire 34
riant 34
tout-petit 34
nettoyant 34
aide 34
&apos;ordinateur 34
montant 34
hautes 34
pavé 34
participent 34
doigts 34
pompier 34
obstacle 34
cou 34
moment 34
réparer 34
D@@ 34
peignant 34
manteaux 34
écoutant 34
écoute 34
penché 33
gymnaste 33
supermarché 33
type 33
bondé 33
jetée 33
montent 33
certains 33
pantalons 33
lançant 33
haute 33
roux 33
vin 33
façon 33
examine 33
balcon 33
combat 33
barre 33
&apos;être 33
guitariste 33
brandit 33
cadre 33
soldats 33
utilisent 33
mettant 33
parcours 33
lanceur 33
couché 32
partie 32
randonneurs 32
gonflable 32
bagages 32
couper 32
plat 32
randonneur 32
chaîne 32
&apos;en 32
C@@ 32
afro-américain 32
motos 32
humide 32
gril 32
coupant 32
festival 32
&apos;accordéon 32
toute 32
tatouage 32
circulation 32
divers 32
voile 32
coté 31
couverte 31
jour 31
vache 31
con@@ 31
adverse 31
travaux 31
&apos;amusent 31
in@@ 31
livres 31
surface 31
monde 31
queue 31
plateau 31
chevauche 31
carton 31
P@@ 31
canoë 31
radeau 31
ruban 31
été 31
troisième 31
tir 31
chantent 31
piéton 31
pique-nique 31
cavalier 31
danseuse 31
traditionnels 31
observe 30
dit 30
monticule 30
cowboy 30
volant 30
jogging 30
marteau 30
ami 30
A@@ 30
chambre 30
voir 30
tentent 30
rassemblés 30
blouse 30
tombe 30
pattes 30
tant 30
pois 30
militaires 30
frappant 30
dormant 30
luge 30
tentant 30
déserte 30
&apos;entrée 29
salopette 29
heureux 29
chanteur 29
prêt 29
quad 29
comment 29
bout 29
urbain 29
direction 29
profite 29
athlète 29
peau 29
langue 29
tape 29
couloir 29
saxophone 29
siège 29
parasol 29
grandes 29
épaule 29
chez 29
footballeurs 29
&apos;affrontent 29
oiseaux 29
éclaboussures 29
salto 29
buissons 28
tracteur 28
étang 28
publique 28
bon 28
différents 28
part 28
flaque 28
tourne 28
articles 28
peut-être 28
trottinette 28
dîner 28
serviette 28
soldat 28
&apos;appuie 28
boire 28
balai 28
parapluies 28
camouflage 28
cadeau 28
touristes 28
rambarde 28
danser 28
rollers 28
footballeur 28
rugby 28
VTT 28
rebord 27
bateaux 27
joyeusement 27
fer 27
brillant 27
te 27
murs 27
&apos;amusant 27
arts 27
tabouret 27
équipement 27
verres 27
rassemblement 27
foncée 27
musicien 27
vidéo 27
S@@ 27
tenir 27
ouvre 27
passer 27
chaussettes 27
branche 27
talons 27
piano 27
parachute 27
arbitre 27
alimentaire 27
&apos;apprêtant 27
softball 27
chaussée 26
ouvert 26
côtés 26
attentivement 26
éclairée 26
arrêt 26
fleur 26
outils 26
mettre 26
dreadlocks 26
mais 26
conduisant 26
&apos;appareil 26
clavier 26
rayures 26
circuit 26
assiette 26
eur 26
cherche 26
descendre 26
&apos;s 26
argent 26
linge 26
M@@ 26
foin 26
feuille 26
monter 26
bandana 26
manifestation 26
perche 26
transportant 26
béret 26
pancartes 26
battant 26
pyjama 26
trouvent 26
n 26
surfant 26
skis 25
discuter 25
commercial 25
poussière 25
plate-forme 25
pain 25
employés 25
publicité 25
vol 25
balles 25
herbes 25
bancs 25
sert 25
balade 25
tirer 25
&apos;à 25
boivent 25
camionnette 25
cônes 25
fréquenté 25
vives 25
podium 25
jupes 25
marié 25
&apos;en@@ 25
allongés 25
fermés 25
huit 25
attaché 24
ressemble 24
mouillé 24
li@@ 24
tend 24
chevauchant 24
travailleurs 24
coudre 24
jeans 24
gamin 24
garage 24
&apos;été 24
club 24
blocs 24
américains 24
prise 24
profitent 24
ré@@ 24
poissons 24
acoustique 24
cabane 24
natation 24
certaines 24
sortant 24
&apos;adultes 24
ordures 24
visages 24
danseuses 24
bouteilles 24
arène 24
pointe 24
chaque 24
gobelet 24
New 24
York 24
conférence 24
professionnelle 24
gradins 24
L@@ 24
sapin 24
front 24
ressemblant 24
crépuscule 24
nettoyer 23
fluo 23
G@@ 23
carte 23
agent 23
répare 23
aliments 23
tirent 23
casquettes 23
escalator 23
blouson 23
cartes 23
motards 23
plafond 23
échafaudage 23
éclairé 23
a@@ 23
&apos;argent 23
glaces 23
multicolores 23
g@@ 23
ambulant 23
planches 23
employé 23
jolie 23
ie 23
tambour 23
appuyé 23
position 23
aidant 23
plancher 23
rocheux 23
file 23
participe 23
papillon 23
oreilles 23
étranger 23
berger 23
basse 23
soulève 23
basketteur 23
doré 23
plaque 23
vitesse 23
fauteuils 23
BMX 23
pot 22
dormir 22
i 22
magnifique 22
vaste 22
pile 22
posé 22
passagers 22
marchandises 22
pleure 22
ordinateurs 22
portables 22
chacun 22
tomber 22
rame 22
&apos;avant 22
trompette 22
choses 22
&apos;in@@ 22
flottant 22
; 22
alignés 22
rire 22
danseurs 22
indienne 22
nuageux 22
déjeuner 22
palmiers 22
beau 22
câlin 22
en@@ 22
&apos;attractions 22
identiques 22
brandissant 22
légèrement 22
prêts 22
métalliques 22
allemand 22
Père 22
verse 22
ons 22
adversaire 22
indien 22
automatique 22
chaussure 22
kiosque 22
cuisinant 22
crête 22
maisons 22
combinaisons 22
observent 21
poutre 21
publicitaire 21
chanter 21
urbaine 21
magazine 21
wagon 21
moteur 21
-@@ 21
véhicules 21
gazon 21
5 21
dur 21
papa 21
cuisinier 21
harnais 21
nagent 21
patinoire 21
récupérer 21
&apos;origine 21
incendie 21
bordé 21
jet 21
regard 21
ants 21
droit 21
F@@ 21
H@@ 21
battre 21
! 21
vous 21
&apos;automne 21
frais 21
commence 21
toucher 21
froid 21
discours 21
rock 21
&apos;embrassent 21
jongle 21
sièges 21
basketball 21
téléphonique 21
pré@@ 21
cartons 20
&apos;équilibre 20
canard 20
agitant 20
préparer 20
chanson 20
reposent 20
membre 20
maquillage 20
accroché 20
animaux 20
dessous 20
récipient 20
gant 20
ajuste 20
billard 20
bibliothèque 20
musée 20
portes 20
nuages 20
cœur 20
africains 20
tes 20
marine 20
or 20
&apos;a@@ 20
chiot 20
gravier 20
style 20
pris 20
tombé 20
pneu 20
&apos;arrête 20
partiellement 20
appréciant 20
palet 20
foire 20
creuse 20
action 20
montrent 20
dirige 20
levant 20
torses 20
grimpant 20
&apos;école 20
marquer 20
conducteur 19
déplace 19
griller 19
pâte 19
rase 19
alpiniste 19
&apos;amis 19
maman 19
large 19
château 19
image 19
is 19
carnaval 19
toile 19
pouce 19
rapidement 19
paix 19
ca@@ 19
faite 19
peindre 19
filets 19
vente 19
chaude 19
tube 19
imposant 19
adossé 19
tiré 19
receveur 19
banderole 19
attachés 19
télévision 19
élèves 19
boisé 19
décor 19
boueuse 19
tatouages 19
hula 19
déguisés 19
fusil 19
lèvent 19
envoie 19
achetant 19
plongeant 19
tramway 19
fumée 19
cricket 19
brique 19
poil 19
lasso 19
lavant 19
vététiste 19
groupes 19
géant 18
barres 18
étrange 18
agenouillée 18
baignoire 18
africaine 18
arme 18
skieurs 18
dessin 18
souffle 18
grimace 18
bijoux 18
’ 18
branches 18
lisent 18
bassin 18
t@@ 18
boisée 18
( 18
) 18
sandwich 18
es 18
plonge 18
marbre 18
roues 18
microphone 18
ter 18
nautique 18
accroupie 18
&apos;apprêtent 18
2 18
entraîneur 18
enseigne 18
c@@ 18
it 18
moustache 18
cône 18
silhouette 18
dune 18
tentes 18
lampe 18
caresse 18
lampadaire 18
serrant 18
nacelle 18
panneaux 18
produisent 18
cage 18
fenêtres 18
cabine 18
manche 18
dedans 18
poitrine 18
voies 18
aérienne 18
coiffure 18
vêtement 18
seaux 18
chanteuse 18
flanc 18
professionnel 18
heureuse 18
benne 18
té 18
atelier 18
caisses 18
ques 18
faiblement 18
artistique 18
village 18
journaux 18
vitre 18
bouquet 18
examinant 18
plante 18
micros 18
ombrelle 18
violets 18
victoire 18
je 17
caoutchouc 17
claire 17
camions 17
clôturée 17
volent 17
intersection 17
sortie 17
applaudissent 17
traîneau 17
paniers 17
co@@ 17
tongs 17
nourrisson 17
parents 17
brouette 17
faux 17
monocycle 17
pêcheur 17
bi@@ 17
blondes 17
i@@ 17
donner 17
contrôle 17
animé 17
paire 17
gymnastique 17
&apos;escalier 17
vendeurs 17
dames 17
achètent 17
ssant 17
com@@ 17
taxi 17
métier 17
allongées 17
&apos;envers 17
escaladent 17
pi@@ 17
fin 17
bande 17
voler 17
levés 17
laverie 17
&apos;amuse 17
acheter 17
bandeau 17
hoop 17
région 17
R@@ 17
&apos;embrasure 17
&apos;arbitre 17
3 17
nouveau-né 17
étudiant 17
toge 17
circulant 17
fourrure 17
pigeons 17
attrapant 17
partout 17
ventre 17
équipements 17
Asiatiques 17
reposant 17
écrivant 17
jockey 17
afro-américaine 17
geste 17
rang 17
garée 17
arrive 17
pins 17
achète 17
ours 16
bougies 16
corps 16
camping 16
individus 16
&apos;entraînement 16
mousse 16
plongée 16
chefs 16
serre 16
craie 16
semblant 16
extérieure 16
agenouillé 16
euse 16
embrasse 16
ferrée 16
poupée 16
câbles 16
nettoient 16
probablement 16
décoré 16
bonnets 16
agents 16
réparant 16
lèvres 16
crème 16
baril 16
exposition 16
f@@ 16
traditionnel 16
&apos;horizon 16
sse 16
poteaux 16
froide 16
entourés 16
rapides 16
u@@ 16
boutique 16
camp 16
individu 16
ex@@ 16
couche 16
fanfare 16
scolaire 16
écoutent 16
décontractée 16
penchée 16
beach 16
féminin 16
patio 16
portrait 16
crâne 16
ceinture 16
fans 16
toges 16
vent 16
composé 16
nageurs 16
cerceau 16
nous 16
outil 16
s@@ 16
ait 16
flûte 16
agite 16
suit 16
partagent 16
présentation 16
flotte 16
parquet 16
moderne 16
cuire 16
veau 16
détendent 16
&apos;honneur 16
gravissant 16
collection 16
écossaise 16
pagaie 16
laver 16
monument 16
maïs 16
tombant 16
sans-abri 16
vaisselle 16
foraine 16
arc-en-ciel 15
machines 15
protéger 15
local 15
épée 15
al@@ 15
médecin 15
rouler 15
ri@@ 15
garés 15
ante 15
e 15
&apos;embrassant 15
éléphant 15
scie 15
derby 15
client 15
athlètes 15
collines 15
&apos;escrime 15
&apos;arrosage 15
grosses 15
produisant 15
lequel 15
badauds 15
&apos;arrêtent 15
grille 15
pneus 15
tent 15
hall 15
bonbons 15
raquettes 15
vi@@ 15
rails 15
dirigeant 15
œuvres 15
chiots 15
tenu 15
russes 15
étroite 15
africain 15
diverses 15
rer 15
discute 15
p@@ 15
forestier 15
mettent 15
œil 15
it@@ 15
cher 15
&apos;atteindre 15
ens 15
tricycle 15
liquide 15
cerf-volant 15
patin 15
pratiquent 15
coéquipier 15
peints 15
voilier 15
&apos;arrière-plan 15
artistes 15
mouvements 15
théâtre 15
ramassant 15
garé 15
couteau 15
perceuse 15
&apos;entraîne 15
&apos;accroche 15
partageant 15
construisant 15
frisés 15
E@@ 15
électronique 15
violettes 15
inspecte 15
immense 15
découpe 15
valise 15
o@@ 15
écartés 15
crie 15
réunissent 15
passants 15
creusant 15
&apos;entraînant 15
amie 15
&apos;éloignant 15
américaine 15
aussi 15
caddie 15
sportif 15
graffiti 15
mou@@ 15
dégarni 15
pêchant 15
dessinant 15
ancien 15
baskets 15
plumes 15
gestes 15
également 14
in 14
usine 14
argenté 14
&apos;approche 14
partir 14
magazines 14
blouses 14
croix 14
contenant 14
ette 14
ti@@ 14
cherchant 14
&apos;accroupit 14
grue 14
transport 14
bulle 14
par@@ 14
brillante 14
bou@@ 14
reflet 14
qu@@ 14
scientifique 14
cuisinière 14
bouée 14
brouillard 14
penchant 14
ra@@ 14
u 14
parade 14
&apos;ac@@ 14
pêcher 14
tourner 14
imperméable 14
départ 14
fil 14
manifestants 14
bas-côté 14
servant 14
boueux 14
&apos;an@@ 14
n@@ 14
eurs 14
chorale 14
savoure 14
abrupte 14
hiver 14
commencer 14
studio 14
&apos;artifice 14
discussion 14
tatoué 14
lettres 14
jetant 14
professeur 14
bordeaux 14
bains 14
contrebas 14
appareils 14
moitié 14
v@@ 14
pleurs 14
parasols 14
nuageuse 14
atteindre 14
unes 14
œuvre 14
skie 14
galerie 14
reçoit 14
o 14
&apos;arrivée 14
retournant 14
réunion 14
adverses 14
charrette 14
perron 14
tirée 14
nature 13
plongeoir 13
âne 13
grimaces 13
document 13
tombée 13
types 13
porche 13
apprécient 13
hauteur 13
: 13
kilt 13
jumelles 13
apprend 13
lave 13
ss@@ 13
cuillère 13
me 13
pièces 13
allant 13
société 13
pâle 13
bretelles 13
four 13
ssent 13
non 13
balayant 13
sent 13
couvre 13
performance 13
débris 13
po@@ 13
œufs 13
croisés 13
ché 13
badge 13
N@@ 13
intérieure 13
filme 13
lignes 13
cape 13
mince 13
glisser 13
engin 13
dorée 13
morceaux 13
frère 13
&apos;anniversaire 13
moutons 13
ille 13
poterie 13
t 13
suspendue 13
&apos;allée 13
euses 13
rafting 13
vu 13
genou 13
garées 13
canot 13
bébés 13
cornemuse 13
turban 13
ba@@ 13
hockeyeurs 13
disputent 13
première 13
nageur 13
boules 13
mannequin 13
sauvage 13
feux 13
sombres 13
aider 13
rayon 13
acrobatie 13
&apos;orchestre 13
ring 13
carrelage 13
japonais 13
orientale 13
justaucorps 13
patient 13
courte 13
alignées 13
rayés 13
assiettes 13
mouton 13
Londres 13
cor@@ 13
nager 13
baguettes 13
surveille 13
pommes 13
basketteurs 13
gagner 13
aident 13
lever 13
déplaçant 13
&apos;étreignent 13
circule 13
joué 13
magasins 13
formation 13
surpoids 13
disant 13
thé 13
enne 13
jus 13
&apos;embrasser 13
dessine 13
calme 13
navigue 13
couples 13
documents 13
paisible 13
nouveau 12
ta@@ 12
herbeux 12
presque 12
ans 12
tourné 12
mélange 12
and 12
ine 12
&apos;entretien 12
tronçonneuse 12
bordure 12
peut 12
chargement 12
berge 12
présente 12
soude 12
sales 12
verdoyante 12
age 12
b@@ 12
au@@ 12
accident 12
glacée 12
sous-vêtements 12
baissée 12
commande 12
plats 12
ins 12
ité 12
papiers 12
an@@ 12
ci@@ 12
ères 12
banjo 12
pratiquant 12
borne 12
&apos;ar@@ 12
coups 12
bac 12
posée 12
DJ 12
ettes 12
époux 12
bouclés 12
dorment 12
volley-ball 12
sportive 12
crayon 12
&apos;oreille 12
couvertures 12
Texas 12
bombe 12
corpulent 12
ches 12
montagneux 12
seulement 12
dresse 12
évier 12
centre-ville 12
géante 12
paquet 12
adolescente 12
retourne 12
&apos;affaires 12
ch@@ 12
poignée 12
bureaux 12
exposé 12
&apos;occupe 12
arche 12
rament 12
ramasse 12
cible 12
construire 12
peignent 12
gravit 12
ramant 12
laine 12
ier 12
nombreuse 12
cavaliers 12
ballerine 12
port 12
turquoise 12
écossais 12
stylo 12
gobelets 12
&apos;obstacles 12
sou@@ 12
ts 12
chameaux 12
jonglant 12
oriental 12
canette 12
hache 12
collants 12
utiliser 12
montgolfière 12
&apos;étudiants 12
chorégraphie 12
chaud 12
aller 12
nouvellement 12
pomme 12
tondeuse 12
attachée 12
enveloppé 12
colonnes 12
ailes 12
&apos;entraînent 12
engagés 12
installant 12
école 12
&apos;al@@ 12
&apos;écume 12
&apos;aux 12
aéroport 12
matelas 12
yoga 12
sortir 12
ge 12
défilent 12
pousse-pousse 12
série 12
olympiques 12
&apos;avion 12
pilotes 12
en-dessous 12
patineurs 12
déguisé 12
situé 12
ballet 11
re 11
couchée 11
bascule 11
étudie 11
mari 11
couvrant 11
voyage 11
concentre 11
née 11
pourpre 11
détend 11
la@@ 11
ar@@ 11
ponton 11
ir 11
or@@ 11
mé@@ 11
imprimé 11
pliante 11
capot 11
rassemble 11
navire 11
r@@ 11
cou@@ 11
grill 11
Mar@@ 11
di@@ 11
crée 11
découper 11
violoncelle 11
meubles 11
bonne 11
tendant 11
ère 11
immeubles 11
joie 11
plongeur 11
tisser 11
enthousiaste 11
barrières 11
jungle 11
porter 11
&apos;aéroport 11
reste 11
ste 11
bannière 11
religieuse 11
affaires 11
gâteaux 11
ger 11
saisit 11
remplis 11
joueuses 11
rive 11
reposer 11
m@@ 11
arrière-cour 11
am@@ 11
manipule 11
environnement 11
bols 11
venant 11
celui 11
vie 11
ines 11
perles 11
tacheté 11
déchets 11
touchant 11
observant 11
ale 11
&apos;armée 11
fleurie 11
lapin 11
ferrées 11
tournoi 11
cheminée 11
déplacent 11
texto 11
indiennes 11
poste 11
lancé 11
bat 11
répète 11
rocheuses 11
accroupis 11
pots 11
argentée 11
plupart 11
al 11
poussiéreux 11
soyeux 11
étoile 11
signalisation 11
veston 11
lévriers 11
gratte 11
singe 11
ler 11
lo@@ 11
menu 11
sauté 11
poursuit 11
ro@@ 11
triste 11
chameau 11
ronde 11
Jeux 11
blessé 11
essentiellement 11
film 11
joli 11
enthousiastes 11
phase 11
ment 11
ac@@ 11
moins 11
&apos;hôpital 11
vallée 11
revêtement 11
proches 11
mord 11
municipal 11
ement 11
traditionnelle 11
bikinis 11
unique 11
visibles 11
directions 11
nœud 11
perruque 11
vendent 11
couvre-chef 11
haie 11
enthousiasme 11
entrée 11
examinent 11
crosse 11
tra@@ 11
2012 11
réfléchissant 10
e@@ 10
ations 10
nouvelle 10
pré 10
effectuent 10
opération 10
coiffe 10
cu@@ 10
4 10
fleuri 10
col@@ 10
bandoulière 10
habits 10
certain 10
poulet 10
ite 10
décorations 10
moyenne 10
cuisiner 10
chariots 10
art 10
soda 10
posés 10
poser 10
posées 10
tranquille 10
rou@@ 10
chés 10
John 10
complet 10
expérience 10
ure 10
miniature 10
épaisse 10
serveur 10
garde 10
essaye 10
travailleur 10
&apos;attente 10
chi@@ 10
aride 10
Asie 10
restauration 10
luttent 10
per@@ 10
breakdance 10
plaisir 10
ire 10
tond 10
croisées 10
citron 10
échasses 10
échecs 10
&apos;exposition 10
tendus 10
ingrédients 10
ver@@ 10
bri@@ 10
balancent 10
&apos;embrasse 10
&apos;obscurité 10
couverts 10
essaient 10
&apos;au 10
ferme 10
pistolet 10
sarcelle 10
étroit 10
flanelle 10
baiser 10
golden 10
antes 10
épicerie 10
vont 10
signes 10
menant 10
auditorium 10
ation 10
rappel 10
&apos;animaux 10
char 10
secoue 10
onnant 10
im@@ 10
&apos;aspirateur 10
réparent 10
si 10
automne 10
boîtes 10
suivant 10
circulent 10
troncs 10
curieux 10
serveuse 10
transporte 10
poche 10
agricole 10
bloc 10
tombent 10
&apos;ouvriers 10
car@@ 10
ha@@ 10
rasant 10
ici 10
raser 10
remplit 10
concours 10
&apos;adolescents 10
étoffe 10
mal 10
&apos;aider 10
périlleux 10
hot-dog 10
écoliers 10
finir 10
attraction 10
oreiller 10
délabré 10
y@@ 10
entrepôt 10
entourées 10
durant 10
photographes 10
Orient 10
scouts 10
essayent 10
mo@@ 10
col 10
écrans 10
peinte 10
perdu 10
pupitre 10
temple 10
tapant 10
pointant 10
fois 10
découpant 10
échafaudages 10
après-midi 10
&apos;orange 10
belles 10
inspectent 10
food 10
guitares 10
&apos;a 10
lévrier 10
poing 10
kitesurf 10
vacances 10
? 10
K@@ 10
ren@@ 10
d@@ 10
oreille 10
hélicoptère 10
disque 10
pellette 10
ouvrant 10
verdoyant 10
fs 10
el 10
onne 10
proche 10
patineur 10
boxe 10
truck 10
réunies 10
calèche 10
canal 10
éclairage 10
clowns 10
blazer 10
Europe 10
&apos;affrontant 10
saluant 10
corpulente 10
partition 9
&apos;em@@ 9
fort 9
bambou 9
lavent 9
ap@@ 9
dé 9
&apos;h@@ 9
plateforme 9
poêle 9
mec 9
sens 9
construit 9
tu@@ 9
creusent 9
Elmo 9
sa@@ 9
poussent 9
&apos;écran 9
service 9
visière 9
ceintures 9
démonstration 9
brunes 9
trouver 9
adolescentes 9
&apos;on 9
aquarium 9
te@@ 9
bizarre 9
wakeboard 9
marchand 9
jardinage 9
peintre 9
fra@@ 9
mobile 9
servir 9
prochain 9
exécutent 9
tige 9
roulants 9
&apos;oiseaux 9
sal@@ 9
che 9
chute 9
jou@@ 9
marchandise 9
rem@@ 9
&apos;arcade 9
em@@ 9
balançant 9
coffre 9
chèvre 9
épouse 9
clôturé 9
rapide 9
Chine 9
site 9
verdure 9
skiant 9
surfer 9
ouverts 9
cow-boys 9
gé 9
chercher 9
peignoir 9
&apos;utiliser 9
cent 9
citrouille 9
pant 9
&apos;A@@ 9
trépied 9
shopping 9
armes 9
&apos;image 9
agenouillés 9
locale 9
nappe 9
salue 9
moustachu 9
L 9
lancent 9
épais 9
vus 9
savourent 9
vieilles 9
châle 9
pastèques 9
protège 9
extrémité 9
goûter 9
chant 9
&apos;avoir 9
douche 9
buffet 9
oreillers 9
surveillent 9
foyer 9
&apos;église 9
ange 9
inspectant 9
éventail 9
étal 9
bondit 9
ales 9
prête 9
chinoises 9
Jungle 9
Gym 9
flânant 9
inter@@ 9
tée 9
s-@@ 9
distributeur 9
médical 9
fumer 9
vérifie 9
drôle 9
O@@ 9
om@@ 9
ai@@ 9
muret 9
remplissant 9
rassemblant 9
vite 9
at 9
littoral 9
indiens 9
&apos;appuyant 9
pourchassant 9
caniche 9
photographié 9
grillage 9
retriever 9
pourchassé 9
canards 9
ser 9
plaqué 9
2@@ 9
rasé 9
tabliers 9
ven@@ 9
&apos;agenouille 9
prix 9
espagnol 9
illes 9
impliquant 9
monospace 9
naviguant 9
er@@ 9
mâche 9
I@@ 9
noix 9
cannes 9
sculptures 9
lutte 9
sécher 9
&apos;environ 9
quoi 9
végétation 9
skateurs 9
libre 9
attache 9
Moyen-Orient 9
tigre 9
rayées 9
fromage 9
olympique 9
admire 9
débardeurs 9
deuxième 9
décolle 9
kayaks 9
jockeys 9
obscure 9
manifestant 9
contrer 9
intégrale 9
lacrosse 9
nuage 9
dessins 9
déguisée 9
chée 8
McDonald 8
&apos;ébroue 8
messieurs 8
cr@@ 8
â@@ 8
stationnement 8
beiges 8
rail 8
pagayant 8
fruit 8
ent@@ 8
serré 8
infirmières 8
rurale 8
contenu 8
pêchent 8
automobile 8
champs 8
coéquipiers 8
construisent 8
surélevée 8
entrent 8
canyon 8
hôpital 8
gazonné 8
murale 8
atteint 8
quilles 8
endroits 8
cuit 8
sourcils 8
&apos;argile 8
hamac 8
manière 8
chic 8
tâche 8
appuyée 8
casserole 8
cache 8
retourné 8
située 8
cuisinent 8
&apos;étire 8
collation 8
man@@ 8
acrobaties 8
tuba 8
cour@@ 8
enlève 8
poussiéreuse 8
celle 8
tomates 8
arrose 8
propre 8
ente 8
soigneusement 8
fourgonnette 8
appelé 8
bar@@ 8
drap 8
ise 8
grimpent 8
hi@@ 8
coud 8
cal@@ 8
casino 8
commun 8
tés 8
mes 8
musical 8
survêtement 8
souriantes 8
calmes 8
os 8
&apos;instrument 8
cerceaux 8
&apos;écrire 8
laquelle 8
encombrée 8
6 8
plongeurs 8
vitres 8
quarterback 8
Jenga 8
mordre 8
éri@@ 8
&apos;inter@@ 8
genouillères 8
brillantes 8
trafic 8
garder 8
chocolat 8
bougie 8
Times 8
écart 8
filmer 8
bloquer 8
container 8
sèche 8
ateur 8
embrassant 8
bières 8
était 8
mort 8
girl 8
us 8
lui-même 8
riz 8
vides 8
pauvre 8
au-delà 8
marmite 8
installe 8
cadeaux 8
pen@@ 8
câble 8
lèche 8
profond 8
cherchent 8
coiffeur 8
occupés 8
ou@@ 8
&apos;athlétisme 8
nourrit 8
maquille 8
pigeon 8
ue 8
exposés 8
flânent 8
palmier 8
soufflant 8
enneigées 8
glacier 8
ongles 8
juges 8
orné 8
savon 8
&amp; 8
taches 8
raide 8
perché 8
bananes 8
ér@@ 8
bâche 8
Walmart 8
crayons 8
images 8
&apos;alcool 8
billets 8
collègue 8
forces 8
souriants 8
rond 8
passager 8
frisé 8
lanternes 8
demoiselles 8
Moyen 8
notes 8
re-@@ 8
ur@@ 8
patinent 8
double 8
saluent 8
fatigué 8
apprenant 8
vitrines 8
traînant 8
bracelet 8
officielle 8
sé 8
tailler 8
compris 8
&apos;Amérique 8
barbus 8
pinata 8
1@@ 8
Batman 8
mutuellement 8
pou@@ 8
établissement 8
entrer 8
at@@ 8
réception 8
coupent 8
bords 8
touriste 8
muselière 8
entourant 8
plaquer 8
universitaire 8
viennent 8
gue 8
ges 8
circulaire 8
détendant 8
entreprise 8
patauge 8
jets 8
&apos;animal 8
&apos;urgence 8
rallye 8
océan 8
électriques 8
exercices 8
téléphones 8
tiers 8
hôtel 8
vol@@ 8
pa@@ 8
brossant 8
photographier 8
e-@@ 8
atterrit 8
plantant 8
sucette 8
sée 8
iroquoise 8
&apos;instruments 8
live 8
pagaient 8
accrochés 8
quitte 8
neuf 8
mène 8
fil@@ 8
éjecté 8
on@@ 8
parce 8
bles 8
soir 8
éclaboussant 8
peloton 8
pe@@ 8
lant 8
&apos;équipes 8
catcheur 8
accompagné 8
xylophone 8
is@@ 8
pittoresque 8
cigare 8
ballerines 8
fraîche 8
&apos;époque 8
cathédrale 8
œuf 8
admirant 8
ethnique 8
défilant 8
filmant 8
&apos;opération 8
&apos;Asiatiques 8
fonctionner 7
composée 7
r 7
mis 7
fabrique 7
sser 7
herbe 7
nattes 7
acier 7
boulangerie 7
retire 7
tropicale 7
là 7
javelot 7
montgolfières 7
&apos;épaule 7
réfléchissants 7
classique 7
scooters 7
ff@@ 7
frire 7
poney 7
men@@ 7
mexicain 7
renversé 7
porté 7
amies 7
&apos;arrêter 7
galets 7
rencontre 7
&apos;escalader 7
réparations 7
trophée 7
bambin 7
cellulaire 7
saut@@ 7
arrêté 7
pinceau 7
Qu@@ 7
couvercle 7
complexe 7
no@@ 7
illant 7
can@@ 7
bat@@ 7
aires 7
fon@@ 7
onné 7
&apos;écou@@ 7
guichet 7
étudiante 7
nommé 7
officiers 7
pé@@ 7
voirie 7
navigable 7
fermier 7
chent 7
potier 7
onze 7
poils 7
masques 7
fortune 7
gar@@ 7
pla@@ 7
nou@@ 7
remuant 7
chandail 7
officier 7
mascotte 7
ements 7
pelleteuse 7
bicyclette 7
herbeuse 7
étreint 7
f 7
&apos;ordures 7
accordéon 7
talent 7
couchés 7
pub 7
por@@ 7
pratique 7
su@@ 7
roche 7
combattant 7
jeter 7
profondes 7
&apos;attendre 7
encore 7
versant 7
ass@@ 7
emmitouflé 7
for@@ 7
geant 7
déchiré 7
ssé 7
démarrer 7
ds 7
serrent 7
tran@@ 7
sec 7
tee 7
mariés 7
élévateur 7
attelage 7
ative 7
jeep 7
ravin 7
soulevant 7
nocturne 7
lumineux 7
interagissent 7
plonger 7
ni@@ 7
tresses 7
&apos;ass@@ 7
souder 7
dessiner 7
beaux 7
activité 7
&apos;ap@@ 7
&apos;objets 7
toilettes 7
haut-de-forme 7
frappé 7
donnent 7
Square 7
fraîchement 7
ient 7
superbe 7
stationné 7
fi@@ 7
use 7
mots 7
flottent 7
touchent 7
endormie 7
lait 7
piercing 7
expression 7
tendue 7
demande 7
&apos;Halloween 7
gravissent 7
peuplé 7
mouillée 7
pilier 7
&apos;amuser 7
projecteur 7
&apos;éloignent 7
fontaines 7
pirate 7
Red 7
écouter 7
percussion 7
applaudit 7
publicités 7
courbé 7
ancienne 7
foulards 7
barque 7
&apos;attention 7
smoking 7
sant 7
éclairages 7
museau 7
étendu 7
ethniques 7
poussé 7
formations 7
&apos;uniformes 7
canoës 7
rassemblée 7
els 7
cuisiniers 7
ster 7
appartement 7
prient 7
skate-board 7
pliantes 7
modèle 7
polos 7
tatouée 7
mitaines 7
chevalet 7
magnifiques 7
pour@@ 7
Monopoly 7
essayer 7
entassés 7
spectateur 7
&apos;ex@@ 7
irs 7
ies 7
bon@@ 7
ennes 7
télésiège 7
&apos;artisanat 7
cabines 7
&apos;individus 7
terminé 7
charge 7
agitent 7
surfeurs 7
suspendus 7
flammes 7
dant 7
loupe 7
guide 7
ux 7
9@@ 7
industriel 7
balais 7
chips 7
niveau 7
grattant 7
léopard 7
tournage 7
descente 7
pe 7
patins 7
frappent 7
support 7
vaches 7
tableaux 7
musclé 7
fu@@ 7
afro-américains 7
grotte 7
baisse 7
poutres 7
chan@@ 7
quittant 7
feutre 7
quant 7
bataille 7
toujours 7
poussettes 7
renifle 7
trains 7
coussin 7
décorée 7
dinosaure 7
tenter 7
floue 7
minces 7
tutu 7
ve 7
Inde 7
participants 7
collègues 7
vérifiant 7
pizzeria 7
séance 7
soulevé 7
personnage 7
enseignes 7
instructions 7
maquette 7
chargeant 7
serpent 7
alimentaires 7
jaillir 7
S 7
venir 7
sœur 7
gonflables 7
&apos;écrasant 7
créer 7
&apos;U@@ 7
coco 7
infirmière 7
personnages 7
ten@@ 7
guerre 7
logo 7
ainsi 7
mobylette 7
saris 7
prises 7
envoyant 7
marins 7
trench-coat 7
ème 7
sortent 7
V@@ 7
çant 7
suivent 7
enflammés 7
enseignante 7
ça 7
élève 7
levée 7
&apos;élèves 7
cré@@ 7
afin 7
numérique 7
aquatique 7
professionnels 7
allure 7
âges 7
spéci@@ 7
&apos;allure 7
déguisées 7
tatoueur 7
ais 7
4@@ 7
rocailleux 7
sports 7
défenseur 7
bran@@ 6
tâches 6
cassée 6
encombré 6
k@@ 6
alpinistes 6
sion 6
souple 6
coupe-vent 6
grimper 6
labrador 6
bal@@ 6
trop 6
forestière 6
tribu 6
pulls 6
surplombe 6
tubes 6
rustique 6
plume 6
char@@ 6
le@@ 6
levé 6
enlever 6
spatule 6
approchant 6
mecs 6
accroche 6
entraîne 6
pistes 6
hutte 6
bavoir 6
soulever 6
buisson 6
nageuse 6
anneau 6
vraiment 6
gonfle 6
auvent 6
début 6
dragon 6
campement 6
ill@@ 6
Afro-@@ 6
élégant 6
canettes 6
imposante 6
lot 6
inhabituelle 6
chasse 6
enclume 6
ble 6
formes 6
traineau 6
brûlant 6
invisible 6
mal@@ 6
&apos;ordre 6
hawaïenne 6
onn@@ 6
installée 6
essuie 6
teint 6
issant 6
tortue 6
pend 6
ï@@ 6
corne 6
compagnie 6
ction 6
&apos;hôtel 6
pousser 6
épées 6
chapiteau 6
inscriptions 6
ites 6
ramasser 6
écharpes 6
ssés 6
mi@@ 6
Bu@@ 6
vise 6
do@@ 6
karting 6
tisse 6
synchronisée 6
steaks 6
&apos;enf@@ 6
cha@@ 6
gr@@ 6
né 6
valises 6
brosser 6
jeté 6
Con@@ 6
bouc 6
bru@@ 6
bœufs 6
maquillé 6
shooter 6
tumultueuses 6
&apos;autoroute 6
sses 6
pin 6
barreaux 6
yer 6
couvertes 6
rouleau 6
partage 6
gés 6
ers 6
fonctionne 6
tempête 6
lé@@ 6
accrochées 6
brille 6
saucisses 6
slip 6
quer 6
monté 6
sortes 6
autobus 6
porte-@@ 6
ramassent 6
dispositif 6
drôles 6
escalader 6
pleut 6
tricot 6
personnels 6
bardeaux 6
baie 6
trouvant 6
pelles 6
soudure 6
ateurs 6
il@@ 6
décor@@ 6
station-service 6
caniches 6
el@@ 6
remettre 6
technique 6
arrières 6
gaz 6
lice 6
cho@@ 6
ombre 6
mar@@ 6
visible 6
enceinte 6
forment 6
tyrolienne 6
&apos;or 6
remplissent 6
cri@@ 6
&apos;ag@@ 6
ban@@ 6
médiévale 6
friandise 6
ma 6
propos 6
emmène 6
étalage 6
plateaux 6
ru@@ 6
rasoir 6
souffleur 6
kickboxing 6
chiffon 6
isant 6
dribble 6
&apos;occupent 6
sommets 6
banquette 6
artificielle 6
mise 6
cl@@ 6
structures 6
&apos;Est 6
bonhomme 6
typique 6
cigarettes 6
taillant 6
its 6
terminer 6
dossard 6
relais 6
africaines 6
banlieue 6
moine 6
tre@@ 6
bes 6
soupe 6
colorie 6
cassé 6
impliqués 6
répétant 6
banane 6
Superman 6
principalement 6
ga@@ 6
poulets 6
rural 6
plan@@ 6
examiner 6
ruines 6
souvenirs 6
ressemblent 6
prêtre 6
provenant 6
secours 6
&apos;entre@@ 6
caressant 6
serviettes 6
choisissant 6
meuble 6
fantaisie 6
Coca-Cola 6
inférieure 6
hu@@ 6
nom 6
étagère 6
similaire 6
regroupés 6
qué 6
chats 6
arrêtée 6
taper 6
expose 6
obtenir 6
rondes 6
approche 6
motif 6
recevant 6
dessinée 6
entrant 6
enclos 6
cla@@ 6
&apos;élastique 6
patine 6
ruade 6
cés 6
répètent 6
Sooners 6
bloque 6
supporters 6
prochaine 6
fou 6
colonne 6
sueur 6
ad@@ 6
paressent 6
auprès 6
exposées 6
propres 6
tuyaux 6
Seattle 6
ang 6
rubans 6
plutôt 6
arabe 6
l@@ 6
brassards 6
Spiderman 6
portraits 6
canin 6
coude 6
mant 6
cerf 6
lavabo 6
déchargeant 6
allume 6
int 6
chargé 6
més 6
projecteurs 6
incluant 6
sé@@ 6
vée 6
grises 6
smash 6
&apos;épée 6
revers 6
&apos;étreignant 6
détritus 6
Legos 6
entièrement 6
recouvrant 6
tressés 6
mouillés 6
rouillée 6
criant 6
entraînement 6
rampes 6
porteur 6
The 6
barmaid 6
page 6
propriétaire 6
menton 6
empêcher 6
rentrer 6
ombres 6
eusement 6
biker 6
patte 6
bronze 6
pyramide 6
chirurgiens 6
radeaux 6
soutien-gorge 6
va@@ 6
marin 6
ciseaux 6
Apple 6
destination 6
&apos;éteindre 6
lapins 6
colliers 6
intensément 6
contrebasse 6
célèbrent 6
pédalant 6
Miami 6
fier 6
porte-documents 6
mouettes 6
fossé 6
manuel 6
caméras 6
of 6
kimonos 6
médicaux 6
fabriquant 6
priant 6
éléphants 6
marque 6
lutteurs 6
médecins 6
suivi 6
appuyés 6
historique 6
poupées 6
mode 6
concentré 6
ignant 6
5@@ 6
snowboarder 6
- 6
effectuer 6
aise 6
3@@ 6
sang 6
célèbre 6
pli@@ 6
iPod 6
survolant 6
ave@@ 6
proposant 6
de@@ 6
acteurs 6
manipulant 6
10 6
adversaires 6
paysan 6
bulldozer 6
construite 6
plongeon 6
humaine 6
New-York 6
&apos;affichage 6
vernis 6
ajustant 6
mée 6
confettis 6
our 6
ard 6
mélangeant 6
désertique 6
ju@@ 6
baignent 6
altitude 6
arro@@ 6
trous 6
États-Unis 6
torche 6
couvre-chefs 6
casse 6
State 6
badminton 6
fourneaux 5
clarinette 5
maître 5
plane 5
ner 5
création 5
gelé 5
nouilles 5
bassine 5
crêpe 5
farine 5
hamburgers 5
applique 5
bl@@ 5
dev@@ 5
pétales 5
gé@@ 5
tabourets 5
pouces 5
bandeaux 5
torches 5
représentation 5
Speedo 5
Coca 5
presse 5
tricoté 5
footing 5
créant 5
zoo 5
plaine 5
pin@@ 5
ber@@ 5
planter 5
sur@@ 5
&apos;acier 5
jettent 5
incliné 5
talents 5
marionnette 5
&apos;oiseau 5
services 5
onnée 5
distance 5
mixage 5
stands 5
tétine 5
achats 5
lieux 5
hanches 5
déambulant 5
se@@ 5
yant 5
indiquant 5
cée 5
lacets 5
remue 5
voyageurs 5
trotte 5
applaudissant 5
tirés 5
décombres 5
promener 5
bermuda 5
japonaise 5
Disney 5
visite 5
interagit 5
nageuses 5
restant 5
exhibe 5
soccer 5
piles 5
gu@@ 5
z 5
bre 5
matinée 5
op@@ 5
boucle 5
citrouilles 5
apprécie 5
&apos;ange 5
&apos;acheter 5
lumineuse 5
tambours 5
souffler 5
pince 5
compte 5
gym 5
gou@@ 5
baigne 5
pos@@ 5
&apos;informatique 5
compagne 5
blot@@ 5
t-shirts 5
celui-ci 5
sacoche 5
cascades 5
trombone 5
falaises 5
robot 5
ascension 5
parvient 5
ligue 5
adossée 5
fou@@ 5
radio 5
9 5
dessiné 5
clos 5
réfléchit 5
noms 5
Jack 5
pulvérise 5
poses 5
récemment 5
iller 5
liberté 5
auto 5
pédale 5
mortes 5
bouton 5
bandés 5
bel 5
clou 5
eil 5
pistolets 5
si@@ 5
maigre 5
offre 5
k 5
enseignant 5
gi@@ 5
saleté 5
US 5
illent 5
Co@@ 5
saisissant 5
dalles 5
Washington 5
porc 5
dre 5
patron 5
campe 5
poudre 5
dentaire 5
organ@@ 5
gée 5
attachent 5
rythme 5
ati@@ 5
ét@@ 5
discothèque 5
campeurs 5
perçant 5
Ch@@ 5
mauvaises 5
conduire 5
tissant 5
tranches 5
nouveaux 5
&apos;o@@ 5
rentre 5
quittent 5
aut@@ 5
avance 5
installés 5
fusils 5
disques 5
banderoles 5
C 5
America 5
activités 5
projetée 5
ivre 5
franchit 5
besoin 5
partant 5
gueules 5
mêmes 5
iss@@ 5
exécute 5
tom@@ 5
nettoy@@ 5
auditoire 5
ez 5
caravane 5
choir 5
ornée 5
mouette 5
enf@@ 5
gne 5
our@@ 5
&apos;accrochant 5
bétail 5
pense 5
citoyens 5
&apos;Asie 5
légère 5
dinde 5
&apos;asphalte 5
fausses 5
cornes 5
tage 5
port@@ 5
aient 5
cela 5
cor 5
serrés 5
officiel 5
boxer 5
fée 5
truc 5
masculine 5
suite 5
sous-sol 5
participer 5
stores 5
endormis 5
gent 5
nourrissant 5
prie 5
bra@@ 5
rester 5
déballe 5
coloriage 5
morte 5
morts 5
arrivant 5
passé 5
affi@@ 5
nu@@ 5
trace 5
joues 5
assortiment 5
&apos;essayer 5
illé 5
faits 5
mor@@ 5
marqué 5
céréales 5
ai 5
sées 5
chevauchent 5
suivre 5
silhouettes 5
sifflet 5
tropical 5
caucasien 5
&apos;ét@@ 5
former 5
horloge 5
&apos;équipement 5
boucher 5
géantes 5
sculpteur 5
déplacer 5
guitaristes 5
&apos;images 5
dernière 5
direct 5
projetant 5
av@@ 5
balancer 5
cimetière 5
selle 5
apparemment 5
effort 5
&apos;objet 5
écla@@ 5
pointes 5
ile 5
fine 5
coiffé 5
quille 5
nuée 5
min@@ 5
lion 5
ain 5
Street 5
isolée 5
dorés 5
asphalte 5
balançoires 5
explique 5
microscopes 5
moutarde 5
reflets 5
corniche 5
installent 5
&apos;articles 5
impatiemment 5
plaquage 5
plaquant 5
A 5
envol 5
leggings 5
enfile 5
nue 5
boucles 5
dorées 5
sprinte 5
sculpte 5
fourchette 5
remet 5
aqua 5
engins 5
friandises 5
étages 5
chaînes 5
stop 5
tulipes 5
paon 5
nées 5
numéros 5
atterrir 5
débarrasse 5
nettoyage 5
encouragent 5
smashe 5
étoffes 5
marqueur 5
out@@ 5
personnel 5
guidon 5
trempé 5
étoiles 5
courbe 5
douze 5
pêcheurs 5
An@@ 5
mâcher 5
reniflant 5
kayakiste 5
cerfs-volants 5
similaires 5
arroseur 5
jaillissant 5
lan@@ 5
autochtone 5
&apos;harmonica 5
pleurer 5
disponibles 5
peintes 5
étirant 5
entourent 5
récupère 5
pulvéri@@ 5
uni@@ 5
lée 5
bo@@ 5
aime 5
Bob 5
ânes 5
kart 5
tourniquet 5
portée 5
rangées 5
écrire 5
excité 5
dominos 5
photographie 5
concurrents 5
aboyant 5
essuyant 5
léchant 5
doit 5
Nike 5
quel 5
cueille 5
perplexe 5
bec 5
sprinklers 5
empilées 5
cro@@ 5
nœuds 5
surélevé 5
ets 5
touristique 5
smashant 5
quatuor 5
empilés 5
DS 5
frotte 5
décoller 5
fan 5
shoote 5
adorable 5
melons 5
an 5
tribunes 5
tapent 5
barils 5
vues 5
gle 5
muselés 5
lessive 5
the 5
enroulé 5
boxeur 5
kitesurfeur 5
surveillant 5
cafétéria 5
étage 5
amish 5
ves 5
Obama 5
tournant 5
flou 5
jolies 5
encourageant 5
parallèles 5
mèches 5
&apos;Ar@@ 5
lingerie 5
courtes 5
Subway 5
&apos;évier 5
assistant 5
sés 5
prélassant 5
dunes 5
ron@@ 5
luttant 5
entassées 5
pizza 5
magique 5
montrer 5
harpe 5
él@@ 5
nes 5
toque 5
voiles 5
genre 5
religieux 5
Japon 5
appuyées 5
malheureux 5
écureuil 5
pro@@ 5
violoniste 5
gratuits 5
&apos;artistes 5
gage 5
hispanique 5
montagneuse 5
croisent 5
enveloppée 5
puits 5
civile 5
quantité 5
mon@@ 5
hors-bord 5
cra@@ 5
puisse 5
intense 5
pilotant 5
1 5
bordant 5
fum@@ 5
demi-cercle 5
devanture 5
6@@ 5
enfilant 5
photographiée 5
glacières 5
pipe 5
sinueuse 5
as 5
du@@ 5
défend 5
élégante 5
chacune 5
artistiques 5
boxant 5
boxeurs 5
fau@@ 5
champagne 5
termine 5
assorties 5
Boston 5
&apos;exercice 5
professionnelles 5
inconnue 5
poids 5
canadien 5
haies 5
&apos;aller 5
admirent 5
mini-short 5
marathonienne 5
camping-car 5
Al@@ 5
Re@@ 5
line 5
cockpit 5
skateboards 5
pri@@ 5
crache 5
&apos;exerçant 5
Starbucks 5
cliente 5
pelletant 5
Car@@ 5
tri@@ 5
années 5
portail 5
&apos;av@@ 5
photographient 5
cahier 5
vitrée 5
illuminé 5
patineuse 5
ornements 5
déambulateur 5
phare 5
antiémeute 5
échantillon 5
ombrelles 5
abeille 5
pleines 5
affiches 5
produire 5
couture 5
rent 5
piétonne 5
flèche 5
savourant 5
textile 5
conifères 5
water 5
crosses 5
rien 5
ence 4
olive 4
hotdogs 4
&apos;ascen@@ 4
villageois 4
récolte 4
garde-corps 4
gratte-ciel 4
pneumatiques 4
four@@ 4
&apos;opposé 4
brochure 4
voy@@ 4
ages 4
pourchasse 4
dizaines 4
voyageant 4
étincelles 4
ig@@ 4
mascara 4
tro@@ 4
ag@@ 4
ob@@ 4
Blue 4
sc@@ 4
Bienvenue 4
forgeron 4
histoire 4
&apos;immeuble 4
sup@@ 4
chirurgicale 4
&apos;appartements 4
res 4
fosse 4
onnelle 4
pagaye 4
tte 4
ires 4
installé 4
teurs 4
luxuriante 4
crabe 4
8 4
tuiles 4
laires 4
jongler 4
peuvent 4
dante 4
boutons 4
différent 4
mat@@ 4
sauts 4
secouristes 4
traînent 4
section 4
tiare 4
ER@@ 4
RO@@ 4
R 4
statues 4
éten@@ 4
hangar 4
percuter 4
Deere 4
marcel 4
&apos;endort 4
crampons 4
séjour 4
réalise 4
anniversaire 4
Environ 4
bleu-vert 4
gelée 4
x 4
è@@ 4
compagnon 4
sol@@ 4
voient 4
sang@@ 4
lante 4
m 4
conduisent 4
traces 4
&apos;or@@ 4
isation 4
&apos;éclaboussant 4
servent 4
fouille 4
fa@@ 4
librairie 4
patiente 4
diable 4
particulier 4
laire 4
tion 4
piétonnier 4
golfeur 4
&apos;enc@@ 4
urbains 4
charger 4
handicapée 4
colère 4
tondant 4
&apos;agent 4
caresser 4
&apos;égout 4
français 4
pées 4
puces 4
tag@@ 4
vieillards 4
ic@@ 4
cul@@ 4
teur 4
bassiste 4
poilu 4
verser 4
&apos;ébrou@@ 4
KitchenAid 4
substance 4
&apos;observer 4
gro@@ 4
citrons 4
détient 4
situation 4
&apos;oreilles 4
dire 4
cerisiers 4
salade 4
dirait 4
sèche-linge 4
moue 4
menuisier 4
tarte 4
longueur 4
lentille 4
poubelles 4
mé 4
poêles 4
Asiatique 4
&apos;assied 4
cireur 4
cirer 4
br@@ 4
mot 4
émerge 4
vision 4
naviguent 4
charbon 4
&apos;information 4
palissade 4
rondins 4
arra@@ 4
pâtisserie 4
manœuvrant 4
message 4
dauphin 4
chèvres 4
crier 4
pâtisseries 4
légume 4
treillis 4
&apos;adresse 4
marrons 4
&apos;épice 4
actuellement 4
projection 4
&apos;outils 4
brû@@ 4
sous-marine 4
dressée 4
&apos;ouvrir 4
iers 4
traînée 4
&apos;arrêt 4
beignets 4
mixte 4
aison 4
tronçon 4
lent 4
célébrant 4
Los 4
Angeles 4
penchées 4
étui 4
coupé 4
choisissent 4
glissière 4
Volkswagen 4
lambeaux 4
trie 4
tricote 4
télé 4
embrasser 4
voyagent 4
bavardent 4
tomate 4
dégu@@ 4
sciant 4
embrassé 4
kilts 4
flâne 4
tou@@ 4
pent 4
médailles 4
prestation 4
fermé 4
cop@@ 4
allumée 4
solo 4
gesticule 4
complètement 4
commandes 4
estomac 4
cuve 4
gal@@ 4
Mickey 4
blé 4
cargo 4
fitness 4
Cafe 4
caressent 4
In@@ 4
luxe 4
synthétiseur 4
embarcation 4
disposés 4
déjeunent 4
êt@@ 4
domicile 4
bannières 4
agréable 4
henné 4
ustensiles 4
diplômé 4
bringé 4
pneumatique 4
pluvieuse 4
enneigés 4
flag 4
ulant 4
&apos;escalator 4
recouverts 4
archet 4
arc 4
&apos;estomac 4
squelette 4
musulmans 4
marelle 4
deltaplane 4
&apos;appar@@ 4
identique 4
ballot 4
transpor@@ 4
agriculteur 4
verticale 4
&apos;éclabou@@ 4
frontale 4
caméraman 4
rideau 4
observé 4
gag@@ 4
marais 4
étagères 4
faucon 4
décontractées 4
musicales 4
cuivre 4
mètres 4
suivie 4
trottinettes 4
chaudement 4
liv@@ 4
country 4
période 4
&apos;au@@ 4
coq 4
fûts 4
glissent 4
dépose 4
récoltes 4
pole 4
cagoule 4
séminaire 4
hippodrome 4
panoramique 4
photographiés 4
der 4
gra@@ 4
top 4
quée 4
fillette 4
let@@ 4
ve@@ 4
patrouille 4
pes 4
scientifiques 4
pavillon 4
Joe 4
store 4
crue 4
assortis 4
sujet 4
ter@@ 4
uses 4
ards 4
poign@@ 4
bordures 4
peine 4
escarpée 4
féminine 4
meu@@ 4
européen 4
vendus 4
tein@@ 4
tournoyer 4
voiliers 4
accompagnée 4
lama 4
dis 4
exposant 4
fixe 4
beauté 4
osier 4
situe 4
latine 4
couteaux 4
seurs 4
parties 4
&apos;ordinateurs 4
voû@@ 4
trait 4
mères 4
rambardes 4
levées 4
vo@@ 4
décapotable 4
joyeuses 4
&apos;occu@@ 4
per 4
carrés 4
télé@@ 4
attente 4
attention 4
restent 4
&apos;ouverture 4
&apos;Indiens 4
arbitres 4
couronne 4
tier 4
souffre 4
isse 4
roulé 4
&apos;installer 4
lycéens 4
fixes 4
marécage 4
bé@@ 4
couches 4
appartenant 4
manœuv@@ 4
ré 4
M 4
rebondir 4
obèse 4
seniors 4
iles 4
divertit 4
ollie 4
pelucheux 4
versent 4
rap@@ 4
arborant 4
masqué 4
gamins 4
cool 4
accrochée 4
règle 4
impressionnant 4
béquilles 4
baguette 4
éclabousse 4
ensoleillé 4
&apos;E@@ 4
recevoir 4
canon 4
disent 4
rant 4
percute 4
tribal 4
rameurs 4
sweat-shirts 4
smokings 4
réno@@ 4
pouvez 4
stant 4
pl@@ 4
goûte 4
chinoise 4
protestation 4
ot@@ 4
quent 4
ombragée 4
moquette 4
èle 4
bandes 4
électricien 4
aérosol 4
enfon@@ 4
cer 4
Indiens 4
découpé 4
&apos;apparence 4
pinces 4
reur 4
annonce 4
lé 4
caricature 4
gues 4
laissant 4
gay 4
carré 4
nues 4
cavalière 4
rapporte 4
&apos;équitation 4
penchés 4
natte 4
relié 4
apprennent 4
ance 4
spectaculaire 4
Ha@@ 4
géants 4
bétonnière 4
veut 4
sauvages 4
kayakistes 4
nés 4
et@@ 4
relaxant 4
explosion 4
informatique 4
chau@@ 4
so@@ 4
occupations 4
chevalier 4
slide 4
Bull 4
défen@@ 4
gla@@ 4
commerçant 4
cœurs 4
&apos;échap@@ 4
Indien 4
O 4
troupeau 4
objectif 4
Park 4
créature 4
piè@@ 4
hurlant 4
téléphoniques 4
britannique 4
puzzle 4
T 4
rituelle 4
pédalo 4
ents 4
gravir 4
placées 4
plâtre 4
argile 4
triant 4
amus@@ 4
enfonçant 4
enlace 4
commander 4
marcheurs 4
chewing-gum 4
charpente 4
pavés 4
muselé 4
couronnes 4
étend 4
diaporama 4
bongos 4
accélère 4
enregistreuse 4
ball 4
pirates 4
poches 4
ras 4
carriole 4
retiré 4
inachevé 4
interro@@ 4
&apos;intéressant 4
sin@@ 4
dée 4
mignon 4
tutus 4
semi-@@ 4
chaton 4
punk 4
aspirateur 4
balayer 4
soin 4
Yamaha 4
atterri 4
ballots 4
spa 4
st@@ 4
tor@@ 4
chon 4
transparente 4
élasthanne 4
randonneuse 4
terminant 4
paintball 4
&apos;ouvrier 4
vant 4
nie 4
bouleversé 4
Nou@@ 4
couchant 4
&apos;envole 4
ping-pong 4
invités 4
Po@@ 4
sauveteurs 4
bousculent 4
ferry 4
amarré 4
triangle 4
muselières 4
gigantesque 4
Vegas 4
trébuche 4
en-@@ 4
cross 4
ête 4
taxis 4
éparpillés 4
couturière 4
cli@@ 4
lunette 4
ratisse 4
&apos;UNICEF 4
entre@@ 4
&apos;écrase 4
survêtements 4
autochtones 4
&apos;am@@ 4
papillons 4
éli@@ 4
tendu 4
agitée 4
plongent 4
box 4
iti@@ 4
ades 4
décorative 4
tout-petits 4
billet 4
soulèvent 4
penchent 4
accrochant 4
erie 4
artificiel 4
pinçant 4
catch 4
ver 4
lay-up 4
bouts 4
ab@@ 4
quatrième 4
accidenté 4
skier 4
clés 4
Twister 4
&apos;événement 4
divertir 4
portière 4
isé 4
&apos;enregistrement 4
cs 4
gorge 4
bit@@ 4
Africa@@ 4
cravates 4
caractères 4
clous 4
défenseurs 4
dent 4
sumo 4
éle@@ 4
tam-tam 4
enlaçant 4
snowboardeurs 4
interviewe 4
cygne 4
mordant 4
pop-corn 4
ière 4
bloqué 4
coiffeuse 4
heure 4
câlins 4
croisière 4
ique 4
&apos;ense@@ 4
&apos;entrer 4
agriculteurs 4
déployées 4
attachées 4
parachutes 4
réaliser 4
cow-girl 4
éclairées 4
sculptant 4
lourd 4
sexy 4
oeuvres 4
man 4
tunique 4
athlétique 4
retrou@@ 4
poncho 4
stes 4
&apos;échauffant 4
abandonné 4
motoneige 4
vallonné 4
&apos;éponge 4
botte 4
lanterne 4
larges 4
orangé 4
santé 4
jaillit 4
pon@@ 4
trompettiste 4
demandant 4
&apos;échelle 4
bosse 4
concurrent 4
combattants 4
ficelle 4
&apos;approchent 4
enlevé 4
matin 4
cygnes 4
acrobatiques 4
protections 4
cuvette 4
perruques 4
&apos;enla@@ 4
informations 4
trouble 4
cornets 4
ô@@ 4
Fi@@ 4
sme 4
sirène 4
séchant 4
&apos;appelle 4
glacière 4
pieuvre 4
Ford 4
&apos;ultimate 4
élévatrice 4
ongle 4
tenus 4
occupées 4
dalle 4
blement 4
publics 4
politique 4
traditionnelles 4
bitume 4
tiges 4
en-cas 4
mûr 4
majestu@@ 4
vel 4
saluer 4
concierge 4
interdit 4
vitrées 4
50 4
dure 4
mule 4
colle 4
boucherie 4
pellettent 4
assembl@@ 4
dons 4
ssée 4
lave-vaisselle 4
album 4
oli@@ 4
igner 4
ences 4
foncées 4
appel 4
contravention 4
dance 4
opposées 4
fesses 4
zébré 4
déli@@ 4
&apos;ours 4
racines 4
stationnée 4
Japon@@ 4
intitulé 4
balcons 4
ctions 4
niveaux 4
photographiant 4
pompes 4
vement 4
textos 4
crochet 4
automatiques 4
fixement 4
J@@ 4
mon 4
charcuterie 4
h@@ 4
carrefour 4
douce 4
déjeunant 4
Chinois 4
gothique 4
décollant 4
Oh 4
piliers 4
7 4
disputant 4
drainage 4
transparent 4
rayons 4
chargent 4
avions 4
activement 4
brillent 4
extension 4
bu@@ 4
hippique 4
lutteur 4
j 4
&apos;athlètes 4
mangeoire 4
système 3
lentement 3
sau@@ 3
auquel 3
importante 3
tatouer 3
tu 3
fourgon 3
do 3
bûche 3
dépasse 3
réchaud 3
voyageur 3
percer 3
molle 3
directement 3
haricots 3
car 3
guerrier 3
serrer 3
communique 3
conduite 3
allumer 3
den@@ 3
assemble 3
positionne 3
antique 3
ph@@ 3
moto@@ 3
retournent 3
pleurant 3
étal@@ 3
opposée 3
retient 3
Light 3
grenouille 3
graines 3
cam@@ 3
peur 3
flotteurs 3
menuiserie 3
manuels 3
mallette 3
&apos;algues 3
lits 3
lesquels 3
&apos;assoient 3
fer@@ 3
porcs 3
cacher 3
échappe 3
chiffons 3
raconte 3
propriété 3
doucement 3
ël 3
sécuri@@ 3
to@@ 3
présen@@ 3
joyeux 3
exhibant 3
verdoyantes 3
bâches 3
lins 3
revenant 3
alentours 3
onniers 3
pilot@@ 3
Terrier 3
couettes 3
cousant 3
boutiques 3
pendu 3
inées 3
ole 3
balancelle 3
abon@@ 3
suçant 3
rembourré 3
pratiquer 3
mélangent 3
karaoké 3
cages 3
réfrigérateur 3
important 3
steak 3
employées 3
mê@@ 3
bagarre 3
dres 3
tartan 3
oc@@ 3
interview@@ 3
12 3
pastèque 3
présentant 3
cteur 3
feuillage 3
cyclable 3
estrade 3
Ne@@ 3
pè@@ 3
dr@@ 3
rendre 3
éponge 3
blessée 3
&apos;usine 3
ignon 3
brochettes 3
barbote 3
élè@@ 3
réag@@ 3
mani@@ 3
profondément 3
patin@@ 3
mélanger 3
baissant 3
ton@@ 3
&apos;étudier 3
rière 3
&apos;attra@@ 3
clo@@ 3
tami@@ 3
seur 3
cente 3
accla@@ 3
sabre 3
touché 3
race 3
verti@@ 3
plantés 3
lotte 3
bordés 3
drapée 3
désordonné 3
demi-@@ 3
panda 3
torse-nu 3
mu@@ 3
mini-jupe 3
asper@@ 3
piqueur 3
surplomb 3
avant-bras 3
pains 3
ous 3
assisent 3
couchage 3
grou@@ 3
servis 3
&apos;œuvre 3
mannequins 3
gosse 3
diplôme 3
tures 3
Angels 3
entée 3
aérien 3
&apos;op@@ 3
mégaphone 3
fléchettes 3
tel@@ 3
&apos;alpiniste 3
Mère 3
artisanal 3
camarades 3
étiquettes 3
pom@@ 3
illée 3
émission 3
nombres 3
0 3
bavarder 3
bergers 3
allemands 3
poignées 3
réser@@ 3
skater 3
pic 3
miroirs 3
moi 3
motocyclette 3
tricycles 3
préféré 3
convention 3
Ru@@ 3
technicien 3
chuchote 3
imprimée 3
&apos;éto@@ 3
déformée 3
tur@@ 3
propane 3
échelles 3
bijouterie 3
rép@@ 3
tee-shirt 3
coiffer 3
partenaire 3
ç@@ 3
soudeur 3
mi-@@ 3
truelle 3
ffe@@ 3
pâ@@ 3
correctement 3
ley 3
comique 3
mécanicien 3
seuls 3
facteur 3
idiot 3
excitant 3
rebondit 3
pan@@ 3
&apos;ancien 3
èrement 3
attenti@@ 3
Café 3
acheteurs 3
lées 3
compét@@ 3
appar@@ 3
lut@@ 3
merve@@ 3
loterie 3
ises 3
grès 3
séparées 3
&apos;écouter 3
tal 3
&apos;écol@@ 3
onnaire 3
&apos;antiquités 3
chœur 3
trottant 3
Frisbee 3
illante 3
&apos;agenou@@ 3
orientaux 3
domin@@ 3
colley 3
assorti 3
écolier 3
lame 3
fleuris 3
&apos;ennu@@ 3
spir@@ 3
cause 3
récepti@@ 3
plaques 3
mosaïque 3
mendiant 3
dynamique 3
dojo 3
anim@@ 3
masculin 3
soudage 3
bongo 3
fausse 3
ant@@ 3
entrelacés 3
cornemuses 3
Toyota 3
sèche-cheveux 3
propriétaires 3
agrippe 3
équilibré 3
Mor@@ 3
Cor@@ 3
p 3
atives 3
dentiste 3
aine 3
observer 3
enterré 3
déroulent 3
coiffée 3
Jeep 3
cortège 3
bénévoles 3
ys 3
U@@ 3
aspergé 3
&apos;avent@@ 3
flotteur 3
palourdes 3
form@@ 3
alités 3
Mouse 3
bout@@ 3
onnées 3
Pizza 3
St. 3
Bur@@ 3
&apos;inspiration 3
traîne 3
pages 3
conver@@ 3
attrapé 3
renvoyer 3
rondin 3
cté 3
lages 3
commerçante 3
évènement 3
viol@@ 3
atrice 3
shampooing 3
soufflent 3
aff@@ 3
û@@ 3
baille 3
casseroles 3
fermée 3
&apos;unisson 3
manie 3
renversée 3
&apos;arrêtant 3
pelage 3
bondissant 3
util@@ 3
and@@ 3
fabriqué 3
elle-même 3
expérimenté 3
di 3
clairière 3
séduisante 3
anti@@ 3
tale 3
mass@@ 3
ien 3
Col@@ 3
brassière 3
délicieuse 3
parachutiste 3
déployé 3
un@@ 3
tricoter 3
tension 3
sépar@@ 3
&apos;élan@@ 3
inclinée 3
achet@@ 3
mordillant 3
inant 3
couette 3
&apos;accrochent 3
déchaî@@ 3
propose 3
sodas 3
dépanneuse 3
tain 3
poings 3
USA 3
machette 3
atterrissant 3
tournent 3
crocodile 3
&apos;entraîneur 3
recule 3
mètre 3
nant 3
défile 3
témoin 3
positi@@ 3
onner 3
pagne 3
récupérant 3
dessinent 3
chapelet 3
gén@@ 3
balaye 3
incurvée 3
mare 3
dos-nu 3
fougères 3
harmonica 3
colorier 3
cupcake 3
voix 3
latex 3
délabrée 3
atif 3
sculpté 3
WC 3
technologie 3
caissière 3
maçonnerie 3
aéri@@ 3
rentrant 3
marécageuse 3
assemblée 3
tapote 3
occupé 3
son@@ 3
ore 3
&apos;état 3
profiter 3
chalet 3
chasser 3
vre 3
Company 3
joliment 3
moy@@ 3
atta@@ 3
Market 3
iser 3
carrelée 3
terminent 3
angle 3
intrigué 3
caddies 3
ave 3
enchaî@@ 3
ey@@ 3
Américain 3
&apos;assoit 3
pataugent 3
mâle 3
me@@ 3
tre 3
fix@@ 3
formé 3
vapeur 3
Mike 3
Hu@@ 3
soucoupe 3
dessert 3
bre@@ 3
parka 3
conditions 3
&apos;exprime 3
raides 3
palais 3
bil@@ 3
terie 3
compétences 3
trait@@ 3
sablonneuse 3
paysager 3
orage 3
visit@@ 3
déneiger 3
châ@@ 3
donc 3
quais 3
Guitar 3
Hero 3
Wii 3
eu 3
dînent 3
étrangère 3
maquiller 3
arrangeant 3
hirsute 3
pliant 3
boa 3
jonché 3
communi@@ 3
chanteurs 3
longe 3
colori@@ 3
&apos;alimentation 3
chet 3
allumées 3
jazz 3
Pe@@ 3
pourchassent 3
chal@@ 3
battue 3
anges 3
anneaux 3
mixeur 3
pataugeant 3
trient 3
moto-cross 3
ascen@@ 3
espagnole 3
mi-hauteur 3
orgue 3
Lego 3
&apos;assurer 3
vois 3
enregistr@@ 3
pompe 3
supports 3
fouillant 3
ables 3
tière 3
accomplissant 3
ordinaire 3
soigne 3
patiemment 3
bérets 3
ign@@ 3
Mon@@ 3
récipients 3
remplir 3
cruche 3
décou@@ 3
ouvertes 3
tournevis 3
ide 3
iques 3
opposé 3
trucs 3
éla@@ 3
devoirs 3
toilette 3
lecture 3
bâ@@ 3
cueillant 3
vins 3
printemps 3
au-dessous 3
désarçonner 3
&apos;anneaux 3
lier 3
inachevée 3
meilleure 3
&apos;Oklahoma 3
avancer 3
dépasser 3
ceux 3
plaquent 3
voi 3
&apos;étirant 3
pointu 3
quotidien 3
uniquement 3
léger 3
fast 3
relle 3
&apos;où 3
aube 3
chambres 3
sauce 3
lecteur 3
lage 3
auditi@@ 3
oies 3
ti 3
artisan 3
distribue 3
prospectus 3
bulldog 3
hé@@ 3
sif 3
massues 3
barbelée 3
Ja@@ 3
&apos;Afrique 3
capitaine 3
Grand 3
Li@@ 3
tendues 3
choix 3
insolite 3
sponsorisé 3
moque 3
répond 3
étranges 3
E 3
primaire 3
contractant 3
muscles 3
tendent 3
&apos;aviron 3
médiéval 3
tissage 3
explo@@ 3
physique 3
écu@@ 3
pu@@ 3
jardin@@ 3
élé@@ 3
parent 3
râteau 3
&apos;écr@@ 3
Ma@@ 3
rampant 3
sirote 3
écrivent 3
vivement 3
P 3
réfléchissantes 3
épi 3
arrêtés 3
social 3
piqu@@ 3
paissent 3
&apos;éviter 3
cachent 3
serrée 3
frisée 3
flic 3
ties 3
pompons 3
ferroviaire 3
Ken@@ 3
ade 3
tranchée 3
locaux 3
Kitty 3
mérindiens 3
cierges 3
magiques 3
grillades 3
dis@@ 3
Lea@@ 3
frénétiquement 3
Bank 3
percussions 3
conserves 3
profil 3
déroule 3
spagne 3
tres 3
ble@@ 3
pingouin 3
Américains 3
forte 3
piercings 3
looping 3
mit@@ 3
planeur 3
postérieur 3
arrange 3
écolière 3
Coney 3
Island 3
descen@@ 3
simultanément 3
sandale 3
secs 3
identifi@@ 3
carnet 3
lei 3
tées 3
seins 3
occupée 3
bambous 3
plastron 3
marie 3
flamboyant 3
all@@ 3
dindes 3
stéthoscope 3
sirotant 3
canine 3
mécanique 3
rocailleuse 3
étreinte 3
touffue 3
capes 3
&apos;impression 3
iste 3
parcelle 3
souche 3
éré 3
cookies 3
zombie 3
collie 3
liste 3
lois 3
tourno@@ 3
appréci@@ 3
enfonce 3
volante 3
grave 3
tis 3
piétiné 3
frappeur 3
&apos;acheteurs 3
expert 3
gui@@ 3
hom@@ 3
étrangers 3
parallèlement 3
sons 3
ponce 3
pourrait 3
pataugeoire 3
coquillages 3
frite 3
&apos;avertissement 3
tablette 3
dirigés 3
exercice 3
IG@@ 3
dôme 3
boutonnée 3
beagle 3
décident 3
comm@@ 3
détourne 3
Su@@ 3
Cola 3
Bra@@ 3
cre@@ 3
vé 3
AI@@ 3
décider 3
basculer 3
croupier 3
sari 3
céramique 3
espèce 3
clairement 3
inconnu 3
frappés 3
ébouriffés 3
bunker 3
escabeau 3
chées 3
extrémités 3
pass@@ 3
attire 3
robuste 3
dement 3
paperasse 3
dressent 3
rangs 3
ombragé 3
originaire 3
ssées 3
&apos;enlacent 3
poster 3
champignon 3
difficile 3
nouvelles 3
teckel 3
maillet 3
orientales 3
laveur 3
autocollants 3
meute 3
note 3
dégonflé 3
retrouve 3
caleçon 3
test 3
semi-remorque 3
grand-mère 3
passion 3
fraise 3
flaques 3
ton 3
regardés 3
menus 3
diver@@ 3
animées 3
véranda 3
immergé 3
étiquette 3
side-car 3
deurs 3
méditant 3
corce 3
pasteur 3
entoure 3
taillés 3
encourage 3
coussins 3
gs 3
design 3
grignote 3
&apos;affronter 3
distribuant 3
ond@@ 3
repos 3
&apos;atterrissage 3
effrayée 3
présentent 3
prépar@@ 3
pressent 3
gère 3
sauna 3
bouchée 3
amoureux 3
préparation 3
index 3
dés 3
moulants 3
métallurgiste 3
promouvant 3
&apos;allonge 3
scout 3
frustré 3
buggy 3
Boy 3
étals 3
publicitaires 3
&apos;arène 3
Power@@ 3
percu@@ 3
gardes 3
grains 3
élégants 3
porte-voix 3
lampadaires 3
empile 3
arrêtant 3
huttes 3
cahiers 3
divan 3
récupéré 3
vote 3
tard 3
classiques 3
ordinaires 3
sanitaires 3
folle 3
fournitures 3
turbans 3
maquillées 3
saisir 3
&apos;alignent 3
couvrir 3
effets 3
accorde 3
surfent 3
sel 3
manque 3
limonade 3
umé 3
récoltent 3
flous 3
Las 3
regroupées 3
onnent 3
monster 3
bla@@ 3
&apos;entourent 3
&apos;activités 3
éparpillées 3
sketch 3
amicale 3
concourent 3
tasses 3
anti-émeute 3
retournée 3
&apos;appuient 3
dérape 3
référence 3
ov@@ 3
provisions 3
&apos;ef@@ 3
force 3
crânes 3
N 3
temporaire 3
bro@@ 3
sortis 3
terrier 3
équipage 3
Golden 3
biche 3
patinage 3
cupcakes 3
cachant 3
sportifs 3
comprenant 3
cierge 3
apparaît 3
franges 3
lancés 3
x@@ 3
déballant 3
ands 3
drible 3
lu@@ 3
Story 3
ukulélé 3
explorant 3
Pâques 3
accélérant 3
voilées 3
ène 3
velu 3
ado 3
interagissant 3
placent 3
Ju@@ 3
abandonnée 3
stroboscopiques 3
varech 3
arides 3
trio 3
enflammé 3
autel 3
rouillé 3
contemplant 3
stal@@ 3
galope 3
sinistre 3
limousine 3
protégée 3
rement 3
congrès 3
attendre 3
escrimeurs 3
peintures 3
porte-bébé 3
recherche 3
shoot 3
centaines 3
contrôler 3
collision 3
&apos;occasion 3
suspendues 3
guirlandes 3
médiévaux 3
défendent 3
mosquée 3
conique 3
juge 3
BMW 3
chargée 3
châles 3
bacs 3
beurre 3
&apos;â@@ 3
magicien 3
&apos;endroit 3
poignets 3
neigeux 3
cadres 3
trapèze 3
détendre 3
bases 3
&apos;essence 3
attachant 3
ascenseur 3
détournant 3
antage 3
saumon 3
&apos;emp@@ 3
ajuster 3
cirant 3
poker 3
smasher 3
fac@@ 3
troupe 3
suis 3
vérifier 3
putt 3
Mets 3
visée 3
sty@@ 3
ur 3
commerciale 3
éclaboussée 3
déguiser 3
&apos;encouragent 3
volaille 3
peigne 3
mouche 3
&apos;affiche 3
Challenge 3
gement 3
employée 3
eries 3
décoratif 3
recouvertes 3
ignent 3
&apos;arch@@ 3
graphique 3
&apos;écla@@ 3
bal 3
désordre 3
showgirl 3
lâché 3
commerce 3
célébrer 3
24 3
sous-marin 3
équestre 3
fourre 3
classeur 3
ul@@ 3
athlétiques 3
lancée 3
multiples 3
&apos;écharpe 3
&apos;aviateur 3
bowl 3
feuillages 3
liesse 3
perd 3
brasse 3
échiquier 3
appuyant 3
moulante 3
alisé 3
aises 3
Jésus 3
hôtesse 3
&apos;adversaire 3
explorateur 3
cowboys 3
goudronnée 3
impressi@@ 3
déneige 3
sangle 3
habit 3
sè@@ 3
bouleversée 3
tours 3
rand@@ 3
dépla@@ 3
aéro@@ 3
danseur 3
rames 3
foncti@@ 3
dînant 3
tabac 3
policière 3
jongleur 3
survole 3
louche 3
Nintendo 3
projette 3
percée 3
finale 3
cerfs 3
troupes 3
arrosage 3
argentés 3
festi@@ 3
maîtri@@ 3
étudient 3
Mac 3
moines 3
surdimensi@@ 3
val@@ 3
opinions 3
amér@@ 3
d-@@ 3
Ex@@ 3
installées 3
clé 3
concentrés 3
bague 3
cass@@ 3
armés 3
assistante 3
replié 3
protecteurs 3
atifs 3
sombrero 3
représente 3
&apos;université 3
prélassent 3
culti@@ 3
journaliste 3
Halloween 3
élégantes 3
Concert 3
marécageux 3
façonne 3
fo@@ 3
fresques 3
réfléchir 3
officiels 3
accueille 3
D 3
dessinées 3
pleins 3
enta@@ 3
chalumeau 3
ados 3
chirurgical 3
couloirs 3
meeting 3
enveloppe 3
ial 3
marathoniens 3
vaquent 3
fe@@ 3
barbelés 3
Patrick 3
gonfl@@ 3
allumé 3
découpés 3
comprend 3
onnement 3
4x4 3
conçu 3
Barbie 3
taire 3
sure 3
&apos;atterrir 3
fièrement 3
déga@@ 3
enir 3
pyjamas 3
&apos;énormes 3
canadiens 3
sonne 3
cé 3
pédales 3
&apos;échauffer 3
matador 3
pendent 3
regardé 3
paquets 3
joggeurs 3
réflexion 3
monture 3
goûtant 3
desserts 3
encadrées 3
NY 3
serre-tête 3
&apos;hu@@ 3
illuminée 3
êtes 3
quette 3
baies 3
brumeux 3
envahi@@ 3
&apos;appro@@ 3
Hollister 3
concentrée 3
pu 3
pick-up 3
Shop 3
impro@@ 3
&apos;entraîner 3
politiques 3
Converse 3
bronzant 3
polaire 3
due 3
formant 3
petite-fille 3
soie 3
écrits 3
pat@@ 3
pal@@ 3
démène 3
agrippant 3
oeuvre 3
rouille 3
pèse 3
crevettes 3
divertissant 3
gri@@ 3
cools 3
scru@@ 3
palmes 3
F 3
état 3
mènent 3
figurines 3
ampli 3
bouilloire 3
V 3
maqu@@ 3
patinant 3
balaient 3
projeté 3
Chinatown 3
Berlin 3
lem@@ 3
médicale 3
visitant 3
familles 3
ser@@ 3
dépassant 3
tournoie 3
simplement 3
savoureux 3
finit 3
confortablement 3
décorant 3
pétrole 3
Dieu 3
Lakers 3
&apos;enlace 3
ouvrir 3
ponchos 3
Bre@@ 3
télécommandé 3
réduit 3
kimono 3
artisanale 3
zombies 3
roulée 3
back 3
armure 3
flamme 3
Vi@@ 3
&apos;éle@@ 3
accessoires 3
symbole 3
mollet 3
brillamment 3
&apos;y 3
Min@@ 3
bronz@@ 3
rir 3
soutenu 3
reportage 3
trou@@ 3
habiller 3
embarquant 3
branchages 3
inhabituel 3
retirer 3
pêché 3
chauffeur 3
tal@@ 3
verdâtre 3
chem@@ 3
oles 3
symboles 3
artisanaux 3
affalé 3
crêpes 3
valeur 3
beach-volley 3
vigoureusement 3
tambourin 3
lune 3
dangereusement 3
T@@ 3
engagées 3
complexes 3
barman 3
centrée 3
inclinable 3
musculation 3
possession 3
catamaran 3
martial 3
judo 3
gie 3
poulies 2
maisonnette 2
suc@@ 2
cake 2
sais 2
urinoir 2
dressé 2
ballage 2
bambins 2
illustr@@ 2
assure 2
ATV 2
jumelle 2
contre-@@ 2
visiblement 2
coucou 2
imposants 2
pelletées 2
ignor@@ 2
fluide 2
le-@@ 2
30 2
tribale 2
samouraï 2
reau 2
tour@@ 2
planchiste 2
talkie-walkie 2
réagissent 2
boulanger 2
pr@@ 2
ineux 2
Dob@@ 2
pissent 2
volkswagen 2
mature 2
toir 2
élicoptère 2
régi@@ 2
audage 2
quat@@ 2
rassemblé 2
approchés 2
flamboy@@ 2
palettes 2
jerrican 2
usement 2
poiv@@ 2
soufflé 2
stable 2
arrivée 2
cardigan 2
mauvais 2
coure 2
orn@@ 2
bizarres 2
jong@@ 2
enflammées 2
GAP 2
Pabst 2
Ribbon 2
tournesol 2
musulmane 2
poirier 2
achève 2
permet 2
brandir 2
bouches 2
fem@@ 2
manu@@ 2
déambulent 2
pay@@ 2
vel@@ 2
vieillard 2
arte 2
pée 2
grillent 2
fourche 2
recue@@ 2
illi 2
bret@@ 2
telles 2
princesse 2
ison 2
manœuvre 2
désordonnée 2
combin@@ 2
exempla@@ 2
MC 2
Fl@@ 2
vingtaine 2
fierté 2
chers 2
derie 2
briser 2
navet@@ 2
précipitent 2
retard 2
pratiquants 2
livrent 2
programmes 2
clairs 2
incl@@ 2
grav@@ 2
cart 2
niche 2
mesur@@ 2
surveillance 2
pique 2
froncent 2
élaboré 2
doubl@@ 2
bouclé 2
enjambe 2
debouts 2
négligemment 2
pi 2
dus 2
néon 2
mongol 2
rée 2
jumping 2
reçoivent 2
baladent 2
cte 2
expérimen@@ 2
plate@@ 2
ulaire 2
chevel@@ 2
chaussette 2
asperger 2
source 2
hors-champ 2
favorite 2
mét@@ 2
saupoudre 2
assaisonn@@ 2
écartées 2
démol@@ 2
emporter 2
version 2
lanche 2
ige 2
traîneaux 2
dou@@ 2
vois@@ 2
up@@ 2
massi@@ 2
concourir 2
isla@@ 2
mique 2
vac@@ 2
captiv@@ 2
soutènement 2
bobine 2
expressi@@ 2
puis@@ 2
fermement 2
bruy@@ 2
bour@@ 2
orageux 2
Che@@ 2
Lou@@ 2
pendante 2
plates 2
déjà 2
aspire 2
viandes 2
Calvin 2
Klein 2
emballage 2
entraîneurs 2
pharmacie 2
cuissardes 2
ots 2
réjou@@ 2
moussant 2
bagar@@ 2
vendeuse 2
ananas 2
attirantes 2
Ku@@ 2
affronte 2
don 2
mauvaise 2
tee-ball 2
croisement 2
baig@@ 2
étirements 2
condu@@ 2
gard 2
œ@@ 2
motocycliste 2
stationnaire 2
voiturette 2
se-@@ 2
rend 2
fatiguée 2
somnol@@ 2
écar@@ 2
YMCA 2
mater@@ 2
nité 2
labou@@ 2
éclabou@@ 2
vidé@@ 2
navigu@@ 2
able 2
citerne 2
chette 2
marte@@ 2
au-@@ 2
dable 2
maquillés 2
sommes 2
tissent 2
manifeste 2
enregistre 2
jam@@ 2
cks 2
démarque 2
symphon@@ 2
musicale 2
ornem@@ 2
effrayé 2
pression 2
courroie 2
gosses 2
lour@@ 2
ethnies 2
gout@@ 2
admirer 2
nourrissent 2
quelle 2
breuvage 2
toast 2
peron 2
domaine 2
difficul@@ 2
dégustation 2
Michigan 2
14 2
Ti@@ 2
presse-@@ 2
aî@@ 2
nonne 2
enroule 2
protester 2
ninja 2
gat@@ 2
anti-incendie 2
tourbill@@ 2
jours 2
crabes 2
Tim 2
tons 2
gondole 2
griffe 2
iner 2
fumé 2
Wheels 2
domine 2
pénètre 2
côtière 2
tricolore 2
structeur 2
Chevrolet 2
gardée 2
rages 2
enfer@@ 2
Gr@@ 2
ande 2
ura@@ 2
yoyo 2
lézard 2
aigrette 2
déterrant 2
arch@@ 2
ologique 2
médit@@ 2
vingt-@@ 2
pendues 2
repasser 2
ramassé 2
pagayer 2
fermant 2
reflète 2
bul@@ 2
entes 2
cher@@ 2
routier 2
&apos;écra@@ 2
grimpeur 2
bâti@@ 2
miner 2
explore 2
tristes 2
accomplissent 2
sushis 2
tiss@@ 2
oire 2
che-@@ 2
sculpter 2
chat@@ 2
vivant 2
poin@@ 2
déta@@ 2
éclairés 2
sac@@ 2
Renaissance 2
tri 2
der@@ 2
ori@@ 2
attirail 2
virevolter 2
attentifs 2
grisonn@@ 2
j@@ 2
indique 2
culture 2
&apos;accro@@ 2
appu@@ 2
grat@@ 2
niveler 2
communautaire 2
portait 2
once 2
cellules 2
san@@ 2
travesti 2
espoir 2
parapente 2
bibelots 2
roge 2
êtes-@@ 2
rasée 2
For@@ 2
planté 2
pénombre 2
tickets 2
punch 2
charriot 2
stronaute 2
alpinisme 2
mesurer 2
elles-mêmes 2
panorama 2
gom@@ 2
mage 2
pré-@@ 2
devez 2
présent 2
répon@@ 2
vot@@ 2
Nes@@ 2
geur 2
golfeurs 2
postales 2
enchevêtrés 2
article 2
meulage 2
protestant 2
humains 2
directeur 2
attaque 2
str@@ 2
Dame 2
France 2
étrangères 2
âge 2
tien 2
rétro@@ 2
viseur 2
récréation 2
surveiller 2
haut-parleur 2
ace 2
for 2
ssurée 2
cen@@ 2
dre@@ 2
rapportant 2
expé@@ 2
diant 2
brumeuse 2
montré 2
épluchant 2
passionnément 2
espagnols 2
communication 2
contreplaqué 2
ka 2
Mohawk 2
vapori@@ 2
ope 2
instru@@ 2
ctri@@ 2
string 2
attend@@ 2
drum 2
sage 2
fle 2
pelucheuse 2
totalement 2
frime 2
vaporisée 2
vétérans 2
ures 2
ino@@ 2
xy@@ 2
extravag@@ 2
passionnés 2
dic@@ 2
Le@@ 2
récréatif 2
envers 2
visiteurs 2
éviter 2
chevilles 2
enterrés 2
bloquant 2
collecte 2
lons 2
cloche 2
ro 2
commémoratif 2
bloquée 2
ôtesse 2
Prin@@ 2
sphères 2
argentées 2
porcel@@ 2
pren@@ 2
berce 2
bloc-notes 2
ternet 2
aspergés 2
Houston 2
maintenant 2
creusée 2
alignée 2
évacuer 2
emball@@ 2
preuve 2
accessoire 2
étudiantes 2
Ar@@ 2
organisé 2
pellet@@ 2
places 2
paires 2
robinet 2
gê@@ 2
&apos;inté@@ 2
ress@@ 2
Green 2
ay 2
besace 2
ceinte 2
harna@@ 2
laveurs 2
croyable 2
Hulk 2
découpent 2
bouchons 2
ménag@@ 2
broussailleuse 2
hirsutes 2
pavant 2
composés 2
Sud-Est 2
ances 2
bidon 2
dissim@@ 2
scier 2
bretzels 2
invit@@ 2
pir@@ 2
snorkeling 2
lointaine 2
patients 2
g-@@ 2
cadet 2
semblables 2
tation 2
cameramen 2
artérielle 2
marteaux 2
A. 2
illons 2
feu@@ 2
embrum@@ 2
cajol@@ 2
eoir 2
burger 2
ocre 2
marines 2
talus 2
affair@@ 2
agissant 2
rapport 2
poudr@@ 2
endommagé 2
promeneur 2
selfie 2
ê@@ 2
récoltés 2
bleue-verte 2
David 2
Puma 2
parti@@ 2
photographique 2
dévisagent 2
rat@@ 2
ill 2
pédestre 2
CD 2
tondue 2
souples 2
fouet@@ 2
tressé 2
placer 2
mesurant 2
transversale 2
égypti@@ 2
ouvrent 2
baignant 2
trottoirs 2
biens 2
excentri@@ 2
maî@@ 2
rets 2
gazeuse 2
Mc@@ 2
ray@@ 2
Pokemon 2
dessus-dessous 2
chamallows 2
examen 2
chamallow 2
inhabitu@@ 2
amas 2
Ang@@ 2
leterre 2
rela@@ 2
marguer@@ 2
survolent 2
rouge-orangé 2
pais 2
scan@@ 2
déblaie 2
beilles 2
arroseurs 2
Snow@@ 2
bondissent 2
Express 2
trême 2
coiff@@ 2
cuisses 2
.@@ 2
parois 2
chassent 2
spaghetti 2
TV 2
routes 2
tiroir 2
genterie 2
&apos;échauff@@ 2
sœurs 2
chevaucher 2
poudreuse 2
tandem 2
mural 2
dédi@@ 2
flèches 2
flo@@ 2
rafraîchissements 2
gouts 2
froufrous 2
mol@@ 2
drapé 2
Groucho 2
Marx 2
sti@@ 2
châtains 2
ennement 2
contrée 2
paddle 2
hoops 2
notre 2
coura@@ 2
igloo 2
Must@@ 2
spé@@ 2
points 2
dressées 2
routine 2
pout@@ 2
descent 2
Chi@@ 2
malheureuse 2
indigène 2
surchargé 2
mû@@ 2
plantent 2
neige@@ 2
bœuf 2
libère 2
chauves 2
térieures 2
irent 2
juif 2
érée 2
cercles 2
issent 2
déser@@ 2
secon@@ 2
débout 2
scient 2
intéressantes 2
hachette 2
soulevées 2
ma@@ 2
réunit 2
inondé 2
sques 2
clôtures 2
faci@@ 2
peintres 2
pet@@ 2
réfugient 2
réaction 2
verglacé 2
gnes 2
euros 2
vais 2
mené 2
lèche-@@ 2
vase 2
échapper 2
caill@@ 2
élaborée 2
transparents 2
soudant 2
espadrilles 2
poignet 2
marient 2
acceptant 2
pingouins 2
sangles 2
relevé 2
excités 2
perroquet 2
familial 2
affrontent 2
humides 2
cristal 2
ressort 2
exploitation 2
étoil@@ 2
prudemment 2
rit@@ 2
haut-parleurs 2
jo@@ 2
gam@@ 2
médias 2
clairsem@@ 2
aiment 2
lit@@ 2
tér@@ 2
battes 2
patrons 2
violonistes 2
mâchant 2
exam@@ 2
iné 2
Sud 2
crois@@ 2
rectangulaire 2
matelassée 2
arrière-@@ 2
unie 2
partent 2
fasciné 2
présence 2
lés 2
entraînée 2
pouss@@ 2
stationnées 2
croise 2
minutieusement 2
cuisin@@ 2
saxophones 2
succès 2
équip@@ 2
Eiffel 2
pliée 2
partici@@ 2
pé 2
session 2
skies 2
allait@@ 2
celle-ci 2
composant 2
questi@@ 2
ons-@@ 2
réponses 2
rendu 2
piolet 2
écrasée 2
Bol@@ 2
débat 2
jarre@@ 2
Olympi@@ 2
ûte 2
No@@ 2
protégeant 2
écossaises 2
écriteau 2
assortie 2
balustrades 2
emmènent 2
fonçant 2
poulie 2
synchronisées 2
débarra@@ 2
distrait 2
ima@@ 2
çon 2
pul@@ 2
tremp@@ 2
réti@@ 2
tiste 2
bizarrement 2
emprun@@ 2
transportent 2
porte-monnaie 2
restaurants 2
tournesols 2
tailleur 2
aborde 2
sweet 2
séqu@@ 2
casqués 2
uré 2
stiques 2
dortoir 2
émer@@ 2
hâ@@ 2
lyc@@ 2
demoiselle 2
charcu@@ 2
pesant 2
cabanon 2
us@@ 2
costumée 2
descendu 2
fonds 2
indic@@ 2
fin@@ 2
féroce 2
zigzaguer 2
western 2
rin@@ 2
crabble 2
émerveillée 2
gazonnée 2
déneigeant 2
anois 2
éler@@ 2
Oklahoma 2
tentative 2
plaqueur 2
gagement 2
différ@@ 2
drement 2
toilet@@ 2
gastronomique 2
élément 2
lissent 2
trajet 2
désa@@ 2
cham@@ 2
promené 2
passoire 2
Castro 2
natu@@ 2
iPhone 2
comportant 2
graviers 2
mug 2
har@@ 2
Broadway 2
audition 2
sière 2
renom@@ 2
journalistes 2
gaufre 2
escargot 2
esp@@ 2
Baltimore 2
aver@@ 2
protège-oreilles 2
organise 2
tracer 2
slalome 2
pit@@ 2
mordent 2
divertissent 2
badges 2
rocker 2
mâ@@ 2
order 2
franchir 2
empruntent 2
cocktail 2
usa@@ 2
détru@@ 2
juché 2
Le 2
Fran@@ 2
moule 2
maritimes 2
parav@@ 2
contre-jour 2
crocs 2
broussa@@ 2
Rai@@ 2
bouddhiste 2
hindou 2
couler 2
ssu 2
courbée 2
posture 2
rés 2
accompag@@ 2
retirant 2
retour 2
marchande 2
impliquées 2
marquant 2
boys 2
aiguilles 2
mobil@@ 2
bidons 2
00@@ 2
hurle 2
costum@@ 2
résille 2
prononce 2
signant 2
éth@@ 2
es-@@ 2
victime 2
découpages 2
lettre 2
familiale 2
punching-ball 2
soignée 2
entraînant 2
horrifié 2
vautour 2
universitaires 2
vivante 2
ferraille 2
accidentée 2
fan@@ 2
rebondissent 2
cheminots 2
échafaud 2
engren@@ 2
industrielle 2
central 2
maintenance 2
Central 2
gli@@ 2
x-@@ 2
cheminot 2
terminus 2
inspect@@ 2
municipaux 2
hydrau@@ 2
amour 2
appelle 2
locomotives 2
inspecteurs 2
teste 2
circuits 2
mode@@ 2
excitée 2
imite 2
vier 2
quit@@ 2
fluore@@ 2
surpris 2
coup@@ 2
enterrant 2
massage 2
retourner 2
chiche-kebab 2
illées 2
coincé 2
sauf 2
gaucher 2
milliers 2
reprenant 2
flot@@ 2
hawaïen 2
arrosoir 2
doise 2
ssure 2
déverse 2
transpire 2
aboient 2
remplies 2
pha@@ 2
sation 2
occi@@ 2
entaux 2
matelassé 2
jumeaux 2
plient 2
audio 2
déménagement 2
illette 2
itu@@ 2
trice 2
aboie 2
aidée 2
dan@@ 2
crient 2
diplômée 2
sen@@ 2
Cyclone 2
contient 2
buste 2
Bar@@ 2
commerci@@ 2
miche 2
informelle 2
pelucheuses 2
mouchoir 2
Segway 2
borde 2
brisant 2
masse 2
En@@ 2
pointent 2
empreintes 2
rier 2
souterraine 2
ge@@ 2
lez 2
onne@@ 2
vivent 2
don@@ 2
frappée 2
pauvreté 2
figurant 2
batt@@ 2
gin 2
maintient 2
flot 2
hibou 2
chassant 2
repasse 2
plie 2
quet 2
répar@@ 2
berline 2
séquoia 2
enlevant 2
suspect 2
rejo@@ 2
fic@@ 2
entraîné 2
flor@@ 2
visant 2
dation 2
sentant 2
cti@@ 2
maladroitement 2
furieux 2
dollar 2
étiqu@@ 2
JA@@ 2
consultent 2
colorant 2
déball@@ 2
claque 2
renver@@ 2
hot 2
alcoolisées 2
étire 2
arrêter 2
aimons 2
trouvé 2
É@@ 2
maracas 2
tambourins 2
respiratoire 2
grillé 2
dam@@ 2
surdimensionné 2
baissé 2
attablés 2
braderie 2
inondée 2
accordé@@ 2
brise 2
continu@@ 2
ruine 2
em 2
noeuds 2
fabriquer 2
muni 2
cin@@ 2
admir@@ 2
me-@@ 2
tirées 2
horizon@@ 2
étreignant 2
obstacles 2
faim 2
mime 2
dirigent 2
embarcadère 2
acrobates 2
perle 2
serpentins 2
attelle 2
décorés 2
désarçonne 2
comp@@ 2
stabil@@ 2
rinçant 2
allum@@ 2
Do 2
farouchement 2
Sesame 2
déprimé 2
sait 2
chercheurs 2
assez 2
ampu@@ 2
retraite 2
échangeant 2
conserve 2
spare 2
lavage 2
pédalent 2
nécessaire 2
longtemps 2
brésili@@ 2
sprinkler 2
taureaux 2
DU 2
UI@@ 2
ensuite 2
quement 2
Seahawks 2
joint 2
mûre 2
moniteurs 2
gravats 2
élevé 2
essu@@ 2
éclatante 2
arrêtées 2
luminaires 2
dense 2
conférenci@@ 2
dépassent 2
popcorn 2
moelleux 2
skimboard 2
orteils 2
cire 2
mamans 2
grind 2
party 2
comesti@@ 2
surplombent 2
vestons 2
étan@@ 2
roi 2
frites 2
bûches 2
pre@@ 2
mières 2
bai@@ 2
trempée 2
ail@@ 2
marionnettes 2
campus 2
ovi@@ 2
fabri@@ 2
Heineken 2
enjam@@ 2
gorgée 2
blou@@ 2
timité 2
otique 2
cultures 2
gau@@ 2
pupitres 2
bré 2
marier 2
liance 2
ruiss@@ 2
larmes 2
sponsorisée 2
flottants 2
montrée 2
boîtier 2
perchiste 2
avi@@ 2
Factory 2
choc 2
uminium 2
biscuits 2
vrai 2
présent@@ 2
tissement 2
ridicules 2
masquant 2
tournés 2
plaçant 2
dix 2
trè@@ 2
break 2
content 2
rapprocher 2
ovale 2
recouvrent 2
éperon 2
coudes 2
plu@@ 2
imperméables 2
2008 2
contrarié 2
ffre 2
gambadent 2
fumier 2
responsable 2
disposée 2
polystyrène 2
jet-ski 2
eté 2
Ca@@ 2
stro@@ 2
sters 2
bermudas 2
dossiers 2
choisi@@ 2
rebondissant 2
Hello 2
production 2
ues 2
rampent 2
ea@@ 2
ltimate 2
récupèrent 2
mordille 2
fir@@ 2
fusée 2
plaisance 2
cole 2
Pri@@ 2
El 2
sols 2
gouvernement 2
sâtre 2
pagaies 2
dirt 2
armures 2
boucliers 2
mobylettes 2
désorienté 2
sombreros 2
tachet@@ 2
pilotage 2
talement 2
servi 2
garniture 2
indigènes 2
chope 2
internet 2
confort 2
Thomas 2
Tank 2
Engine 2
rappro@@ 2
foulée 2
légers 2
rattraper 2
joggeuse 2
démo@@ 2
ffe 2
tremplin 2
trom@@ 2
laitue 2
ssures 2
esqui@@ 2
burritos 2
fini 2
scules 2
boy-@@ 2
grillagée 2
autocollant 2
hisse 2
uniques 2
endommagée 2
déployés 2
veau-Mexique 2
interview 2
mineurs 2
ir@@ 2
gulière 2
ières 2
husky 2
éparse 2
chef-d 2
cibles 2
&apos;assi@@ 2
atte@@ 2
retirée 2
fleuriste 2
réu@@ 2
vaincre 2
Zune 2
spon@@ 2
Samsung 2
eux-mêmes 2
bons 2
retrait 2
arches 2
respectifs 2
manivelle 2
oriente 2
traction 2
défie 2
protestent 2
pare-brise 2
présentes 2
revient 2
bazar 2
caméscope 2
chasseur 2
agressivement 2
enter 2
je@@ 2
Jackson 2
architect@@ 2
réparateur 2
fouiller 2
boisseau 2
gambade 2
accomplir 2
détachés 2
bale@@ 2
World 2
taggée 2
British 2
Airways 2
passagère 2
souterrain 2
décol@@ 2
broché 2
tombées 2
rugbymen 2
traine 2
bandage 2
loup 2
ctique 2
impliquée 2
téri@@ 2
italien 2
ments 2
toits 2
décide 2
poli@@ 2
suspension 2
supérieur 2
bordées 2
rassembler 2
nuances 2
japonaises 2
mur@@ 2
urant 2
post-it 2
chasse-neige 2
piton 2
fêtards 2
rait 2
anciens 2
flan@@ 2
commerces 2
lampes 2
sauver 2
nos 2
écol@@ 2
classes 2
inférieures 2
briga@@ 2
kit 2
scolaires 2
rati@@ 2
aubes 2
pauvres 2
primitif 2
cordon 2
beille 2
brocolis 2
ligator 2
vélotaxi 2
immobilisé 2
DI@@ 2
décollent 2
nap@@ 2
band 2
dirigé 2
pliquant 2
Lincoln 2
Mem@@ 2
racon@@ 2
bobsleigh 2
som@@ 2
brind@@ 2
chauff@@ 2
as@@ 2
agré@@ 2
mentée 2
cide 2
Ret@@ 2
bustes 2
célébration 2
toirs 2
créatifs 2
&apos;él@@ 2
chants 2
puissant 2
sauveteur 2
hispaniques 2
ventil@@ 2
fol@@ 2
relevant 2
Paris 2
réfléchissent 2
crev@@ 2
asses 2
rapporter 2
tr@@ 2
plaisantant 2
trébu@@ 2
notamment 2
préservatifs 2
arr@@ 2
ark 2
Vador 2
skieuse 2
tré@@ 2
mémoire 2
moustaches 2
déguisements 2
go@@ 2
excep@@ 2
taguée 2
râ@@ 2
carabine 2
flocons 2
baladant 2
décoration 2
baigné 2
savonneuse 2
motor@@ 2
abdos 2
Kawasaki 2
ram@@ 2
Enrolling 2
Stones 2
choristes 2
étalant 2
prière 2
McD@@ 2
attaquer 2
finissant 2
perdant 2
légères 2
tricots 2
ére@@ 2
tortillas 2
fraîches 2
faites 2
tribales 2
délabrées 2
onnes 2
deo 2
éventails 2
conce@@ 2
éclaboussé 2
téléphérique 2
bûcheron 2
istes 2
z@@ 2
positions 2
suspen@@ 2
illumine 2
dalmatien 2
Giants 2
sauteur 2
Jim 2
vage 2
sorti 2
héron 2
mmes 2
poitrines 2
eff@@ 2
pyl@@ 2
ône 2
déclaration 2
gardant 2
grim@@ 2
pantes 2
wok 2
ajoutant 2
épic@@ 2
ol@@ 2
ception 2
esplanade 2
colle@@ 2
ctif 2
enter@@ 2
verglacée 2
creux 2
voil@@ 2
tissus 2
démêlent 2
brancard 2
tache 2
démarrent 2
chaume 2
lavande 2
respirer 2
viser 2
urée 2
bourge@@ 2
embarque 2
perman@@ 2
OR@@ 2
OI@@ 2
RE 2
épinglés 2
bocal 2
agra@@ 2
protègent 2
burqa 2
réconforte 2
encadré 2
accro@@ 2
escarpé 2
somptu@@ 2
attaquant 2
Dom@@ 2
luxueux 2
cascadeur 2
risque 2
sein 2
décharge 2
marchands 2
idi@@ 2
négligée 2
emballés 2
ampoules 2
repéré 2
cle@@ 2
ess@@ 2
buanderie 2
pelleter 2
q@@ 2
cactus 2
Power 2
tir@@ 2
neaux 2
teinture 2
K 2
camion-@@ 2
apprendre 2
open 2
snowboards 2
musicienne 2
lou@@ 2
poursuivent 2
femelles 2
capuchon 2
bourse 2
parfaitement 2
lations 2
dispersés 2
tôle 2
Oregon 2
converse 2
tex@@ 2
pianiste 2
flûtes 2
applaudi 2
voltigeur 2
cirque 2
devine 2
impri@@ 2
Not@@ 2
scintillante 2
skateboarder 2
irland@@ 2
remorqueur 2
parallèle 2
bapti@@ 2
prêtes 2
boar@@ 2
ellement 2
stre 2
désespérément 2
rejoindre 2
pau@@ 2
héri@@ 2
are 2
jar@@ 2
geyser 2
Out@@ 2
dressés 2
hal@@ 2
fauve 2
fixer 2
jambières 2
admiration 2
percuté 2
montés 2
demment 2
coéqui@@ 2
final 2
isolé 2
tim@@ 2
intére@@ 2
écouteur 2
Care 2
pélican 2
volée 2
problème 2
fuyant 2
intéress@@ 2
8@@ 2
dossards 2
bracelets 2
checs 2
attrapent 2
bouvillon 2
juive 2
vention 2
los 2
tranquillement 2
P. 2
partitions 2
insecte 2
Ge@@ 2
mine 2
chandelles 2
manife@@ 2
appelée 2
cochon 2
ilité 2
Trader 2
com. 2
illement 2
da 2
maille 2
nourrir 2
tourne-disque 2
braquant 2
half 2
allongent 2
réfugiés 2
pissenlit 2
raffute 2
accélé@@ 2
décolleté 2
dage 2
carro@@ 2
déluge 2
arbuste 2
caden@@ 2
time-lapse 2
détergent 2
itecture 2
auto-@@ 2
tam@@ 2
bri 2
multimédia 2
grand-père 2
raison 2
irage 2
vra@@ 2
nel 2
cé@@ 2
ambré 2
La@@ 2
contorsi@@ 2
FC 2
boxent 2
glacé 2
monticules 2
prélasse 2
faç@@ 2
&apos;équ@@ 2
xe 2
contemplent 2
projets 2
rouet 2
vigno@@ 2
quotidiennes 2
pointée 2
costau@@ 2
meilleur 2
aille 2
parcourt 2
accroupies 2
Pi@@ 2
esti@@ 2
apportent 2
isme 2
intéressante 2
sourires 2
blessures 2
joyeuse 2
consom@@ 2
étu@@ 2
patriotique 2
recyclage 2
prairies 2
locales 2
grange 2
blottissant 2
biber@@ 2
brun@@ 2
friser 2
dom@@ 2
fuite 2
éclat 2
habilement 2
GR@@ 2
feuilletant 2
numéro@@ 2
ajustent 2
Trans@@ 2
aignée 2
heureuses 2
Francisco 2
extatiquement 2
intégral 2
smith 2
terriers 2
ger@@ 2
photographiées 2
bosses 2
débla@@ 2
H 2
ceaux 2
reçu 2
&apos;appart@@ 2
drome 2
ranch 2
raff@@ 2
Pan@@ 2
dramatique 2
cerise 2
atteignant 2
lin 2
fluvi@@ 2
remor@@ 2
mini-golf 2
arroser 2
glaçage 2
sher 2
concevoir 2
grands-parents 2
éclectique 2
allumés 2
embarcations 2
exécu@@ 2
douches 2
déambu@@ 2
habille 2
panache 2
sirop 2
Joker 2
ka@@ 2
entretenue 2
volley@@ 2
Conn@@ 2
one 2
conseils 2
ker 2
arrivé 2
igne 2
lots 2
patrioti@@ 2
show 2
Bill 2
moustiquaire 2
protège-@@ 2
he@@ 2
aliment 2
carafes 2
Fa@@ 2
Hopper 2
hou@@ 2
corgi 2
coloni@@ 2
dragster 2
AH@@ 2
préparée 2
gardez 2
éta@@ 2
experts 2
requ@@ 2
Day 2
chut 2
love 2
green 2
parterre 2
périple 2
American 2
flexi@@ 2
espresso 2
transports 2
MMA 2
neiges 2
aud@@ 2
alis@@ 2
nounou 2
Glam@@ 2
cuillères 2
Ri@@ 2
onnés 2
fre@@ 2
ressembler 2
Mach@@ 2
saxophonistes 2
laisses 2
bilité 2
travailleuses 2
récit@@ 2
caniques 2
passées 2
luxuriant 2
draps 2
Ba@@ 2
regards 2
particulière 2
commandant 2
clinent 2
historiques 2
côtes 2
duel 2
plom@@ 2
délimit@@ 2
opér@@ 2
diplô@@ 2
nid 2
navigant 2
dollars 2
tout-terrain 2
théière 2
mauve 2
gouver@@ 2
quaterback 2
street 2
rembour@@ 2
rage 2
déchargent 2
fl@@ 2
obscène 2
let 2
comptoirs 2
modèles 2
tireuse 2
um@@ 2
photo@@ 2
liner 2
expériences 2
assistants 2
réconfortant 2
anas 2
serrées 2
buffle 2
épuisé 2
tini 2
éteindre 2
soient 2
engagée 2
chauffe 2
cimes 2
orateur 2
rapprochant 2
handicapé 2
nau@@ 2
serv@@ 2
ctant 2
ressources 2
administr@@ 2
bouchant 2
minijupes 2
files 2
fourn@@ 2
cav@@ 2
erne 2
képi 2
festivités 2
stupide 2
câlinant 2
commandent 2
réseau 2
effrayant 2
situ@@ 2
botteur 2
ize 2
épaisseurs 2
entretenant 2
terres 2
agricoles 2
pulvérisent 2
fro@@ 2
issé 2
fixé 2
vies 2
émotion 2
MacBook 2
longueurs 2
spéciale 2
réchauffent 2
éprouvette 2
spinning 2
bant 2
flambeau 2
néerland@@ 2
négocient 2
regardées 2
mathématiques 2
cirage 2
mixer 2
vietnamien 2
furieusement 2
masculins 2
ssionn@@ 2
raté 2
commémor@@ 2
exécutant 2
observateurs 2
organisent 2
assistent 2
jec@@ 2
déroulant 2
Califor@@ 2
veulent 2
manquantes 2
California 2
poursuivi 2
défense 2
éteignent 2
% 2
emballant 2
80 2
dîne 2
&apos;avi@@ 2
sem@@ 2
sérieux 2
cachée 2
illuminées 2
ajoute 2
décore 2
traitement 2
trentaine 2
chou@@ 2
européenne 2
câ@@ 2
asse 2
lav@@ 2
essenti@@ 2
apparaissant 2
Big 2
Ten 2
finissent 2
terminal 2
fles 2
empilant 2
peaux 2
conditi@@ 2
désarç@@ 2
th@@ 2
pénétrer 2
échantillons 2
observation 2
excitation 2
Saint 2
dispar@@ 2
ates 2
laiss@@ 2
garde-fous 2
respectivement 2
cess@@ 2
balayent 2
Business 2
protectri@@ 2
assi@@ 2
rigolo@@ 2
éventuellement 2
assemblent 2
serpillière 2
laisser 2
parachutisme 2
commen@@ 2
emmitouflés 2
Fac@@ 2
privée 2
ambulance 2
apprécier 2
arrosés 2
suce 2
calot 2
parsem@@ 2
brassard 2
envir@@ 2
Sun 2
binette 2
past@@ 2
éen 2
pastel 2
commençant 2
caritatif 2
pique-ni@@ 2
gène 2
faible 2
sour@@ 2
cat@@ 2
LA 2
curling 2
capable 2
miniatures 2
cts 2
I 2
bientôt 2
nar@@ 2
quo@@ 2
pratiquement 2
cheminent 2
z-@@ 2
brûle 2
beffroi 2
horloges 2
coulissante 2
rafraîchissante 2
aujourd 2
console 2
résil 2
sweats 2
visi@@ 2
placé 2
squet 2
corpulents 2
chauds 2
anorak 2
Gap 2
King 2
déneigement 2
La 2
latérale 2
pardessus 2
pâtes 2
urinant 2
distribuent 2
brochures 2
rênes 2
cocher 2
distributeurs 2
renfro@@ 2
sible 2
écr@@ 2
Del@@ 2
gardiens 2
de-@@ 2
poule 2
ités 2
fâchée 2
transporter 2
light 2
leurement 2
tan@@ 2
starting 2
blocks 2
laissent 2
sere@@ 2
passante 2
lib@@ 2
ain@@ 2
renaissance 2
jeudi 2
quel@@ 2
que@@ 2
cation 2
regardée 2
Bo@@ 2
sellés 2
tagué 2
propul@@ 2
pochette 2
autoroute 2
nom@@ 2
retrouvent 2
justice 2
fouillent 2
coiffes 2
offrant 2
Mardi 2
Gras 2
mauves 2
City 2
résidentiel 2
assou@@ 2
fléchette 2
zé@@ 2
présentateur 2
visé 2
énor@@ 2
didgeridoo 2
Pap@@ 2
Johns 2
signal 2
fantaisistes 2
Oxford 2
Circus 2
rat 2
rangeant 2
icain 2
Harlem 2
dier 2
hijab 2
st 2
pâturage 2
Am@@ 2
préci@@ 2
pic@@ 2
retirées 2
acrobate 2
amarrés 2
fez 2
chement 2
fid@@ 2
cales 2
urgentistes 2
mexicains 2
affichent 2
vir@@ 2
Summer 2
Series 2
ning 2
accou@@ 2
sépare 2
triture 2
culminant 2
impressionnante 2
immenses 2
fronce 2
burin 2
identifié 2
manucure 2
isées 2
connaître 2
modeste 2
ornemental 2
Gi@@ 2
sprint 2
blindé 2
dépotoir 2
armées 2
offer@@ 2
coton 2
cloches 2
paysages 2
dentelle 2
bute 2
Morgan 2
lig@@ 2
cardiaque 2
fixée 2
èrent 2
ètres 2
intervention 2
Welcome 2
Indi@@ 2
serrure 2
Ital@@ 2
mini-@@ 2
Cadillac 2
fument 2
douzaine 2
humoristique 2
ango@@ 2
irrité 2
liques 2
amphithéâtre 2
jointes 2
agenouillées 2
Swiffer 2
chs 2
chets 2
Garden 2
impériale 2
croque 2
garde-à-vous 2
lon@@ 2
rédigeant 2
secouriste 2
scope 2
maquilleuse 2
goû@@ 2
mixe 2
Bron@@ 2
Komo@@ 2
horrible 2
senti@@ 2
médi@@ 2
internationaux 2
parcourent 2
diplômes 2
fig@@ 2
illuminent 2
minijupe 2
intitulée 2
pollution 2
Vikings 2
agité 2
cultivent 2
interviennent 2
confus 2
concentr@@ 2
vide-grenier 2
Canada 2
gravant 2
harnaché 2
solaire 2
rédu@@ 2
reconstitution 2
tuniques 2
sp@@ 2
quasiment 2
vé@@ 2
rable 2
diabolo 2
canapés 2
emmenant 2
fêtent 2
Chan@@ 2
chimique 2
latino 2
tailles 2
ondulés 2
ulé 2
porte-vélos 2
floraux 2
multitude 2
East 2
Side 2
Hotel 2
afro 2
bleu@@ 2
niques 2
globe 2
franchi@@ 2
avis 2
siro@@ 2
équipée 2
portu@@ 2
bandanas 2
remu@@ 2
Coffee 2
violence 2
atterrissage 2
éjectée 2
Wonder 2
retour@@ 2
récoltant 2
sandwiches 2
allument 2
fasc@@ 2
carrée 2
grincheux 2
bronzée 2
boy 2
élo@@ 2
illeux 2
super-héros 2
splendi@@ 2
Louvre 2
flottante 2
circulaires 2
Mad@@ 2
hayon 2
nonchalamment 2
queues 2
&apos;affi@@ 2
poméranien 2
désolé 2
tissée 2
pette 2
frères 2
éner@@ 2
énergiquement 2
cueillent 2
Radio 2
snack 2
dirigée 2
saxophoniste 2
bés 2
représent@@ 2
déménager 2
géométrique 2
majeur 2
bouées 2
reakdance 2
photomaton 2
jaillissent 2
gas 2
concernant 2
créateur 2
compartiment 2
douleur 2
chatou@@ 2
geisha 2
rétro-projecteur 2
paysagistes 2
ventée 2
métro@@ 2
pourtant 2
abstra@@ 2
matière 2
bride 2
florales 2
supérette 2
South 2
immobiles 2
tourisme 2
Penn 2
free@@ 2
renverser 2
thème 2
manifestent 2
choisit 2
parcmètre 2
clairsemés 2
est-ce 2
sère 2
ss 2
Life 2
rédi@@ 2
umée 2
jacuzzi 2
confi@@ 2
abattu 2
principal 2
phal@@ 2
laser 2
Den@@ 2
sci@@ 2
préparé 2
affron@@ 2
cendrier 2
supervisé 2
far@@ 2
aventureux 2
escalators 2
explorent 2
ède 2
wing 2
quettes 2
neau 2
edex 2
Sol@@ 2
poteries 2
baquet 2
Space 2
Needle 2
labourant 2
pelotes 2
termin@@ 2
destin@@ 2
appuie 2
major@@ 2
lancer-franc 2
Salut 2
couvercles 2
k-@@ 2
édifice 2
basique 2
plaisanciers 2
arri@@ 2
musclée 2
minutieuse 2
hipsters 2
cowgirl 2
établi 2
sinueux 2
bustier 2
guident 2
courrier 2
demand@@ 2
lance-pierre 2
joggeur 2
ple@@ 2
uve 2
second 2
vén@@ 2
trem@@ 2
pétri@@ 2
cariole 2
rembarde 2
péniblement 2
rées 2
gamelle 2
patrouillent 2
board 2
déploie 2
brouettes 2
casiers 2
onnaires 2
acc@@ 2
lances 2
enlèvent 2
rôle 2
broyeuse 2
institut 2
extraire 2
complète 2
tantes 2
cinéma 2
lèvre 2
emple 2
couvrent 2
38 2
arriver 2
vienno@@ 2
origines 2
enti@@ 2
intégralement 2
cuivres 2
positionné 2
11 2
paresse 2
oper 2
incroya@@ 2
vieillotte 2
Ohio 2
insen@@ 2
insectes 2
00 2
Mo@@ 2
bécher 2
colorient 2
entretient 2
chimie 2
transformant 2
préf@@ 2
encoura@@ 2
sive 2
urance 2
Yankees 2
Orioles 2
galop 2
intégrales 2
secré@@ 2
défendant 2
distribuer 2
63 2
amateur 2
remontant 2
ymne 2
Minnesota 2
écartant 2
&apos;as@@ 2
class@@ 2
Iowa 2
contrecœur 2
bouquetière 2
rai 2
mélangé 2
manipu@@ 2
méda@@ 2
éclabousser 2
aron 2
Rodgers 2
féminines 2
fres 2
iPad 2
butte 2
remporter 2
mariachi 2
grimaçant 2
jaun@@ 2
che@@ 2
dribbler 2
kickboxer 2
instant 2
arcs 2
sité 2
containers 2
ut@@ 2
frot@@ 2
soins 2
comble 2
patineuses 2
cit@@ 2
extrêmement 2
gouttes 2
culturel 2
carrées 2
chemins 2
Roller 2
Derby 2
rugbyman 2
engagent 2
rebon@@ 2
pil@@ 2
oise 2
barbier 2
batiment 2
dunk 2
incroyable 2
Oakland 2
approchent 2
continue 2
immobil@@ 2
matériaux 2
isée 2
signi@@ 2
rom@@ 2
fais 2
téléviseur 2
karts 2
entraînent 2
Canyon 2
biste 2
stin@@ 2
perches 2
dossier 2
sexe 2
tribaux 2
souff@@ 2
pouvons 2
réconforter 2
éologues 2
flexible 2
envahi 2
tartes 2
joignant 2
net 2
soudent 2
swing 2
filment 2
staff 2
LeBron 2
James 2
russe 2
montée 2
acrobatique 2
tracé 2
paralympiques 2
leader 2
impatience 2
antaine 2
sév@@ 2
oreillette 2
... 2
hang 2
costume-cravate 2
reni@@ 2
claires 2
microphones 2
&apos;exer@@ 2
avertisseur 2
tar@@ 2
illettes 2
mail@@ 2
caissier 2
bavardant 2
nationale 2
ssante 2
fle@@ 2
NOTHING 2
canots 2
déguisement 2
pagode 2
renard 2
défer@@ 2
épar@@ 2
rougeâtre 2
cad@@ 1
poudre@@ 1
bundt 1
Just@@ 1
Bi@@ 1
eber 1
ameCube 1
picnic 1
won@@ 1
pics 1
spect@@ 1
collage 1
erman 1
&apos;accrou@@ 1
beetle 1
cils 1
onal 1
atter@@ 1
écha@@ 1
ze 1
diner 1
corsage 1
rons 1
chaine 1
out 1
Th@@ 1
ree 1
lateur 1
funky 1
spiration 1
hamburger 1
Walkman 1
q 1
guise 1
shish 1
kebab 1
dinosau@@ 1
ce-@@ 1
cules 1
orida 1
culin@@ 1
rétro-@@ 1
coinc@@ 1
bét@@ 1
rectangu@@ 1
rickshaw 1
grills 1
nique 1
land@@ 1
pol@@ 1
enseig@@ 1
attabl@@ 1
jack 1
zaine 1
conne@@ 1
sembla@@ 1
pollu@@ 1
êtant 1
trot@@ 1
hum@@ 1
spec@@ 1
qua@@ 1
balan@@ 1
fique 1
grenou@@ 1
conif@@ 1
eyeliner 1
tronç@@ 1
wagons 1
tins 1
isiana 1
exams 1
charri@@ 1
ouv@@ 1
tile 1
ham@@ 1
eçon 1
thhoop 1
né@@ 1
espa@@ 1
civil 1
dessus-@@ 1
adi@@ 1
ateway 1
deu@@ 1
brunette 1
late 1
lets 1
Terrible 1
souri@@ 1
ige@@ 1
new 1
york 1
sans-@@ 1
vend@@ 1
brutal@@ 1
air@@ 1
raire 1
copies 1
miers 1
parta@@ 1
dan 1
voirs 1
lobes 1
perc@@ 1
baton 1
beach@@ 1
face-@@ 1
à-@@ 1
sous-chef 1
lave-@@ 1
ama 1
Mi@@ 1
frisbeen 1
spiderman 1
gonflé 1
pâtu@@ 1
ssel 1
stupi@@ 1
tags 1
prepare 1
ples 1
ffes 1
stu@@ 1
gaz@@ 1
poules 1
&apos;appu@@ 1
crustac@@ 1
ñ@@ 1
ata 1
bala@@ 1
command@@ 1
pack 1
fi 1
consi@@ 1
cami@@ 1
sole 1
pep 1
ssiers 1
usten@@ 1
Moyen-@@ 1
businessman 1
Sparrow 1
Fin@@ 1
vari@@ 1
wells 1
fargo 1
ym@@ 1
exer@@ 1
particu@@ 1
andy 1
Vinci 1
laska 1
Bla@@ 1
ckberry 1
toise 1
arms 1
hippo@@ 1
disper@@ 1
quik 1
dicti@@ 1
cola 1
embar@@ 1
mélan@@ 1
arcade 1
béné@@ 1
submer@@ 1
sign@@ 1
flott@@ 1
arrangement 1
« 1
» 1
intervie@@ 1
wer 1
fié 1
itan@@ 1
Notre 1
ud 1
fla@@ 1
zards 1
buggies 1
k-9 1
hio 1
sch 1
Gardens 1
sinu@@ 1
stent 1
handica@@ 1
travail@@ 1
immigration 1
tubas 1
mexica@@ 1
ste@@ 1
coure@@ 1
inage 1
dor@@ 1
stea@@ 1
U 1
B 1
S. 1
noeu@@ 1
wis 1
onnante 1
récré@@ 1
To@@ 1
lies 1
ouverture 1
Gy@@ 1
adjac@@ 1
berry 1
dress@@ 1
û 1
Wendy 1
décontra@@ 1
disc 1
camaraderie 1
illumin@@ 1
secou@@ 1
excav@@ 1
après-@@ 1
Whack 1
gos 1
isson 1
surg@@ 1
&apos;orig@@ 1
ackers 1
pare-@@ 1
hi 1
ège 1
quités 1
ck@@ 1
pharmac@@ 1
donn@@ 1
gout 1
lass 1
lector 1
camping-@@ 1
cars 1
fu 1
consul@@ 1
baller 1
géométri@@ 1
vivi@@ 1
papasan 1
dues 1
loin@@ 1
ajou@@ 1
ennent 1
fairway 1
na@@ 1
fen@@ 1
effectu@@ 1
ounge 1
hummer 1
qués 1
concession 1
donald 1
ola 1
figurine 1
amen 1
éma 1
rot@@ 1
maç@@ 1
tubing 1
dancing 1
dirondack 1
ceau 1
C.@@ 1
U.B.A. 1
ssions 1
vérifi@@ 1
ior 1
sarong 1
caddy 1
airway 1
&apos;aver@@ 1
surve@@ 1
patau@@ 1
recou@@ 1
chop@@ 1
&apos;accor@@ 1
Ocean 1
ukulele 1
TAGA 1
tripo@@ 1
armer 1
angs 1
capital@@ 1
&apos;échar@@ 1
tongues 1
sta 1
ica 1
tumbling 1
Vons 1
cago 1
Tourist-Info 1
Tehelka 1
cyc@@ 1
banli@@ 1
eu@@ 1
ckabee 1
sweater 1
exag@@ 1
ki@@ 1
pp@@ 1
appropri@@ 1
orgis 1
kio@@ 1
salo@@ 1
trico@@ 1
fish 1
Vuitton 1
human@@ 1
dau@@ 1
phins 1
mainten@@ 1
athalie 1
ollHouse 1
hors-@@ 1
brum@@ 1
abri 1
od 1
Stewart 1
enatar 1
ature 1
tire@@ 1
queur 1
ho@@ 1
pper 1
déchir@@ 1
bale 1
musc@@ 1
cots 1
division 1
sus 1
rock@@ 1
confor@@ 1
met@@ 1
eleon 1
câlin@@ 1
pelu@@ 1
act 1
sham@@ 1
ador@@ 1
vern@@ 1
ret 1
dalmati@@ 1
majo@@ 1
ner@@ 1
veux 1
sieur 1
ate 1
consoles 1
ellingham 1
igh 1
School 1
flû@@ 1
passag@@ 1
Capris 1
cand@@ 1
floral 1
Hispan@@ 1
rouillent 1
surveill@@ 1
pplebee 1
lis 1
creaming 1
Or@@ 1
popu@@ 1
supervision 1
stati@@ 1
pissen@@ 1
empil@@ 1
national@@ 1
béqu@@ 1
spectat@@ 1
rice 1
électron@@ 1
Sooner 1
snap 1
franc 1
gestic@@ 1
panse 1
chant@@ 1
logos 1
marm@@ 1
ois 1
fatigu@@ 1
yranka 1
star 1
sym@@ 1
explorer 1
ara@@ 1
iPods 1
mugs 1
monie 1
ado@@ 1
garita 1
avins 1
bot@@ 1
imitation 1
toil@@ 1
conse@@ 1
freesbies 1
frant 1
uro 1
zz 1
isent 1
adop@@ 1
tats-Unis 1
apparai@@ 1
pitch 1
helsea 1
ampard 1
verpool 1
questions 1
craftzine 1
chons 1
IC@@ 1
Stonehurst 1
rhododendron 1
maximi@@ 1
aspirations 1
individu@@ 1
hippies 1
aniels 1
vation 1
mot@@ 1
drag 1
queen 1
home 1
Sudan 1
Sallie 1
chorégraph@@ 1
fonc@@ 1
formée 1
oran@@ 1
boi@@ 1
tw@@ 1
ke 1
Sting 1
pti@@ 1
tee-@@ 1
shirts 1
ink 1
nington 1
&apos;éch@@ 1
attro 1
ilburn 1
appli@@ 1
ferrovi@@ 1
rentr@@ 1
era 1
Can@@ 1
Walter 1
alim@@ 1
rawr 1
scen@@ 1
races 1
armo@@ 1
clume 1
tle 1
rafraî@@ 1
chir 1
ercury 1
craw@@ 1
Spring 1
caucasi@@ 1
concur@@ 1
constitu@@ 1
aura 1
ush 1
sofas 1
Latin 1
rogue 1
zod 1
inst@@ 1
stco 1
flash 1
signs 1
Amérique 1
sations 1
procla@@ 1
server 1
volants 1
ddha 1
arbor@@ 1
ney 1
proje@@ 1
Pain 1
ing 1
ergizer 1
aventu@@ 1
waï@@ 1
cardia@@ 1
China 1
Shipping 1
cylin@@ 1
escor@@ 1
silence 1
excavation 1
nécess@@ 1
hen@@ 1
blues 1
tive 1
colis 1
glaç@@ 1
randonne@@ 1
surgi@@ 1
dire@@ 1
Ugg 1
réfrig@@ 1
UCKY 1
usant 1
Wall-E 1
avant-@@ 1
dogs 1
cement 1
ponge 1
dir 1
industri@@ 1
irie 1
spaghet@@ 1
compl@@ 1
my@@ 1
long@@ 1
eugeot 1
hook 1
&apos; 1
horns 1
Coc@@ 1
cence 1
masses 1
pairs 1
rates 1
tét@@ 1
Tae 1
won 1
obstru@@ 1
sausage 1
link 1
fisheye 1
bingo 1
roney 1
déjeun@@ 1
So@@ 1
aker 1
zoom 1
TE@@ 1
band@@ 1
publ@@ 1
Hol@@ 1
mgren 1
tho@@ 1
devan@@ 1
Sa@@ 1
w 1
shoots 1
mart@@ 1
âché 1
endi@@ 1
mont@@ 1
garden 1
soli@@ 1
embro@@ 1
Verizon 1
ia 1
mari@@ 1
Mexique 1
donut 1
mer@@ 1
audi@@ 1
Sprite 1
ombra@@ 1
rider 1
oniste 1
via 1
web@@ 1
cam 1
reconstitu@@ 1
célé@@ 1
physi@@ 1
ls 1
weiser 1
sav@@ 1
religi@@ 1
sk@@ 1
ee 1
esecake 1
dram@@ 1
atiquement 1
réal@@ 1
squ@@ 1
jodhpurs 1
breaks 1
décontract@@ 1
deaux 1
El@@ 1
réfléchiss@@ 1
festive 1
aval 1
WALK 1
armosa 1
champig@@ 1
nons 1
ators 1
kin 1
fertili@@ 1
naval 1
sections 1
stock 1
Sno@@ 1
opy 1
chage 1
acci@@ 1
dent@@ 1
profon@@ 1
drag@@ 1
trée 1
ermans 1
sermon 1
votion 1
barrica@@ 1
tort@@ 1
nag@@ 1
incline 1
curi@@ 1
record 1
mière 1
maire 1
orado 1
antiques 1
pick 1
up 1
sar@@ 1
syn@@ 1
95@@ 1
,000 1
remet@@ 1
épin@@ 1
mér@@ 1
locomotive 1
sheet 1
itement 1
lement 1
pper@@ 1
wares 1
sil@@ 1
enci@@ 1
iMac 1
gur@@ 1
process@@ 1
lég@@ 1
reté 1
bodyless 1
cats 1
stro 1
isol@@ 1
Ore@@ 1
volunteer 1
parks 1
condiments 1
parkour 1
stance 1
accep@@ 1
lassos 1
fraî@@ 1
végét@@ 1
énergi@@ 1
contr@@ 1
bison 1
autom@@ 1
exu@@ 1
sor 1
mom@@ 1
ampl@@ 1
zzy 1
toa@@ 1
sts 1
mun@@ 1
menorah 1
bulletin 1
08 1
hur@@ 1
Salyo 1
ps 1
fro-@@ 1
démé@@ 1
&apos;étre@@ 1
Thriller 1
Michael 1
safari 1
sous-@@ 1
bondi@@ 1
univer@@ 1
Touchdown 1
Sea@@ 1
stoc@@ 1
dog 1
cident 1
ot 1
boule@@ 1
certific@@ 1
encadr@@ 1
commandos 1
ic 1
pizzas 1
vamp@@ 1
aband@@ 1
bulance 1
inform@@ 1
chap@@ 1
times 1
inclu@@ 1
lunch 1
rasta 1
prof@@ 1
droits 1
comb@@ 1
budgets 1
standing 1
paper@@ 1
quiet 1
rel 1
capu@@ 1
Do@@ 1
rothy 1
EGO 1
brass 1
fron@@ 1
orial 1
lime 1
secrets 1
Sta@@ 1
ffordshire 1
Wood 1
Silk 1
obscurité 1
translu@@ 1
indigo 1
rési@@ 1
baggy 1
mesu@@ 1
bati@@ 1
veil 1
inger 1
èche 1
atmosph@@ 1
robo@@ 1
trê@@ 1
trek 1
SMU 1
breakdancer 1
border 1
Toy 1
pyra@@ 1
mid@@ 1
Jo@@ 1
niversaire 1
inn 1
&apos;encoura@@ 1
bumper 1
mix@@ 1
cler@@ 1
mêlent 1
pro 1
crou@@ 1
pable 1
tango 1
-pom 1
centuri@@ 1
ccin@@ 1
Ra@@ 1
agit@@ 1
ssi@@ 1
Volvo 1
passi@@ 1
slalom@@ 1
Lon@@ 1
ghorns 1
couv@@ 1
&apos;alpin@@ 1
éro 1
torii 1
dribbl@@ 1
Gre@@ 1
enpeace 1
diagra@@ 1
breakdancers 1
zi@@ 1
origin@@ 1
phabet 1
Afrique 1
puma 1
chocola@@ 1
py@@ 1
bari@@ 1
cial 1
ryant 1
jade 1
secret 1
î@@ 1
balances 1
anten@@ 1
Q@@ 1
UE 1
AT@@ 1
rè@@ 1
fe 1
vocabu@@ 1
pel@@ 1
cule 1
Chev@@ 1
ron 1
hot@@ 1
garages 1
marina 1
gentleman 1
humori@@ 1
ino 1
latin@@ 1
oi 1
gnu 1
technolo@@ 1
iler 1
serpent@@ 1
&apos;éla@@ 1
bitat 1
uman@@ 1
rack 1
mus@@ 1
anger 1
onnel 1
photograph@@ 1
dayglo 1
rottweiler 1
mie 1
balay@@ 1
gon 1
Por@@ 1
tland 1
monopoly 1
colonial 1
Scout 1
kan@@ 1
rou 1
flam@@ 1
cosm@@ 1
éti@@ 1
got 1
rocks 1
bats 1
échan@@ 1
location 1
da@@ 1
baggie 1
peig@@ 1
deon 1
diffic@@ 1
itions 1
nor@@ 1
wheelie 1
mig@@ 1
physiques 1
Vespa 1
dine 1
door 1
musul@@ 1
tère 1
contingent 1
lac@@ 1
para@@ 1
fémin@@ 1
ears 1
ryth@@ 1
éventu@@ 1
gymna@@ 1
foot@@ 1
bag 1
ouver@@ 1
cations 1
shot 1
cast@@ 1
erena 1
Williams 1
street@@ 1
Oce@@ 1
anside 1
elier 1
act@@ 1
corral 1
es@@ 1
gles 1
éens 1
cigar@@ 1
odgers 1
déclar@@ 1
servi@@ 1
ility 1
pho@@ 1
ir-@@ 1
Sorvette 1
lados 1
stante 1
pro-@@ 1
attractions 1
Grand@@ 1
mas 1
diction 1
mai@@ 1
bearded 1
ads 1
avrovulcan.@@ 1
compli@@ 1
TEAM 1
EN@@ 1
KE 1
roul@@ 1
jeun@@ 1
esse 1
arde 1
corri@@ 1
cès 1
bascul@@ 1
asking 1
obbins 1
people 1
pitbull 1
europé@@ 1
ketchup 1
Subaru 1
nent 1
nex@@ 1
ion 1
Wi@@ 1
casi@@ 1
sul@@ 1
ats 1
labradoodle 1
éping@@ 1
neuse 1
Sedan 1
âteaux 1
paress@@ 1
aiss@@ 1
sence 1
woks 1
cultu@@ 1
take-down 1
juke@@ 1
uke 1
escar@@ 1
Steph 1
gondo@@ 1
vél@@ 1
gratu@@ 1
coli@@ 1
oneer 1
novice 1
Tai@@ 1
preintes 1
Sox 1
élé 1
itan 1
bring@@ 1
vététi@@ 1
expressions 1
orien@@ 1
serp@@ 1
nations 1
fermentation 1
enseign@@ 1
contra@@ 1
ct@@ 1
NO@@ 1
commerç@@ 1
alcons 1
avan@@ 1
princi@@ 1
pale 1
conventi@@ 1
impact 1
dig@@ 1
die 1
punching 1
ock@@ 1
bille 1
lock 1
budweiser 1
vélo@@ 1
slow 1
eure 1
sui@@ 1
vis 1
asonic 1
stat@@ 1
chass@@ 1
fant@@ 1
Vietnam@@ 1
Yongsan 1
miro@@ 1
oxford 1
confetti 1
souvenir 1
prun@@ 1
pot@@ 1
ares 1
Tartuffe 1
barricade 1
denim 1
play 1
yo-yo 1
disk 1
Mic@@ 1
ah 1
St@@ 1
kick@@ 1
box@@ 1
pride 1
tâ@@ 1
limbo 1
shmonger 1
unningham 1
capture 1
hold 1
con 1
transpar@@ 1
renmark 1
Tools 1
steners 1
sauve@@ 1
rog 1
stique 1
émerve@@ 1
afro-@@ 1
américa@@ 1
chili 1
Au@@ 1
to 1
zda 1
AM 1
anci@@ 1
nement 1
pler 1
wan 1
Multi@@ 1
purpose 1
contem@@ 1
rain 1
illy 1
walk@@ 1
super@@ 1
dock 1
milkshake 1
teau 1
cac@@ 1
garç@@ 1
onnet 1
nourr@@ 1
melon 1
otte 1
Air@@ 1
blush 1
appara@@ 1
ître 1
arran@@ 1
conf@@ 1
insol@@ 1
veeta 1
vada 1
CK@@ 1
Birthday 1
cess 1
Wiki 1
Ga@@ 1
tacti@@ 1
tail 1
gro 1
mo 1
expertise 1
combres 1
chirurgi@@ 1
chir@@ 1
urg@@ 1
Vira 1
Virou 1
éte@@ 1
ystery 1
cooby-Doo 1
SUV 1
trompet@@ 1
possi@@ 1
bouddhi@@ 1
ptions 1
odus 1
icchu 1
chaparral 1
dep@@ 1
Sonoma 1
tisan 1
Sourdough 1
hippie 1
cappuccinos 1
couli@@ 1
calligraph@@ 1
Great 1
kes 1
mission 1
b 1
radi@@ 1
SWAT 1
crime 1
mées 1
docum@@ 1
entation 1
diatri@@ 1
èque 1
000 1
arti@@ 1
nail 1
unny 1
préserv@@ 1
eblo 1
conte@@ 1
échi@@ 1
telle 1
ariachi 1
coutu@@ 1
description 1
manqu@@ 1
mation 1
fun@@ 1
Jum@@ 1
botron 1
Pho@@ 1
enix 1
uniform@@ 1
ément 1
itali@@ 1
mul@@ 1
ssage 1
silo 1
bay 1
ulti@@ 1
satin 1
ite@@ 1
barricades 1
iture 1
amment 1
recyc@@ 1
arm@@ 1
hau@@ 1
Live 1
pag@@ 1
ta 1
concessions 1
Stitch 1
mement 1
NY@@ 1
nual 1
ongboard 1
Cla@@ 1
ssic 1
cap@@ 1
entrepreneur 1
squel@@ 1
teries 1
scel@@ 1
radars 1
uk@@ 1
rain@@ 1
instal@@ 1
ach@@ 1
confe@@ 1
accom@@ 1
Spyder 1
ug@@ 1
viking 1
sents 1
camps 1
mémor@@ 1
celles 1
identification 1
change 1
toire 1
cuill@@ 1
tem@@ 1
efs 1
ear 1
Stanford 1
sauci@@ 1
engag@@ 1
Run 1
émeute 1
hartt 1
question 1
saint 1
empanadas 1
panadas 1
placard 1
prote@@ 1
toe 1
grab 1
lettes 1
by 1
citrou@@ 1
ille@@ 1
dins 1
tails 1
hospit@@ 1
te-@@ 1
ense@@ 1
embra@@ 1
écra@@ 1
gy@@ 1
gyro 1
ference 1
alisation 1
inté@@ 1
ressant 1
chu@@ 1
êt 1
house 1
traî@@ 1
cell@@ 1
enca@@ 1
smoo@@ 1
profess@@ 1
abrup@@ 1
wake@@ 1
deur 1
ina@@ 1
traver@@ 1
illets 1
salu@@ 1
bres 1
oires 1
XSWO 1
Swan 1
staurant 1
SportsCenter 1
réun@@ 1
banquet 1
trucks 1
pron@@ 1
terrori@@ 1
panel 1
&apos;arti@@ 1
san 1
pav@@ 1
post-@@ 1
atoire 1
irrit@@ 1
brownies 1
Tissues 1
can 1
London 1
ridges 1
dir@@ 1
layboy 1
êtent 1
kea 1
tisserie 1
snoopy 1
fantasy 1
bod@@ 1
sers 1
eterson 1
Pol@@ 1
aris 1
courte@@ 1
Scouts 1
patience 1
&apos;élo@@ 1
confér@@ 1
université 1
fact 1
zmat 1
cil 1
colo@@ 1
certifi@@ 1
sablon@@ 1
ne@@ 1
neu@@ 1
patrio@@ 1
flashy 1
invention 1
spirer 1
time 1
eux-@@ 1
ci 1
Sport 1
pluvi@@ 1
Popsicle 1
sh@@ 1
ancy 1
Pelo@@ 1
boogie 1
boards 1
frisbees 1
profit@@ 1
gers 1
catacom@@ 1
dépri@@ 1
interacti@@ 1
Ro@@ 1
ad 1
Work 1
head 1
Zales 1
chy 1
Santa 1
ruz 1
blo@@ 1
sat@@ 1
consum@@ 1
berdeen 1
monit@@ 1
soil 1
essay@@ 1
inféri@@ 1
compos@@ 1
eReader 1
intenti@@ 1
précipit@@ 1
omo@@ 1
riel 1
coqu@@ 1
illage 1
ShoeGasm 1
goudr@@ 1
franç@@ 1
charades 1
gnée 1
exten@@ 1
Wells 1
incubat@@ 1
rest@@ 1
regrets 1
cani@@ 1
eal 1
from@@ 1
Shine 1
road 1
siff@@ 1
Seu@@ 1
heap 1
Tab 1
teaux 1
Wall 1
transform@@ 1
bull 1
terro@@ 1
rise 1
stri@@ 1
retra@@ 1
dia@@ 1
Fire@@ 1
fox 1
vem@@ 1
cagou@@ 1
cer@@ 1
asi@@ 1
prin@@ 1
oti@@ 1
dashiki 1
procession 1
t-@@ 1
Ber@@ 1
nard 1
bratwurst 1
euro 1
Teva 1
euroscience 1
bom@@ 1
oxy@@ 1
elena 1
omez 1
ambu@@ 1
del 1
negie 1
ellon 1
eishas 1
déten@@ 1
fiques 1
rayer 1
oth 1
Tambor 1
pauses 1
Victoria 1
bor@@ 1
We@@ 1
ek 1
emp@@ 1
jol@@ 1
urne 1
gor@@ 1
observ@@ 1
uga 1
fuchsia 1
igh@@ 1
Boo@@ 1
ks 1
Singer 1
extra@@ 1
messages 1
cy@@ 1
ber 1
débar@@ 1
atican 1
brée 1
by-@@ 1
by@@ 1
gué 1
ulton 1
transit 1
commun@@ 1
grands-@@ 1
carit@@ 1
invest@@ 1
Police 1
heart 1
fit 1
viv@@ 1
Mex@@ 1
ills 1
sterdam 1
ali@@ 1
Thai 1
House 1
boucli@@ 1
UA 1
entou@@ 1
vie@@ 1
conviction 1
Atlanta 1
Pop@@ 1
corn 1
ara 1
Old 1
shioned 1
ream 1
croquet 1
co 1
èles 1
Union 1
mooch 1
tiac 1
Staples 1
Ea@@ 1
sy 1
okay 1
ood 1
didas 1
Ta@@ 1
wan@@ 1
ban 1
Har@@ 1
saire 1
délabr@@ 1
sor@@ 1
SWATCH 1
Stripe 1
sky 1
Si@@ 1
Pen@@ 1
ske 1
focal 1
cas@@ 1
apit@@ 1
délici@@ 1
neur 1
chardson 1
aju@@ 1
tradition 1
Isra@@ 1
her 1
quar@@ 1
lay@@ 1
hipster 1
orgio 1
eiko 1
capit@@ 1
tram 1
panama 1
oration 1
Love 1
alumin@@ 1
ium 1
oy@@ 1
stru@@ 1
sweatshirt 1
cura 1
Tha@@ 1
7@@ 1
Bir@@ 1
mingham 1
édi@@ 1
sément 1
urgence 1
valve 1
param@@ 1
cancer 1
atique 1
To 1
dday 1
host@@ 1
alty 1
body 1
builder 1
scription 1
souti@@ 1
horizontal 1
IN@@ 1
TON 1
totem 1
hawaï@@ 1
monocyc@@ 1
diabo@@ 1
igar 1
YFD 1
sandwi@@ 1
indre 1
eer 1
ritu@@ 1
kal@@ 1
ido@@ 1
curry 1
islaw 1
rowski 1
occu@@ 1
c-en-ciel 1
THEFACESHOP 1
beanbag 1
regar@@ 1
bag@@ 1
ving@@ 1
ran 1
civ@@ 1
Tommy 1
ilfiger 1
owntown 1
inée 1
constru@@ 1
entr@@ 1
lesbi@@ 1
trident 1
synchron@@ 1
clar@@ 1
VO 1
mag@@ 1
éco@@ 1
attentive 1
garni 1
eze 1
sel@@ 1
affe@@ 1
camé@@ 1
scopes 1
fêt@@ 1
clipse 1
burq@@ 1
vic@@ 1
tori@@ 1
perm@@ 1
bistro 1
eat@@ 1
bit 1
,@@ 1
Crocs 1
Forever 1
dist@@ 1
inc@@ 1
moose 1
VS 1
ator 1
canadi@@ 1
Stor@@ 1
trooper 1
sphinx 1
tranqu@@ 1
engage 1
trans@@ 1
royal 1
news 1
flou@@ 1
Steakhouse 1
céré@@ 1
cur@@ 1
her@@ 1
okee 1
eXXXotica 1
Beach 1
lor 1
masqu@@ 1
lockbuster 1
cot@@ 1
gladi@@ 1
eropostale 1
senior 1
réuni@@ 1
tie-dye 1
mart 1
ji 1
ump 1
britan@@ 1
nion 1
stitu@@ 1
endri@@ 1
eltics 1
scot@@ 1
anto 1
ingo 1
sages 1
boulevard 1
humvee 1
space 1
serpil@@ 1
cepts 1
seu@@ 1
gran@@ 1
iz@@ 1
Woman 1
&apos;expri@@ 1
affection 1
arlova 1
ument 1
gadgets 1
avenue 1
plant 1
cutter 1
plants 1
offee 1
mom 1
pancakes 1
age@@ 1
han@@ 1
pensive 1
soc@@ 1
bron@@ 1
zer 1
religion 1
Per@@ 1
tatou@@ 1
meil@@ 1
bas-relief 1
aniums 1
restaurant.@@ 1
imi 1
endrix 1
plac@@ 1
films 1
hakespeare 1
rid 1
lub 1
ddies 1
shop 1
nave@@ 1
scribe 1
quarter@@ 1
marlboro 1
neapolis 1
isante 1
tingham 1
oureux 1
book 1
stic@@ 1
int@@ 1
tan 1
ol 1
Thorn 1
abdomen 1
Tur@@ 1
SM@@ 1
pai@@ 1
McDonalds 1
artifici@@ 1
gentlemen 1
entrela@@ 1
ignée 1
fr@@ 1
espè@@ 1
devises 1
cocktails 1
plaisan@@ 1
TO@@ 1
sph@@ 1
érique 1
abr@@ 1
uma 1
fort@@ 1
caution 1
ung 1
Food 1
grin@@ 1
schizoph@@ 1
rène 1
tit 1
collè@@ 1
gir@@ 1
af@@ 1
Walgreens 1
disc@@ 1
ount 1
nimaniacs 1
samoura@@ 1
ïs 1
sier 1
paga@@ 1
Army 1
textiles 1
acific 1
Wiggles 1
tro 1
Tri@@ 1
omphe 1
sonn@@ 1
foo@@ 1
donné 1
interag@@ 1
touff@@ 1
vi 1
Stop 1
sketball 1
hockey@@ 1
corridor 1
ok 1
éclair@@ 1
ippie 1
urn 1
ving 1
ead 1
geish@@ 1
&apos;uni@@ 1
bad@@ 1
caric@@ 1
uri@@ 1
peurs 1
chance 1
Coke 1
bs 1
half@@ 1
sm@@ 1
Ter@@ 1
abor 1
20@@ 1
Fire 1
Sugarland 1
ce@@ 1
velo@@ 1
jab 1
boiss@@ 1
bijou@@ 1
flyer 1
sculp@@ 1
cent@@ 1
senal 1
series 1
cave 1
fréqu@@ 1
tech@@ 1
yppens 1
chipper 1
promo@@ 1
game 1
lamas 1
nis 1
risty 1
ly 1
lydesdale 1
word 1
lywood 1
lungi 1
condiment 1
cooby 1
Doo 1
isi@@ 1
télesc@@ 1
opes 1
brouss@@ 1
plat@@ 1
assai@@ 1
télécommand@@ 1
Man 1
cale 1
Te@@ 1
ch 1
installation 1
infe@@ 1
guar 1
mets 1
° 1
tales 1
mp@@ 1
scar@@ 1
multit@@ 1
dess@@ 1
éch@@ 1
Cir@@ 1
stars 1
jour@@ 1
EL@@ 1
fragile 1
grizzly 1
dra@@ 1
guer 1
contrô@@ 1
erry 1
itness 1
dou 1
case 1
essence 1
Jer@@ 1
maine 1
chor@@ 1
imm@@ 1
lottes 1
violon@@ 1
cel@@ 1
bodyboarder 1
dévi@@ 1
guirlan@@ 1
barbecues 1
corset 1
ébou@@ 1
latin 1
trin@@ 1
affal@@ 1
bier 1
finesse 1
auto@@ 1
troll 1
information 1
VEDA 1
mustang 1
VA 1
Theatre 1
cocker 1
tubu@@ 1
dron 1
ries 1
Sh@@ 1
land 1
VD 1
pourchass@@ 1
yak 1
ît 1
dez 1
ya 1
urer 1
obser@@ 1
innocent 1
off@@ 1
dro@@ 1
emmitoufl@@ 1
déploy@@ 1
hon@@ 1
basket@@ 1
Toronto 1
aple 1
smartphone 1
anie 1
Whole 1
oods 1
licans 1
color@@ 1
w@@ 1
peupl@@ 1
copil@@ 1
fondue 1
cosplay 1
ango 1
sson 1
cheur 1
peu@@ 1
ple 1
artisan@@ 1
red 1
arth 1
stle 1
Keep 1
laddin 1
smine 1
haut@@ 1
web 1
udi 1
scint@@ 1
cowgirls 1
Nor@@ 1
th 1
post@@ 1
exmark 1
ninjas 1
prince@@ 1
Ni@@ 1
kon 1
Com@@ 1
cast 1
igital 1
Voice 1
agascar 1
yatt 1
gency 1
men 1
lam@@ 1
designer 1
couss@@ 1
ramass@@ 1
repa@@ 1
pâtiss@@ 1
offici@@ 1
voluti@@ 1
atten@@ 1
agpie 1
yst@@ 1
bardier 1
hor@@ 1
stra@@ 1
gallon 1
thé@@ 1
ition 1
battu 1
ography 1
ariboos 1
18@@ 1
skimboarder 1
oring 1
suzu 1
Navy 1
harmon@@ 1
érateur 1
Gen@@ 1
pac 1
unt 1
cassonne 1
styli@@ 1
labor@@ 1
ato@@ 1
éprou@@ 1
possible 1
13 1
skaters 1
illo@@ 1
dilig@@ 1
emment 1
rai@@ 1
vril 1
avigne 1
cep@@ 1
respect 1
mutu@@ 1
zabella 1
enflam@@ 1
enga@@ 1
tribute 1
quarterbacks 1
hip@@ 1
Weezer 1
cameraman 1
pétro@@ 1
lière 1
longboards 1
mécan@@ 1
occasion 1
gon@@ 1
&apos;inst@@ 1
crayola 1
ici@@ 1
antici@@ 1
mobiles 1
én@@ 1
ane 1
Texans 1
running 1
agressi@@ 1
yan 1
Tannehill 1
eils 1
broch@@ 1
Haw@@ 1
keyes 1
Spartans 1
solution 1
lation 1
liqui@@ 1
onald 1
river 1
iznos-Subs 1
jury 1
protè@@ 1
-po@@ 1
ignets 1
diff@@ 1
stre@@ 1
hegan 1
smash@@ 1
handball 1
you@@ 1
prou@@ 1
dishdashas 1
abobank 1
nationaux 1
Center 1
lubri@@ 1
fie 1
assem@@ 1
bavar@@ 1
trave@@ 1
étran@@ 1
déplo@@ 1
instit@@ 1
playground 1
o-@@ 1
féro@@ 1
tiro@@ 1
Sky-Watcher 1
ignore 1
body-builder 1
ctron@@ 1
ors 1
freestyle 1
cracker 1
horiz@@ 1
plaid 1
oeu@@ 1
jon@@ 1
essi 1
oosevelt 1
ant-@@ 1
usi@@ 1
St 1
tropi@@ 1
aci@@ 1
permanent 1
lake 1
riffin 1
lippers 1
rizzles 1
University 1
adison 1
Tournament 1
rav@@ 1
supervise 1
favor@@ 1
centi@@ 1
steeple@@ 1
chase 1
partag@@ 1
gol@@ 1
cle 1
tlanta 1
shortboar@@ 1
maje@@ 1
matéri@@ 1
sto@@ 1
plasti@@ 1
rais@@ 1
embla@@ 1
sai@@ 1
anti-immigration 1
ra 1
nat@@ 1
reporter 1
lesquel@@ 1
parten@@ 1
chwinn 1
dford 1
ik 1
science 1
roll 1
eter 1
Ho@@ 1
Soy 1
inhal@@ 1
rockabilly 1
verdoy@@ 1
inox 1
applaudi@@ 1
yacht 1
éro@@ 1
ssi 1
hospital@@ 1
slam@@ 1
dition 1
saires 1
mong 1
kazoo 1
fé@@ 1
quotidi@@ 1
tos 1
adroitement 1
auburn 1
syduck 1
célébr@@ 1
ni 1
saisi@@ 1
hula-hoop 1
rayant 1
monoboard 1
niver@@ 1
olina 1
sprin@@ 1
range 1
chee@@ 1
bulldozers 1
ôles 1
astronau@@ 1
sparkasse 1
tiki 1
creus@@ 1
crist@@ 1
Vo@@ 1
avent@@ 1
backgammon 1
gging 1
pel 1
ruce 1
Springsteen 1
Men 1
He@@ 1
alth 1
Yor@@ 1
shire 1
apr@@ 1
calzone 1
dinner 1
treill@@ 1
r. 1
Seuss 1
Baseball 1
cau@@ 1
motion 1
crushers 1
garde-@@ 1
Cyc@@ 1
lothon 1
cycli@@ 1
snooker 1
ran@@ 1
pédal@@ 1
kas 1
Team 1
application 1
archer 1
argent@@ 1
kil@@ 1
/ 1
illet 1
wood 1
squash 1
bûcher@@ 1
bie 1
awlings 1
amphi@@ 1
popsicles 1
encom@@ 1
progra@@ 1
lancer@@ 1
fran@@ 1
rette 1
évacu@@ 1
Stevie 1
concerts 1
slalom 1
forge 1
st-@@ 1
blème 1
ayores 1
négoc@@ 1
dar@@ 1
Tebow 1
utual 1
IS@@ 1
extravagant 1
déci@@ 1
élabor@@ 1
hand@@ 1
autograph@@ 1
Jack@@ 1
ident@@ 1
lév@@ 1
rs 1
affect@@ 1
progre@@ 1
bouque@@ 1
Wisconsin 1
TEP 1
tement 1
êter 1
serve 1
visions 1
cture 1
thers 1
tomb@@ 1
prim@@ 1
tronas 1
del@@ 1
touches 1
polit@@ 1
ouleur 1
expre@@ 1
ssive 1
eat 1
bur@@ 1
marathoni@@ 1
accor@@ 1
champi@@ 1
plique 1
Mac@@ 1
ili@@ 1
naheim 1
cui@@ 1
kis 1
ï 1
infir@@ 1
mier 1
Tea 1
oche 1
regrou@@ 1
amar@@ 1
pizz@@ 1
poil@@ 1
uler 1
rora 1
taupe 1
&apos;appr@@ 1
tiques 1
ffer 1
ridic@@ 1
ule 1
talkie 1
walkie 1
flé 1
dobe 1
desert 1
fication 1
Alaska 1
cookie 1
bandanna 1
fri@@ 1
body@@ 1
tuy@@ 1
rac@@ 1
cord 1
promen@@ 1
jui@@ 1
Torah 1
cue@@ 1
év@@ 1
nylon 1
perfe@@ 1
écri@@ 1
lil@@ 1
diam@@ 1
ètre 1
thermos 1
moder@@ 1
quinox 1
OU 1
am 1
user 1
tiv@@ 1
indi@@ 1
bent 1
axe 1
onnière 1
rigo@@ 1
wind 1
surfing 1
gliding 1
huss@@ 1
rec@@ 1
pis 1
gré@@ 1
multi@@ 1
ail 1
discrimination 1
eure@@ 1
monnaie 1
cat 1
Tyson 1
unchout 1
ynyrd 1
Skynyrd 1
vétér@@ 1
savou@@ 1
olet 1
porate 1
ore@@ 1
Free 1
dvice 1
potluck 1
cos 1
tie 1
trib@@ 1
négli@@ 1
brand@@ 1
wee@@ 1
end 1
oria 1
sticia 1
Sin 1
Ol@@ 1
vido 1
national 1
proté@@ 1
cram@@ 1
biolo@@ 1
neys 1
Chin@@ 1
issement 1
acti@@ 1
field 1
goal 1
roger 1
plong@@ 1
mytholo@@ 1
flute 1
pain@@ 1
concentration 1
respe@@ 1
kickboxers 1
séri@@ 1
orthodon@@ 1
heure@@ 1
primate 1
EF 1
illés 1
incur@@ 1
banan@@ 1
import@@ 1
passer@@ 1
diag@@ 1
stron@@ 1
déla@@ 1
mité 1
bleu-@@ 1
Southern 1
gardi@@ 1
brou@@ 1
gre@@ 1
défil@@ 1
bel@@ 1
navig@@ 1
gure 1
iserie 1
ders 1
anti-@@ 1
obsc@@ 1
vallon@@ 1
cylindri@@ 1
arie 1
autorou@@ 1
potenti@@ 1
ar 1
W@@ 1
lumin@@ 1
stries 1
lovers 1
âtre 1
envelop@@ 1
ambi@@ 1
chandeliers 1
estoga 1
gecko 1
gren@@ 1
shoo@@ 1
ut 1
êts 1
massive 1
renif@@ 1
braham 1
pés 1
ulent 1
éto@@ 1
omique 1
qui@@ 1
ète 1
carca@@ 1
attra@@ 1
