a 52886
. 29369
in 16050
the 11762
on 9070
man 8314
is 8068
and 7896
of 7422
with 6646
woman 4227
, 4185
two 4118
are 4048
an 3531
to 3329
at 3316
people 3308
wearing 2750
young 2406
white 2372
shirt 2213
black 2132
his 2107
while 2056
blue 1999
red 1884
men 1883
sitting 1843
girl 1832
dog 1824
boy 1780
standing 1710
playing 1694
group 1648
street 1553
down 1507
walking 1474
front 1394
her 1337
c@@ 1317
ing 1316
one 1313
holding 1302
y 1291
e@@ 1284
ed 1261
t@@ 1245
by 1216
s@@ 1189
water 1172
up 1142
w@@ 1122
d 1122
three 1110
e 1059
women 1045
in@@ 1016
as 1004
looking 988
f@@ 978
green 977
b@@ 970
little 956
for 947
child 944
st@@ 939
g@@ 938
s 933
d@@ 931
large 917
outside 915
es 888
p@@ 872
through 872
ers 846
ts 845
yellow 833
ball 828
brown 817
children 816
person 816
er 809
from 780
m@@ 773
their 764
i@@ 760
hat 759
into 753
o@@ 737
out 734
small 731
ra@@ 724
p 718
a@@ 715
other 710
re@@ 710
h@@ 709
l 700
next 697
dressed 677
la@@ 672
ting 669
k@@ 665
over 661
some 661
de@@ 650
er@@ 648
building 646
l@@ 627
running 623
ding 622
riding 617
-@@ 614
t 606
near 604
sh@@ 602
around 599
n@@ 589
y@@ 587
another 586
jacket 585
beach 566
sidewalk 563
field 562
di@@ 557
le 555
table 555
un@@ 553
orange 551
al@@ 550
crowd 548
ar@@ 547
en@@ 543
ks 543
k 540
air 540
st 530
jumping 527
pink 527
stands 525
le@@ 522
sits 517
behind 516
se@@ 514
top 503
background 500
lo@@ 498
snow 497
grass 495
stand 494
bike 491
girls 486
it 484
city 476
&apos;s 471
ds 469
bu@@ 468
ly 468
th@@ 461
player 451
ro@@ 449
wall 448
looks 447
play 439
it@@ 438
o 437
dogs 435
several 431
ac@@ 427
that 426
dress 426
older 425
four 424
w 423
h 421
co@@ 420
se 419
off 416
side 416
hair 415
on@@ 414
v@@ 413
camera 413
king 412
en 410
park 410
talking 408
pa@@ 407
along 406
mo@@ 402
at@@ 398
soccer 398
something 397
old 397
ss 394
lady 394
sa@@ 392
m 391
boys 391
walks 391
road 389
ch 386
al 386
ma@@ 384
working 383
po@@ 379
together 378
guitar 377
ve 374
food 374
its 373
smiling 372
ri@@ 372
walk 371
an@@ 369
car 368
game 367
has 365
lea@@ 364
ti@@ 362
plays 359
gray 359
picture 359
fi@@ 357
hand 352
suit 348
room 348
op@@ 347
ck 346
c 344
ling 343
am@@ 343
con@@ 342
li@@ 341
bench 340
Asian 340
face 338
et 336
holds 335
gs 334
ps 333
per@@ 331
head 331
glasses 328
sit 327
stage 327
or@@ 326
ca@@ 324
pants 324
him 322
ta@@ 320
or 319
shorts 318
ground 317
carrying 315
couple 312
g 311
all 311
les 309
baby 309
them 308
to@@ 306
tree 306
ne@@ 305
ur@@ 305
bicycle 304
race 302
taking 302
way 301
ice 301
C@@ 299
n 298
b 297
back 296
ba@@ 296
pi@@ 296
boat 296
S@@ 296
u@@ 295
ch@@ 295
&quot; 294
each 294
pool 292
male 292
um@@ 292
rock 291
board 291
z@@ 290
ves 289
el@@ 289
day 288
ls 287
doing 286
pla@@ 285
ge 285
hi@@ 284
watching 281
across 280
tra@@ 279
dirt 278
there 277
il@@ 276
ving 275
ir@@ 274
be@@ 273
area 273
jeans 272
ea@@ 271
do@@ 271
go@@ 271
ho@@ 268
guy 268
wa@@ 267
blond 264
sw@@ 264
ex@@ 263
band 261
hands 261
coat 260
ou@@ 260
performing 260
der 258
ys 258
jumps 258
ching 258
baseball 257
we@@ 256
being 255
bo@@ 254
female 251
ter 251
pu@@ 250
ws 249
eating 248
cu@@ 248
who 247
football 247
many 246
bar@@ 245
using 245
striped 244
mouth 243
wing 241
under 241
purple 240
horse 240
sign 238
sk@@ 237
mountain 237
watch 237
ans 236
kids 236
he 236
pe@@ 236
bl@@ 235
long 235
mu@@ 234
store 233
gh@@ 231
be 231
sho@@ 231
sand 230
com@@ 230
wn 229
ck@@ 229
gi@@ 228
ther 228
au@@ 227
this 227
look 227
chair 226
car@@ 226
dark 225
posing 224
runs 224
players 224
ga@@ 223
sunglasses 223
for@@ 223
ying 222
ping 220
trees 220
si@@ 220
covered 219
ets 218
construction 218
microphone 217
ent 217
tennis 217
ce 216
reading 216
hu@@ 215
line 215
clothing 215
ches 214
sh 214
middle 212
che@@ 212
during 211
light 211
M@@ 209
r@@ 209
paper 208
workers 207
basketball 207
dancing 206
uniform 206
ocean 206
work 206
ter@@ 204
clo@@ 204
ss@@ 203
br@@ 203
toy 202
tri@@ 202
ded 202
climbing 201
watches 201
elderly 199
past 199
col@@ 199
helmet 198
against 198
pe 198
restaurant 197
pre@@ 197
train 197
ic@@ 197
ons 197
cla@@ 196
sin@@ 196
t-shirt 195
set 195
te 195
ger 194
ke@@ 194
window 193
rides 193
colored 192
wooden 191
they 191
bri@@ 190
ni@@ 190
stu@@ 189
about 189
team 189
stre@@ 189
sing 189
de 188
fla@@ 188
hel@@ 188
cha@@ 187
ate 186
fa@@ 186
sc@@ 186
floor 185
outdoor 184
et@@ 184
very 183
swimming 183
bag 183
waiting 182
em@@ 182
having 181
cks 181
ele@@ 180
ge@@ 179
sel@@ 178
colorful 178
shirts 177
cor@@ 177
five 176
ted 176
getting 176
trying 175
skateboard 175
ine 175
truck 175
sm@@ 174
busy 173
fence 173
ation 172
hill 172
and@@ 171
leaning 170
r 170
cal 169
slee@@ 169
pos@@ 169
sta@@ 168
jump 168
over@@ 167
singing 167
te@@ 167
book 167
tr@@ 165
age 165
vi@@ 165
B@@ 164
ru@@ 164
cart 164
cing 164
market 163
ement 163
dd@@ 163
lake 163
fac@@ 162
f 162
body 162
dr@@ 162
inside 162
ght 162
sts 162
ant 161
no@@ 161
laying 161
ad@@ 161
me@@ 161
low 160
ven@@ 160
ki@@ 160
bal@@ 160
path 159
mar@@ 159
ats 159
high 159
night 158
ill@@ 158
bright 158
river 158
ride 158
ap@@ 157
oo@@ 157
hoo@@ 157
ty 157
ders 157
ces 157
hats 156
ff@@ 156
du@@ 156
tan 156
ard 156
grassy 156
cap 156
ors 156
su@@ 154
A@@ 154
T@@ 154
ings 154
making 154
stone 153
phone 152
big 152
track 152
clothes 152
someone 151
others 151
dan@@ 151
takes 149
kitchen 149
sp@@ 149
ha@@ 149
ol@@ 148
bus 148
par@@ 148
pass@@ 148
brick 148
umbrella 148
cellphone 147
surrounded 147
coun@@ 147
he@@ 147
fe@@ 147
towards 146
full 146
fli@@ 146
tur@@ 146
blo@@ 146
led 146
ear 146
outfit 145
motorcycle 145
gar@@ 144
ars 143
tal@@ 143
als 143
enjoying 143
x@@ 143
ready 142
form 142
shop 142
ating 141
metal 141
tea@@ 141
ite 140
gging 140
house 139
pic@@ 139
piece 139
swing 139
shes 138
above 138
bridge 138
she 138
going 138
ous 138
surf@@ 138
me 137
dra@@ 137
cket 137
arm 136
trick 136
om@@ 136
boo@@ 136
sk 136
ns 136
-haired 135
sweater 135
open 134
sha@@ 134
stick 134
shing 134
el 134
is@@ 134
qu@@ 133
tank 133
eat 133
ght@@ 133
ner 133
snowy 132
ver 132
painting 131
kers 131
adults 131
mat@@ 131
worker 131
ban@@ 131
dri@@ 129
gr@@ 129
tu@@ 129
mon@@ 129
ep 129
like 128
pro@@ 128
kne@@ 128
xing 128
wave 128
water@@ 128
str@@ 128
cl@@ 128
music 127
bro@@ 127
beside 127
ched 127
head@@ 127
sto@@ 126
crowded 126
mi@@ 126
ning 126
dance 126
onto 126
vest 125
ave@@ 125
cat@@ 125
ten@@ 125
ses 125
flowers 125
shopping 124
thro@@ 124
outdoors 123
cur@@ 123
sli@@ 123
fire 123
sun@@ 123
photo 123
uniforms 123
hard 122
cro@@ 122
bot@@ 122
wi@@ 122
smiles 122
bir@@ 122
lot 122
skat@@ 122
stri@@ 122
us@@ 121
art 121
run 121
hand@@ 120
brea@@ 120
backpack 120
gear 120
pole 120
aving 119
wal@@ 118
snow@@ 118
pl@@ 118
kes 117
gu@@ 117
ke 117
iling 117
drinking 117
ati@@ 117
ste@@ 116
ble 116
rea@@ 115
rope 115
sand@@ 115
toddler 115
kid 115
subway 115
hanging 115
kic@@ 114
catch 114
els 114
hockey 114
arms 114
cra@@ 114
out@@ 114
spea@@ 114
pat@@ 113
family 113
fishing 113
ent@@ 113
costume 113
forest 113
ence 112
oc@@ 112
away 112
ey@@ 112
shoes 112
ft 112
event 112
police 111
back@@ 111
beautiful 111
ary 111
gathered 111
fin@@ 111
yard 111
cam@@ 110
sleeping 110
d-@@ 110
deo 110
bar 110
i 109
tables 109
ot@@ 109
um 109
flo@@ 109
can@@ 109
teen@@ 109
aring 109
guys 108
pon@@ 108
rocks 108
motor@@ 108
fountain 108
2 108
ening 108
offic@@ 108
attemp@@ 108
chairs 108
poin@@ 108
stairs 108
preparing 107
G@@ 107
ballo@@ 107
wood 107
object 107
dis@@ 107
after 107
ped 107
ju@@ 107
P@@ 107
ce@@ 107
steps 106
fire@@ 106
door 106
wel@@ 106
py 106
graffiti 106
D@@ 105
pan@@ 105
selling 105
hom@@ 105
fol@@ 105
cycli@@ 105
glass 105
gre@@ 105
scen@@ 104
tall 104
machine 104
E@@ 104
take 103
ile 103
American 103
av@@ 103
stic@@ 103
plaid 103
practi@@ 103
run@@ 103
volleyball 103
racing 103
sky 102
ver@@ 102
im@@ 102
j@@ 101
cre@@ 101
asian 101
spor@@ 101
ker 100
shirtless 100
ci@@ 100
photograph@@ 100
il 99
int 99
adult 99
parade 99
ales 98
bun@@ 98
gro@@ 98
bow@@ 98
tle 98
sunny 98
throwing 98
ph@@ 98
view 98
time 98
mountains 98
fore@@ 98
J@@ 97
setting 97
hap@@ 97
jo@@ 97
rol@@ 97
gg@@ 97
does 97
ve@@ 97
lu@@ 97
corner 97
pose 96
African 96
hea@@ 96
putting 96
drum@@ 96
get 96
gra@@ 96
des 96
gentlem@@ 95
pushing 95
sca@@ 95
ssing 95
list@@ 95
loo@@ 95
man@@ 95
sig@@ 95
ery 94
public 94
phones 94
mer 94
ser@@ 94
ag@@ 94
between 94
dy 93
have 93
bed 93
eling 93
onal 93
ction 93
scarf 93
ramp 93
ops 93
H@@ 93
un 93
ition 92
try 92
short 92
clu@@ 92
drink 92
woods 92
; 92
spe@@ 92
sting 92
vehic@@ 91
sun 91
plastic 91
wh@@ 91
fish 91
slide 91
ment 91
emp@@ 91
reads 91
lar 91
ai@@ 91
both 91
L@@ 91
flag 90
works 90
ue 90
roller 90
sol@@ 90
couch 90
shoul@@ 90
equipment 90
ned 90
pictures 90
skateboar@@ 90
compe@@ 90
tion 90
plan@@ 89
skirt 89
ie 89
laughing 89
ely 89
ladies 89
poses 89
computer 89
cking 89
ese 89
glo@@ 89
na@@ 89
bul@@ 89
all@@ 89
party 89
instruments 88
pes 88
haired 88
concrete 88
bik@@ 88
row 88
under@@ 88
statue 88
x 88
foot 88
lif@@ 88
winter 88
climb@@ 87
buildings 87
ining 87
ated 87
where 87
sweatshirt 87
can 87
suits 87
bikes 87
ked 87
lined 87
O@@ 87
which 86
fet@@ 86
ligh@@ 86
ines 86
cowboy 86
ski@@ 86
ems 86
trail 86
distance 86
pil@@ 85
stra@@ 85
beard 85
den 85
N@@ 85
playground 84
sil@@ 84
val 84
hol@@ 84
ms 84
up@@ 84
rider 84
cher 84
der@@ 83
compet@@ 83
rest@@ 83
ty@@ 83
ins 83
din@@ 83
toward 83
wheel@@ 83
ggles 83
bor@@ 83
just 83
midair 83
ley 82
pur@@ 82
bla@@ 82
thing 82
pping 82
shore 82
seated 82
im 82
inter@@ 82
wr@@ 82
number 82
dium 82
place 82
air@@ 82
tatto@@ 81
e-@@ 81
dock 81
ster 81
sur@@ 81
cooking 81
what 81
bags 81
she@@ 80
multi@@ 80
ure 80
ens 80
crossing 80
scre@@ 80
vari@@ 80
ally 80
cars 80
mea@@ 79
dding 79
ben@@ 79
flying 79
mas 79
musici@@ 79
filled 79
iz@@ 79
beer 78
attire 78
cross 78
instrument 78
bat@@ 78
fen@@ 78
horses 78
mother 78
six 78
ct 78
wrest@@ 78
sed 78
news@@ 78
appears 78
leaves 78
her@@ 78
tor 77
blan@@ 77
rocky 77
vests 77
left 77
cliff 77
enjo@@ 77
R@@ 77
cutting 77
cheer@@ 77
tent 77
arts 77
prepar@@ 77
make 77
est 77
win@@ 76
showing 76
dark@@ 76
dor 76
tro@@ 76
squ@@ 76
ack 76
blond-hair 76
pulling 76
pin@@ 76
spectators 76
ry 76
few 76
show 76
ar 76
th 76
vege@@ 76
cer@@ 76
W@@ 75
painted 75
parked 75
nearby 75
right 75
flower 75
pped 75
ved 75
friends 75
por@@ 75
inging 75
F@@ 75
middle-aged 75
bicycli@@ 75
go 75
station 74
edge 74
ven 74
gers 74
skateboarder 74
carries 74
apron 74
Frisbee 74
ad 74
youn@@ 74
bicyc@@ 74
ath@@ 74
jersey 74
dresses 74
shot 74
court 74
driving 73
ler 73
bearded 73
fruit 73
wn@@ 73
ket 73
ream 73
net 73
the@@ 73
off@@ 73
performs 73
cal@@ 73
snowboarder 73
pul@@ 72
structure 72
shi@@ 72
fo@@ 72
bles 72
ig@@ 72
pit@@ 72
school 72
box 72
rela@@ 72
concert 71
bowling 71
parking 71
jack@@ 71
har@@ 71
ffe@@ 70
grill 70
ple 70
son 70
prote@@ 70
lit 70
arti@@ 70
roll@@ 70
cake 69
cti@@ 69
swe@@ 69
so@@ 69
ul@@ 69
lan@@ 69
stom@@ 69
mir@@ 69
iting 69
ic 69
surfer 69
ral 68
marti@@ 68
whe@@ 68
ill 68
smoking 68
rain 68
aves 67
tre@@ 67
mem@@ 67
ates 67
cigarette 67
hor@@ 67
Indi@@ 67
ct@@ 66
ier 66
diff@@ 66
dents 66
conver@@ 65
balan@@ 65
ring 65
costumes 65
cel@@ 65
ber 64
ards 64
dire@@ 64
ban 64
ette 64
cer 64
ait 63
conversation 63
boar@@ 63
sle@@ 63
han@@ 63
long@@ 63
fal@@ 63
milit@@ 63
prin@@ 62
min@@ 62
uses 62
viol@@ 62
tie 61
tor@@ 61
bikini 61
ple@@ 61
drin@@ 61
om 61
ants 61
fle@@ 60
tw@@ 60
kaya@@ 60
crou@@ 60
wor@@ 60
tes 60
3 60
match 60
fer@@ 60
obser@@ 59
tran@@ 59
do 59
pile 59
cli@@ 59
sort 59
indivi@@ 58
bi@@ 58
gather@@ 58
ents 58
sof@@ 57
ong 56
ong@@ 56
mer@@ 56
id 56
marathon 56
sti@@ 55
animal 55
basket 55
produ@@ 55
ctri@@ 54
ges 54
dir@@ 54
ski 54
ise 54
zz@@ 54
us 54
gh 53
woo@@ 53
fre@@ 53
proje@@ 53
gle 53
hin@@ 53
traditi@@ 53
tou@@ 53
perform@@ 53
dge 52
scooter 52
ail 52
form@@ 52
cit@@ 52
cano@@ 52
box@@ 51
per 51
blond-@@ 51
ils 51
course 51
la 51
brun@@ 51
stor@@ 51
sty@@ 51
fem@@ 51
pain@@ 50
U@@ 50
wat@@ 50
cyc@@ 50
ound 49
frien@@ 49
ton 49
guit@@ 49
ful@@ 49
skate 49
gymna@@ 48
jum@@ 48
ging 48
die 48
I@@ 48
ran@@ 48
exam@@ 48
para@@ 48
play@@ 47
adver@@ 47
discu@@ 47
eld 47
cr@@ 47
partici@@ 47
base 47
pr@@ 46
ori@@ 46
oun@@ 46
Y@@ 46
ol 46
ouse 45
ssion 45
clown 45
caf@@ 45
umbrel@@ 45
ack@@ 45
cho@@ 45
sses 45
ade 44
key 44
ures 44
sert 44
K@@ 44
1@@ 44
musi@@ 44
tal 44
da@@ 44
cir@@ 43
iti@@ 43
je@@ 43
golf 42
vie@@ 42
pier 42
bra@@ 42
ire 42
chi@@ 42
und 42
ja@@ 42
son@@ 41
fl@@ 41
gol@@ 41
pati@@ 41
soc@@ 41
atta@@ 41
cover@@ 40
tunnel 40
work@@ 40
suspen@@ 40
rou@@ 40
ari@@ 40
dro@@ 40
atten@@ 40
ny 40
lun@@ 40
V@@ 40
lin@@ 40
sculpture 39
stru@@ 39
ican 39
kar@@ 39
pot 39
chef 39
mes 39
ber@@ 39
photogra@@ 39
ball@@ 38
lar@@ 38
pare 38
carri@@ 38
bran@@ 38
microscope 38
esc@@ 38
ope 38
poli@@ 38
festi@@ 38
robe 38
tire 38
touri@@ 38
pour@@ 37
part 37
swimm@@ 37
ies 37
lots 37
beige 37
4 37
new@@ 37
windo@@ 37
ima@@ 37
0@@ 37
cle 36
maga@@ 36
rying 36
cri@@ 36
dent 36
vers 36
pal@@ 36
mach@@ 35
V 35
vol@@ 35
pri@@ 35
&apos@@ 35
visi@@ 35
ki 35
trampoline 35
port 35
ym@@ 35
ble@@ 35
our 34
bou@@ 34
ado@@ 34
nav@@ 34
snowboar@@ 34
cou@@ 34
fra@@ 33
fr@@ 33
ot 33
fro@@ 32
spec@@ 32
mor@@ 32
fil@@ 32
sit@@ 32
march@@ 32
sem@@ 32
professi@@ 32
sen@@ 31
num@@ 31
ires 31
appe@@ 31
scu@@ 31
char@@ 31
bec@@ 30
dre@@ 30
enti@@ 30
ace 30
ray@@ 30
uni@@ 30
chu@@ 30
cour@@ 29
jean 29
ssi@@ 29
ones 29
tin@@ 29
lau@@ 29
tow@@ 29
pol@@ 29
robes 29
pav@@ 29
side@@ 29
assi@@ 29
ass@@ 28
scar@@ 28
que 28
camer@@ 28
pen@@ 28
anim@@ 28
ful 28
quat@@ 28
backp@@ 28
lam@@ 28
sal@@ 28
uring 28
skir@@ 28
ily 28
2@@ 28
colo@@ 27
pli@@ 27
escal@@ 27
shop@@ 27
ool 27
ages 27
color@@ 27
jerse@@ 27
mil@@ 27
ou 26
our@@ 26
ance 26
5 26
ctions 26
ff 26
ion 26
laugh@@ 26
use 26
lit@@ 26
polo 26
sport 26
micro@@ 26
1 26
fs 25
aut@@ 25
flow@@ 25
ut@@ 25
motocross 25
grou@@ 25
A 25
une 25
frisbee 25
u 25
of@@ 24
obstac@@ 24
surf 24
pet@@ 24
ur 24
nent 24
figure 23
ave 23
surroun@@ 23
foot@@ 22
0 22
some@@ 22
sweat@@ 22
tom@@ 22
pra@@ 22
! 22
chers 22
orche@@ 22
mounta@@ 22
af@@ 22
shor@@ 22
I 22
met@@ 22
ther@@ 21
irs 21
but 21
buil@@ 21
( 21
ich 21
chan@@ 21
che 21
rough 21
ir 21
fu@@ 21
tron@@ 21
quet 21
ockey 21
uniform@@ 20
tru@@ 20
pull 20
bask@@ 20
fruits 20
) 20
Asi@@ 20
parti@@ 20
sub@@ 20
cell@@ 20
ree 20
cow@@ 20
.@@ 20
afri@@ 20
bill@@ 19
ob@@ 19
ises 19
eu@@ 19
bon@@ 19
sculp@@ 19
S 19
tat@@ 19
-shirts 19
asi@@ 19
stand@@ 19
tem@@ 19
X 19
ram@@ 19
comm@@ 18
lage 18
ands 18
nu@@ 18
ssy 18
loy@@ 18
icyc@@ 18
condu@@ 18
pie@@ 18
crow@@ 18
ess@@ 18
lean@@ 18
ne 18
T-shirt 17
circu@@ 17
less 17
compu@@ 17
cas@@ 17
ture 17
gym@@ 17
&apos;@@ 17
ites 17
embra@@ 17
iture 17
ili@@ 17
sse 17
&a@@ 16
space 16
tan@@ 16
aged 16
photos 16
sent 16
obje@@ 16
men@@ 16
gli@@ 15
3@@ 15
sau@@ 15
stat@@ 15
sou@@ 15
cade 15
yel@@ 15
Afri@@ 15
terrain 15
qui@@ 15
cycle 15
colli@@ 15
Amer@@ 15
tage 15
mb@@ 15
indi@@ 15
usi@@ 15
point 15
mou@@ 14
sco@@ 14
cher@@ 14
ere 14
attra@@ 14
lem@@ 14
sor@@ 14
cture 14
let@@ 14
acro@@ 14
arri@@ 13
jet 13
gri@@ 13
stance 13
cs 13
cloth@@ 13
are@@ 13
plu@@ 13
le-@@ 13
gla@@ 13
8 13
6 13
shir@@ 13
5@@ 13
scoot@@ 12
C 12
apr@@ 12
nel 12
ren@@ 12
va@@ 12
dies 12
M 12
oth@@ 12
kit@@ 12
tures 12
mid@@ 11
constru@@ 11
appar@@ 11
dar@@ 11
pier@@ 11
vit@@ 11
foo@@ 11
lon@@ 11
oranges 11
E 11
roun@@ 11
todd@@ 10
bre@@ 10
stac@@ 10
ulti@@ 10
sy 10
hind 10
z 10
cin@@ 10
floo@@ 10
9@@ 10
# 10
dor@@ 10
O 10
dress@@ 10
ach@@ 10
bes 9
J 9
s-@@ 9
vir@@ 9
diti@@ 9
pel@@ 9
moto@@ 9
4@@ 9
tun@@ 9
Y 9
ore@@ 9
bikin@@ 9
som@@ 9
iss@@ 9
tro 8
ues 8
ign@@ 8
hau@@ 8
fri@@ 8
pau@@ 8
comb@@ 8
founta@@ 8
tour@@ 8
gir@@ 8
descen@@ 8
ettes 8
D 8
rock@@ 8
bee 8
shou@@ 8
spect@@ 8
ser 8
vo@@ 8
- 8
graff@@ 8
re 7
trot@@ 7
9 7
zone 7
cigar@@ 7
ments 7
ste 7
? 7
roses 7
fit 7
sac@@ 7
pou@@ 7
dess@@ 7
7 7
8@@ 7
6@@ 7
main 6
unes 6
fam@@ 6
pant 6
gues 6
W 6
v 6
personn@@ 6
profe@@ 6
sno@@ 6
ron 6
grand 6
dos 6
P 6
re-@@ 6
abo@@ 6
scope 6
chil@@ 6
portable 6
N 6
spen@@ 6
tag@@ 6
cham@@ 6
near@@ 6
sage 5
ith 5
rem@@ 5
mail@@ 5
tting 5
read@@ 5
L 5
U 5
marches 5
cert 5
basket@@ 5
specta@@ 5
attendant 5
Q@@ 5
strum@@ 5
rer 5
pied 5
util@@ 5
gent 5
prom@@ 5
grim@@ 5
trou@@ 5
chant 5
gne 5
mani@@ 5
mot@@ 5
vent 4
bear@@ 4
nant 4
jam@@ 4
ements 4
T-shirts 4
restau@@ 4
peop@@ 4
adolesc@@ 4
equip@@ 4
chool 4
descend 4
prof@@ 4
yc@@ 4
dings 4
fru@@ 4
Z@@ 4
T 4
rose 4
sque 4
R 4
proxim@@ 4
sant 4
X@@ 4
sol 4
-shirt 4
chem@@ 4
regar@@ 3
pren@@ 3
yant 3
Q 3
route 3
trav@@ 3
ro 3
In@@ 3
adul@@ 3
oran@@ 3
attend 3
tant 3
graffit@@ 3
ale 3
tabl@@ 3
: 3
K 3
tout 3
quel@@ 3
F 3
lance 3
lons 3
aga@@ 3
volle@@ 3
rand@@ 3
G 3
enf@@ 3
onn@@ 3
middle-@@ 3
bout 3
violet 3
beauti@@ 3
gent@@ 3
blon@@ 3
blonde 3
iers 2
derly 2
plan 2
bonnet 2
ux 2
traverse 2
ques 2
sa 2
met 2
No@@ 2
tte 2
portant 2
aux 2
tiss@@ 2
pour 2
j 2
journal 2
sweat 2
,@@ 2
rine 2
jou@@ 2
veral 2
barb@@ 2
due 2
ay@@ 2
ensemble 2
H 2
` 2
% 2
rant 2
pom@@ 2
ordin@@ 2
lac 2
du 2
ouv@@ 2
mari@@ 2
aya@@ 2
par 2
combin@@ 1
isi@@ 1
mains 1
bas 1
B 1
etting 1
los 1
spectat@@ 1
imm@@ 1
ille 1
hors 1
vres 1
publ@@ 1
stes 1
urs 1
toboggan 1
res 1
sous 1
nu 1
twe@@ 1
mic@@ 1
gars 1
again@@ 1
-ball 1
skate@@ 1
entre 1
ffect@@ 1
mout@@ 1
q@@ 1
oking 1
eur 1
hic@@ 1
eurs 1
shirt@@ 1
wom@@ 1
enou@@ 1
chemise 1
utili@@ 1
q 1
fai@@ 1
scul@@ 1
7@@ 1
concre@@ 1
$ 1
bras 1
photo@@ 1
traver@@ 1
vert 1
oce@@ 1
Fri@@ 1
pay@@ 1
nis 1
fou@@ 1
fon@@ 1
smil@@ 1
sac 1
onne 1
fum@@ 1
journ@@ 1
quette 1
coin 1
tram@@ 1
midd@@ 1
leur 1
cuisine 1
= 1
bout@@ 1
bre 1
coup 1
/ 1
