a 52616
. 29369
in 15947
the 11762
on 8794
man 8272
is 8024
and 7854
of 7358
with 6646
woman 4227
, 4185
two 4118
are 4014
to 3329
people 3308
an 3290
at 3190
wearing 2750
young 2406
white 2372
shirt 2213
black 2132
his 2107
while 2056
blue 1999
red 1884
men 1883
sitting 1843
girl 1832
dog 1824
boy 1780
standing 1710
playing 1694
group 1648
street 1553
down 1507
walking 1474
front 1394
her 1337
holding 1302
one 1194
by 1171
water 1147
three 1110
women 1045
up 1013
as 1004
green 977
little 956
for 947
child 944
looking 936
large 917
outside 915
through 872
yellow 833
brown 817
children 816
person 816
ball 793
from 780
their 764
hat 759
into 753
ed 735
small 731
other 710
out 698
next 697
dressed 677
over 661
some 661
building 646
running 623
riding 617
y 608
near 604
around 599
another 586
jacket 585
e@@ 577
beach 566
sidewalk 563
field 562
orange 551
crowd 548
ing 542
table 528
jumping 527
pink 527
stands 525
sits 517
behind 516
background 500
snow 497
grass 495
stand 494
bike 491
girls 486
city 476
&apos;s 471
air 469
top 462
d@@ 452
player 451
wall 448
looks 447
dogs 435
several 431
w@@ 426
s@@ 426
that 426
dress 426
older 425
four 424
d 419
in@@ 418
off 416
ding 415
-@@ 415
camera 413
park 410
talking 408
a@@ 407
along 406
soccer 398
something 397
lady 394
boys 391
walks 391
hair 386
working 383
play 381
es 379
together 378
side 378
guitar 377
it 377
food 374
t@@ 374
smiling 372
er 370
car 368
game 367
has 365
i@@ 362
s 362
road 361
plays 359
gray 359
picture 359
hand 352
y@@ 343
old 342
g@@ 341
re@@ 341
bench 340
Asian 340
walk 336
holds 335
head 331
glasses 328
st@@ 328
o@@ 328
sit 327
stage 327
pants 324
him 322
shorts 318
ds 317
carrying 315
ers 314
couple 312
t 309
p 309
baby 309
them 308
b@@ 308
k@@ 306
tree 306
bicycle 304
face 304
race 302
taking 302
ting 301
back 296
boat 296
&quot; 294
each 294
suit 293
pool 292
male 292
room 292
ts 292
rock 291
l 290
de@@ 289
day 288
sh@@ 287
doing 286
p@@ 285
watching 281
across 280
or 279
dirt 278
there 277
f@@ 274
area 273
jeans 272
ground 271
ly 270
its 270
guy 268
st 267
blond 264
band 261
hands 261
coat 260
performing 260
k 260
c@@ 258
jumps 258
baseball 257
being 255
m@@ 253
female 251
eating 248
who 247
l@@ 247
football 247
many 246
using 245
striped 244
mouth 243
S@@ 242
un@@ 241
under 241
lo@@ 241
purple 240
horse 240
e 239
sign 238
ar@@ 237
ps 237
mountain 237
watch 237
kids 236
he 236
long 235
store 233
sand 230
this 227
look 227
dark 225
runs 224
all 224
di@@ 224
players 224
li@@ 223
sunglasses 223
trees 220
construction 218
microphone 217
tennis 217
reading 216
line 215
clothing 215
h@@ 213
middle 212
ch 212
u@@ 211
during 211
it@@ 211
con@@ 209
po@@ 207
workers 207
basketball 207
dancing 206
uniform 206
g 206
ocean 206
work 206
se@@ 205
ti@@ 205
be 204
ra@@ 204
la@@ 203
toy 202
climbing 201
en@@ 201
ro@@ 201
watches 201
elderly 199
past 199
helmet 198
against 198
restaurant 197
chair 197
train 197
ca@@ 197
covered 195
t-shirt 195
window 193
rides 193
at@@ 192
wooden 191
they 191
about 189
board 189
o 189
team 189
ri@@ 188
car@@ 188
al@@ 187
posing 187
floor 185
light 184
outdoor 184
ice 183
very 183
an@@ 183
swimming 183
bag 183
waiting 182
having 181
er@@ 179
colorful 178
shirts 177
le 177
five 176
ted 176
getting 176
n@@ 176
way 175
trying 175
skateboard 175
truck 175
mo@@ 175
pe@@ 174
busy 173
am@@ 173
fence 173
m 172
ve 172
hill 172
ch@@ 171
en 169
jump 168
singing 167
book 167
C@@ 166
ck 166
co@@ 165
ac@@ 164
cart 164
market 163
lake 163
body 162
sc@@ 162
inside 162
laying 161
th@@ 160
path 159
high 159
or@@ 159
night 158
bright 158
river 158
bar@@ 158
ride 158
on@@ 157
hats 156
tan 156
v@@ 156
grassy 156
cap 156
bu@@ 154
making 154
le@@ 154
stone 153
phone 152
mu@@ 152
big 152
track 152
clothes 152
someone 151
others 151
ling 150
king 150
takes 149
ic@@ 149
kitchen 149
colored 148
bus 148
ls 148
r@@ 148
brick 148
umbrella 148
cellphone 147
surrounded 147
towards 146
full 146
ta@@ 145
il@@ 145
outfit 145
motorcycle 145
der 145
paper 144
enjoying 143
ready 142
shop 142
metal 141
house 139
piece 139
ex@@ 139
swing 139
above 138
bridge 138
be@@ 138
she 138
going 138
ws 137
arm 136
ma@@ 136
trick 136
ba@@ 135
sweater 135
open 134
stick 134
les 133
tank 133
set 133
snowy 132
el@@ 132
n 132
painting 131
to@@ 131
adults 131
cu@@ 131
gs 131
worker 131
w 130
lea@@ 130
like 128
wave 128
music 127
ter 127
beside 127
crowded 126
ning 126
dance 126
onto 126
ad@@ 125
vest 125
wa@@ 125
me@@ 125
flowers 125
ying 124
B@@ 124
ation 124
ea@@ 124
shopping 124
T@@ 124
outdoors 123
z@@ 123
fire 123
photo 123
uniforms 123
hard 122
ks 122
pre@@ 122
smiles 122
lot 122
ss 122
M@@ 121
run 121
ces 121
hand@@ 120
backpack 120
gear 120
pole 120
al 119
si@@ 119
ching 118
che@@ 118
tra@@ 117
ke 117
drinking 117
rope 115
do@@ 115
toddler 115
kid 115
subway 115
op@@ 115
hanging 115
ating 114
catch 114
hockey 114
arms 114
ate 114
se 113
bl@@ 113
family 113
fishing 113
costume 113
forest 113
away 112
et@@ 112
sh 112
shoes 112
et 112
led 112
event 112
police 111
beautiful 111
gathered 111
sk@@ 110
sleeping 110
te@@ 110
pa@@ 110
ches 110
bar 110
mar@@ 109
leaning 109
guys 108
rocks 108
fountain 108
chairs 108
stairs 108
preparing 107
G@@ 107
wood 107
object 107
after 107
A@@ 107
shes 106
steps 106
fire@@ 106
te 106
graffiti 106
D@@ 105
selling 105
um@@ 105
glass 105
gre@@ 105
tall 104
machine 104
ce 103
take 103
American 103
plaid 103
volleyball 103
racing 103
sky 102
pi@@ 102
cre@@ 101
ons 101
asian 101
shirtless 100
adult 99
parade 99
go@@ 99
du@@ 98
sunny 98
snow@@ 98
throwing 98
ir@@ 98
view 98
time 98
mountains 98
no@@ 97
setting 97
art 97
does 97
dra@@ 97
corner 97
bro@@ 96
pose 96
African 96
b 96
putting 96
get 96
des 96
pushing 95
P@@ 95
tur@@ 95
r 94
ery 94
pro@@ 94
public 94
wing 94
2 94
between 94
ves 93
have 93
bed 93
ses 93
scarf 93
com@@ 93
ramp 93
H@@ 93
we@@ 92
c 92
short 92
hu@@ 92
drink 92
woods 92
vi@@ 92
sting 92
sun 91
plastic 91
wh@@ 91
fish 91
slide 91
reads 91
both 91
flag 90
works 90
tri@@ 90
couch 90
equipment 90
pictures 90
ded 90
ol@@ 89
skirt 89
laughing 89
sp@@ 89
ladies 89
E@@ 89
poses 89
water@@ 89
computer 89
gu@@ 89
sing 89
party 89
instruments 88
concrete 88
cal 88
statue 88
pu@@ 88
winter 88
cks 87
buildings 87
ining 87
where 87
sweatshirt 87
can 87
x 87
suits 87
bikes 87
cra@@ 87
ked 87
ck@@ 87
ors 87
lined 87
which 86
pan@@ 86
el 86
ru@@ 86
cowboy 86
per@@ 86
trail 86
distance 86
om@@ 86
mi@@ 85
ger 85
ter@@ 85
beard 85
gra@@ 85
over@@ 85
playground 84
ten@@ 84
rider 84
yard 84
ins 83
ping 83
toward 83
ble 83
just 83
midair 83
str@@ 83
ings 82
bo@@ 82
pping 82
shore 82
seated 82
ped 82
number 82
fi@@ 82
sa@@ 82
e-@@ 81
dock 81
ster 81
pla@@ 81
cooking 81
what 81
bags 81
ens 80
crossing 80
ju@@ 80
ally 80
f 80
cars 80
flo@@ 79
ap@@ 79
ben@@ 79
wi@@ 79
flying 79
motor@@ 79
sts 79
filled 79
stri@@ 79
su@@ 78
beer 78
sha@@ 78
attire 78
cross 78
instrument 78
bat@@ 78
horses 78
mother 78
six 78
head@@ 78
fa@@ 78
hi@@ 78
ho@@ 78
appears 78
leaves 78
pes 77
ans 77
rocky 77
vests 77
left 77
cliff 77
R@@ 77
cutting 77
tent 77
arts 77
make 77
ur@@ 76
win@@ 76
showing 76
cla@@ 76
ack 76
blond-hair 76
pulling 76
spectators 76
ry 76
few 76
show 76
ai@@ 76
L@@ 76
W@@ 75
painted 75
parked 75
nearby 75
right 75
flower 75
ved 75
friends 75
for@@ 75
F@@ 75
middle-aged 75
go 75
he@@ 75
station 74
i 74
edge 74
skateboarder 74
door 74
carries 74
apron 74
Frisbee 74
ce@@ 74
mon@@ 74
jersey 74
ban@@ 74
dresses 74
shot 74
court 74
driving 73
bearded 73
fruit 73
can@@ 73
net 73
performs 73
cal@@ 73
snowboarder 73
tr@@ 72
structure 72
gr@@ 72
ched 72
ine 72
bathing 72
cream 72
lying 72
school 72
box 72
kes 71
concert 71
bowling 71
parking 71
perform 71
cing 71
coming 71
age 71
smile 71
ss@@ 71
grill 70
son 70
wet 70
home 70
vendor 70
tu@@ 70
lit 70
cake 69
cup 69
so@@ 69
dr@@ 69
um 69
bird 69
but@@ 69
drums 69
various 69
ne@@ 69
boots 69
ic 69
surfer 69
vehicle 68
flags 68
paint 68
goggles 68
de 68
ad 68
younger 68
martial 68
empty 68
ill 68
smoking 68
rain 68
scene 67
competition 67
wn 67
tre@@ 67
cur@@ 67
eyes 67
ous 67
ates 67
cigarette 67
low 67
rodeo 67
ving 67
gentleman 66
els 66
ity 66
hit 66
bucket 66
listening 66
bel@@ 66
practicing 66
cement 66
em@@ 66
coffee 65
kicking 65
ker 65
bottle 65
ring 65
mat@@ 65
swinging 65
costumes 65
talks 65
prepares 65
skating 65
students 65
ber 64
oc@@ 64
waves 64
safety 64
fli@@ 64
roof 64
fol@@ 64
ned 64
newspaper 64
alley 64
jackets 64
ci@@ 64
ent 64
fo@@ 64
O@@ 64
ladder 63
pic@@ 63
conversation 63
ely 63
dri@@ 63
different 63
audience 63
no 63
ated 63
tro@@ 63
items 63
onlookers 63
ge 63
skateboarding 63
staring 63
competing 63
class 62
qu@@ 62
wait 62
bunch 62
facing 62
skier 62
country 62
railing 62
gather 62
cam@@ 62
ight 62
ish 62
ial 62
inter@@ 62
sunset 62
military 62
ach 62
uses 62
sli@@ 62
bull 62
biker 62
cleaning 61
tie 61
blanket 61
rail 61
bikini 61
sliding 61
sun@@ 61
tries 61
bicycles 61
mer 61
giving 61
hold 61
gloves 61
drinks 61
sports 61
signs 61
gets 61
hot 61
tw@@ 60
bowl 60
ver@@ 60
stop 60
lawn 60
tes 60
ser@@ 60
sn@@ 60
3 60
feet 60
match 60
chasing 60
ump@@ 60
ge@@ 60
ear 60
pointing 60
before 60
desk 60
balloon 59
do 59
leaps 59
meal 59
pile 59
fla@@ 59
ard 59
jo@@ 59
ders 59
ven@@ 59
ni@@ 59
shed 59
ment 59
streets 59
sort 59
vegetables 59
sel@@ 59
teams 59
ite 58
ste@@ 58
ler 58
walkway 58
ul@@ 58
ou@@ 58
bri@@ 58
bs 58
bi@@ 58
platform 58
cyclist 58
gathering 58
pil@@ 58
lights 58
display 58
back@@ 58
ke@@ 58
ats 58
na@@ 58
photograph@@ 58
place 58
bride 57
pon@@ 57
row 57
huge 57
gi@@ 57
pass 57
fe@@ 57
tea@@ 57
surfing 57
mask 57
wedding 56
seen 56
ele@@ 56
happy 56
sticks 56
fin@@ 56
cut 56
par@@ 56
Indian 56
me 56
id 56
classroom 56
x@@ 56
speaking 56
br@@ 56
surfboard 56
marathon 56
fighting 55
climbs 55
silver 55
hel@@ 55
blo@@ 55
kissing 55
counter 55
screen 55
helmets 55
ff@@ 55
throw 55
wer 55
gold 55
animal 55
basket 55
ns 55
purse 54
sm@@ 54
urban 54
wheel@@ 54
shing 54
spe@@ 54
ski 54
sings 54
musicians 54
ga@@ 53
J@@ 53
talk 53
us@@ 53
site 53
break 53
arm@@ 53
traditional 53
same 53
runner 53
air@@ 53
N@@ 53
waits 53
town 53
skiing 53
us 53
stroller 52
overlooking 52
dd@@ 52
hole 52
scooter 52
sea@@ 52
legs 52
diving 52
pl@@ 52
ops 52
fac@@ 51
father 51
per 51
bur@@ 51
lap 51
course 51
blowing 51
stor@@ 51
ft 51
stra@@ 51
ar 51
eat 51
attempting 51
cher 51
violin 51
au@@ 51
females 51
cand@@ 50
tables 50
made 50
asleep 50
shoulder 50
kneeling 50
sho@@ 50
wear 50
outfits 50
ters 50
artist 50
sta@@ 50
mirror 50
U@@ 50
bor@@ 50
py 50
ence 49
der@@ 49
dis@@ 49
cro@@ 49
waving 49
blond-haired 49
ary 49
faces 49
smo@@ 49
brunette 49
bald 49
celebr@@ 49
officer 49
end 49
writing 49
skate 49
headphones 49
oper@@ 48
j@@ 48
bea@@ 48
pat@@ 48
oo@@ 48
col@@ 48
rolling 48
balloons 48
bubbles 48
says 48
ton 48
wheel 48
ging 48
I@@ 48
fully 48
mer@@ 48
har@@ 48
business 48
rain@@ 47
alone 47
ars 47
electric 47
ges 47
swim 47
star@@ 47
swings 47
leg 47
cat@@ 47
d-@@ 47
base 47
clo@@ 47
close 47
cyclists 47
teenage 46
church 46
sur@@ 46
cr@@ 46
among 46
oun@@ 46
brightly 46
makes 46
up@@ 46
plate 46
av@@ 46
lone 46
collar 46
dancers 46
foreground 46
h 46
gym 46
ner 46
life 46
giant 45
leans 45
gers 45
phones 45
mud 45
lan@@ 45
fixing 45
gg@@ 45
comple@@ 45
dirty 45
ent@@ 45
helping 45
toys 45
clown 45
lar 45
balls 45
meat 45
barefoot 45
gh@@ 45
hiking 45
shallow 45
leather 45
passing 45
ve@@ 45
cts 45
umbrellas 45
traffic 45
est 45
wears 45
bath@@ 45
sses 45
multicolored 44
van 44
illing 44
ple 44
below 44
washing 44
ctor 44
key 44
sandals 44
hood 44
desert 44
enjoy 44
ph@@ 44
cha@@ 44
friend 44
coo@@ 44
slee@@ 44
officers 44
cy 44
office 44
K@@ 44
falling 44
stadium 44
man@@ 44
pair 44
ty 44
cloth 44
doorway 44
da@@ 44
goal 43
dark-haired 43
ie 43
ils 43
ills 43
kick 43
pped 43
held 43
je@@ 43
leash 43
paved 43
musical 43
deep 43
heads 43
ise 43
foot 43
y-@@ 43
ward 43
tattoo 42
shi@@ 42
resting 42
erman 42
squ@@ 42
land 42
ven 42
moving 42
golf 42
wel@@ 42
pup@@ 42
high@@ 42
ther 42
ver 42
vie@@ 42
flu@@ 42
pier 42
bra@@ 42
and@@ 42
ee 42
ire 42
chi@@ 42
ct 42
picking 42
photographer 42
performance 42
lif@@ 42
refle@@ 41
new 41
singer 41
reaching 41
video 41
flip 41
tops 41
sled 41
garden 41
; 41
cafe 41
laptop 41
hoodie 41
participat@@ 41
bat 41
prote@@ 41
canoe 41
follo@@ 41
stunt 41
flies 41
males 40
stu@@ 40
catching 40
turn 40
drawing 40
tunnel 40
cting 40
work@@ 40
move 40
sed 40
ssing 40
gives 40
accordion 40
dro@@ 40
fun 40
exam@@ 40
aving 40
conversing 40
throws 40
members 40
ny 40
out@@ 40
drum 40
teeth 40
wrest@@ 40
daughter 40
pos@@ 40
leaping 40
block 40
coats 40
ering 40
digging 40
well 40
lin@@ 40
-haired 40
tack@@ 40
obser@@ 39
read 39
sweeping 39
hose 39
sculpture 39
boar@@ 39
hugging 39
atop 39
shovel 39
pit@@ 39
Christmas 39
pot 39
shows 39
ear@@ 39
als 39
climb 39
ction 39
cat 39
doors 39
tricks 39
waterfall 39
chef 39
mes 39
relaxing 39
ber@@ 39
V@@ 39
tatto@@ 39
bicyclist 39
zz@@ 39
photograph 39
her@@ 39
here 39
ght 39
lar@@ 38
prepare 38
lab 38
local 38
roller 38
how 38
wrestling 38
athle@@ 38
catches 38
il 38
eless 38
pet 38
ents 38
bow@@ 38
microscope 38
upside 38
cold 38
passes 38
closed 38
robe 38
tire 38
touri@@ 38
hair@@ 38
plants 38
spee@@ 38
bow 37
lers 37
scen@@ 37
part 37
pond 37
seat 37
ure 37
sleeps 37
trunks 37
opposing 37
ming 37
karate 37
shoulders 37
colle@@ 37
swimm@@ 37
cle@@ 37
ered 37
bru@@ 37
ies 37
lots 37
bly 37
carnival 37
mural 37
Chinese 37
stream 37
beige 37
pin@@ 37
neck 37
4 37
round 37
new@@ 37
style 37
underneath 37
boun@@ 37
ing@@ 37
the@@ 37
practi@@ 37
bun@@ 36
trave@@ 36
individuals 36
inten@@ 36
jogging 36
cane 36
project 36
without 36
kers 36
loa@@ 36
medi@@ 36
cking 36
customers 36
these 36
dances 36
bicyclists 36
splashing 36
ot@@ 36
waters 36
telescope 36
formal 36
gun 36
points 36
landscape 36
stre@@ 36
performer 36
clear 36
stuffed 35
gate 35
so 35
driver 35
V 35
booth 35
crosswalk 35
mat 35
crou@@ 35
loun@@ 35
ures 35
crying 35
passen@@ 35
hom@@ 35
pri@@ 35
&apos; 35
hiker 35
fight 35
trampoline 35
port 35
cloudy 35
iti@@ 35
ble@@ 35
fly 35
fallen 35
os 35
shoe 35
dancer 35
produce 35
runners 35
lays 34
circle 34
picnic 34
log 34
sandy 34
sol@@ 34
rest 34
boats 34
straw 34
cor@@ 34
themselves 34
pulled 34
infant 34
goes 34
wooded 34
boo@@ 34
square 34
dinner 34
sw@@ 34
ati@@ 34
ines 34
makeup 34
excit@@ 34
hoop 34
snowboar@@ 34
matching 34
lunch 34
fe 34
attempts 34
om 34
pe 34
third 34
including 34
surface 34
taken 34
staircase 33
covering 33
ct@@ 33
dark@@ 33
ski@@ 33
padd@@ 33
sewing 33
wr@@ 33
tor@@ 33
hammer 33
books 33
cted 33
ot 33
nose 33
dol@@ 33
center 33
wed 33
tracks 33
tle 33
trash 33
balcony 33
long-slee@@ 33
help 33
pedestrians 33
rela@@ 33
racket 33
em 33
windows 33
deck 33
roller@@ 33
iz@@ 33
pitcher 33
ken 32
ined 32
boxes 32
blouse 32
himself 32
seven 32
climb@@ 32
rub@@ 32
hikers 32
fro@@ 32
softball 32
down@@ 32
tub 32
chases 32
indoor 32
eng@@ 32
cow 32
oned 32
porch 32
ue 32
device 32
ham@@ 32
coa@@ 32
case 32
lift 32
partment 32
wor@@ 32
gle 32
athlete 32
pulls 32
slope 32
mor@@ 32
itting 32
birds 32
teenagers 32
wrapped 32
th 32
fil@@ 32
pushes 32
ized 32
fur@@ 32
test 32
skat@@ 32
festival 32
palm 32
ep 32
tele@@ 32
grocery 32
mate 32
marching 32
cheerleaders 32
gest@@ 32
speaks 32
not 31
sprink@@ 31
saw 31
gaz@@ 31
puts 31
skis 31
gymnast 31
ledge 31
wea@@ 31
red@@ 31
ki@@ 31
sen@@ 31
iling 31
brush 31
heavy 31
num@@ 31
pit 31
ires 31
bever@@ 31
igh@@ 31
stret@@ 31
clou@@ 31
opening 31
drives 31
shaking 31
nap 31
tion 31
scu@@ 31
char@@ 31
ol 31
fer@@ 31
im@@ 31
sem@@ 31
foreign 31
inspec@@ 31
steep 31
cer@@ 31
kind 31
overalls 30
hot@@ 30
AT@@ 30
plane 30
kayak 30
son@@ 30
wetsuit 30
pers 30
ship 30
curb 30
repa@@ 30
try 30
ek 30
puddle 30
bent 30
moves 30
bot@@ 30
club 30
ace 30
type 30
is@@ 30
spla@@ 30
coun@@ 30
ong@@ 30
see 30
swims 30
ddy 30
ant 30
fee@@ 30
1@@ 30
kaya@@ 30
por@@ 30
cones 30
all@@ 30
shaving 30
colors 30
plan@@ 30
tic 30
bla@@ 30
teenager 30
poles 29
sheet 29
ctive 29
pouring 29
ths 29
nice 29
evening 29
paddling 29
jean 29
don@@ 29
kicks 29
ssi@@ 29
chal@@ 29
reaches 29
od@@ 29
kn@@ 29
decor@@ 29
luggage 29
bank 29
stle 29
fen@@ 29
tar@@ 29
gentlemen 29
fall 29
acks 29
blocks 29
jump@@ 29
red-hair 29
min@@ 29
emer@@ 29
ones 29
enjoys 29
lies 29
off@@ 29
vers 29
wheelchair 29
tin@@ 29
loo@@ 29
fingers 29
headed 29
tow@@ 29
checking 29
goo@@ 29
opposite 29
attached 29
hangs 29
sea 29
raft 29
pol@@ 29
robes 29
shooting 29
grin@@ 29
motorcycles 29
refer@@ 29
recor@@ 29
t-@@ 29
list@@ 29
side@@ 29
ys 29
riders 29
assi@@ 29
airplane 29
cer 29
dy 28
tory 28
sale 28
approa@@ 28
swor@@ 28
she@@ 28
guard 28
ligh@@ 28
mound 28
ill@@ 28
shoveling 28
scar@@ 28
red-haired 28
denim 28
fun@@ 28
camer@@ 28
pen@@ 28
brown-haired 28
railroad 28
sum@@ 28
ital 28
protective 28
tran@@ 28
wal@@ 28
ag@@ 28
living 28
either 28
ful 28
khaki 28
gar@@ 28
garb 28
string 28
hor@@ 28
shado@@ 28
soldier 28
sual 28
laugh 28
pur@@ 28
lam@@ 28
hurdle 28
uring 28
hill@@ 28
fast 28
tou@@ 28
fabric 28
arena 28
poster 28
neck@@ 28
podium 28
soldiers 28
skirts 28
image 28
ese 28
piano 28
self 28
ily 28
glo@@ 28
laundry 28
rugby 28
tractor 27
happily 27
goalie 27
eats 27
inflatable 27
mem@@ 27
clean 27
spar@@ 27
frame 27
pli@@ 27
fre@@ 27
strol@@ 27
bread 27
drum@@ 27
walls 27
eye 27
juggling 27
bal@@ 27
shop@@ 27
stool 27
bit 27
form@@ 27
floating 27
Jap@@ 27
squat@@ 27
compe@@ 27
step 27
tube 27
spra@@ 27
orn@@ 27
groom 27
ages 27
chase 27
cob@@ 27
rack 27
backyard 27
balancing 27
put 27
knee 27
camouflage 27
fair 27
golden 27
fans 27
sail@@ 27
pavement 27
cho@@ 27
color@@ 27
oriental 27
bottom 27
flight 27
rollerbla@@ 27
dle 27
craf@@ 27
jerseys 27
pipe 27
hula 27
papers 27
spot@@ 26
backwards 26
gro@@ 26
color 26
courtyard 26
our 26
shade 26
fr@@ 26
hou@@ 26
ance 26
kne@@ 26
pain@@ 26
sized 26
plant 26
5 26
multiple 26
lu@@ 26
tail 26
caught 26
keyboard 26
discu@@ 26
closeup 26
fish@@ 26
pot@@ 26
wine 26
under@@ 26
ff 26
tongue 26
garbage 26
ion 26
buying 26
wra@@ 26
saxophone 26
rests 26
shoo@@ 26
curly 26
stretched 26
socks 26
rac@@ 26
bran@@ 26
fresh 26
skinned 26
ka 26
stern 26
hay 26
lines 26
umn 26
spea@@ 26
vely 26
enterta@@ 26
fir@@ 26
use 26
thers 26
ears 26
lit@@ 26
fini@@ 26
polo 26
sport 26
pajamas 26
cl@@ 26
micro@@ 26
ail 26
1 26
you 25
conver@@ 25
plaza 25
gh 25
wil@@ 25
crouches 25
kneels 25
dire@@ 25
black@@ 25
things 25
tal@@ 25
bikers 25
fenced 25
scaffolding 25
carriage 25
swimsuit 25
underwater 25
escalator 25
team@@ 25
ig@@ 25
ations 25
cheering 25
chop@@ 25
din@@ 25
flow@@ 25
gging 25
land@@ 25
ut@@ 25
student 25
ms 25
check@@ 25
motocross 25
ced 25
grou@@ 25
musician 25
my 25
ran@@ 25
serving 25
formation 25
A 25
vac@@ 25
eg@@ 25
dry 25
scre@@ 25
sters 25
post 25
laughs 25
shaped 25
appear 25
touching 25
spi@@ 25
tery 25
suspended 25
sof@@ 25
night@@ 25
surf@@ 25
frisbee 25
kiss 25
rib@@ 25
towel 25
pun@@ 25
played 25
sig@@ 25
New 25
married 25
shown 25
recei@@ 25
tex@@ 25
professional 25
goods 25
u 25
sell 25
guitars 25
sporting 25
horse@@ 25
skates 25
american 25
mode@@ 25
store@@ 25
entran@@ 24
sup@@ 24
of@@ 24
super@@ 24
advertisement 24
fighters 24
magazine 24
-covered 24
bles 24
dining 24
hea@@ 24
la 24
direction 24
thum@@ 24
surf 24
tools 24
animals 24
hooded 24
welding 24
bub@@ 24
sty 24
floral 24
gen@@ 24
long-haired 24
rel 24
anese 24
acoustic 24
ffy 24
backpacks 24
bucking 24
boards 24
stop@@ 24
narrow 24
rin@@ 24
marketplace 24
stic@@ 24
Y@@ 24
pet@@ 24
patter@@ 24
ym@@ 24
ssion 24
checkered 24
pher@@ 24
thrown 24
spray 24
hallway 24
paints 24
ckets 24
invol@@ 24
mid 24
ards 24
bandanna 24
decorated 24
chain 24
ur 24
sted 24
sets 24
Santa 24
opponent 24
native 24
start 24
boxing 24
sailing 24
defen@@ 24
stove 23
neon 23
most 23
raised 23
obstacle 23
print 23
vehicles 23
prin@@ 23
aw@@ 23
money 23
vic@@ 23
rowing 23
gravel 23
fan@@ 23
shel@@ 23
mini@@ 23
seems 23
harness 23
pr@@ 23
attemp@@ 23
range 23
figure 23
usement 23
action 23
outh 23
aring 23
sheep 23
dou@@ 23
heels 23
guitari@@ 23
pine 23
ba 23
only 23
sink 23
pack@@ 23
policeman 23
hawk 23
ave 23
casi@@ 23
presentation 23
oed 23
adverti@@ 23
sharing 23
sticking 23
wagon 23
top@@ 23
cross@@ 23
dding 23
ants 23
ger@@ 23
hol@@ 23
sin@@ 23
surroun@@ 23
Ol@@ 23
play@@ 22
am 22
brea@@ 22
0 22
some@@ 22
ath 22
sweat@@ 22
stic 22
stru@@ 22
zer 22
pee@@ 22
clu@@ 22
sle@@ 22
mom 22
p-@@ 22
tom@@ 22
rier 22
ways 22
half 22
individu@@ 22
pra@@ 22
rol@@ 22
! 22
chers 22
orche@@ 22
mounta@@ 22
af@@ 22
laun@@ 22
York 22
shor@@ 22
I 22
ack@@ 22
ina 22
met@@ 22
0@@ 22
fet@@ 22
keys 22
ets 21
mach@@ 21
barbecue 21
foot@@ 21
ther@@ 21
gas 21
discussion 21
irs 21
garage 21
but 21
dge 21
hang 21
routine 21
buil@@ 21
( 21
pon 21
ound 21
vision 21
chan@@ 21
bir@@ 21
atten@@ 21
jungle 21
fore@@ 21
nav@@ 21
eth@@ 21
spin@@ 21
Mi@@ 21
balan@@ 21
rough 21
possi@@ 21
stair@@ 21
cau@@ 21
studio 21
nam@@ 21
uni@@ 21
uniform@@ 20
bin@@ 20
mea@@ 20
xing 20
tru@@ 20
intersection 20
pull 20
snowboard 20
dreadlocks 20
bou@@ 20
ha@@ 20
fruits 20
) 20
tile 20
sandwich 20
whe@@ 20
exhi@@ 20
ature 20
observe 20
ze 20
Asi@@ 20
ghtly 20
mobile 20
parti@@ 20
stache 20
dune 20
sub@@ 20
patio 20
cell@@ 20
ree 20
ative 20
skateboards 20
cow@@ 20
fu@@ 20
kic@@ 20
ctron@@ 20
dy@@ 20
baller@@ 20
.@@ 20
able 20
wns 20
iting 20
afri@@ 20
produ@@ 20
corn 20
para@@ 20
bill@@ 19
conta@@ 19
hall 19
woo@@ 19
bon 19
baskets 19
cli@@ 19
container 19
fle@@ 19
ane 19
ori@@ 19
Mar@@ 19
rou@@ 19
sk 19
ises 19
eu@@ 19
bon@@ 19
fal@@ 19
sculp@@ 19
S 19
lace 19
aut@@ 19
arti@@ 19
ement 19
tat@@ 19
ica 19
cket 19
ption 19
t-shirts 19
asi@@ 19
stand@@ 19
cricket 19
box@@ 19
don 19
aqu@@ 19
ddle 19
jum@@ 19
span@@ 19
stum@@ 19
tem@@ 19
BMX 19
ram@@ 19
ley 18
bam@@ 18
comm@@ 18
ey@@ 18
sto@@ 18
ands 18
nu@@ 18
pins 18
lap@@ 18
ssy 18
parents 18
da 18
icyc@@ 18
mel@@ 18
heav@@ 18
nets 18
break@@ 18
ton@@ 18
rural 18
legg@@ 18
condu@@ 18
pie@@ 18
live 18
position 18
choir 18
nic 18
moment 18
ade 18
crow@@ 18
ess@@ 18
lean@@ 18
St@@ 18
cit@@ 18
as@@ 18
ant@@ 18
jockey 18
es@@ 18
Bo@@ 18
ork 17
balance 17
fl@@ 17
ob@@ 17
Co@@ 17
derby 17
cri@@ 17
T-shirt 17
monstr@@ 17
pots 17
ari@@ 17
gymna@@ 17
figh@@ 17
Ar@@ 17
less 17
compu@@ 17
vege@@ 17
cas@@ 17
un 17
mix@@ 17
kets 17
instru@@ 17
ture 17
proje@@ 17
ares 17
dom@@ 17
den 17
stom@@ 17
gym@@ 17
moder@@ 17
pigeons 17
village 17
&apos;@@ 17
ites 17
simil@@ 17
embra@@ 17
ali@@ 17
band@@ 17
sand@@ 17
iture 17
perform@@ 17
ili@@ 17
chefs 16
phant 16
kil@@ 16
stea@@ 16
custom@@ 16
employ@@ 16
&amp; 16
space 16
ple@@ 16
trun@@ 16
tan@@ 16
blan@@ 16
rais@@ 16
swim@@ 16
cel@@ 16
compet@@ 16
engag@@ 16
aged 16
photos 16
patient 16
ty@@ 16
swe@@ 16
borne 16
sent 16
obje@@ 16
men@@ 16
passer@@ 16
ja@@ 16
id@@ 16
gli@@ 15
slo@@ 15
thou@@ 15
shov@@ 15
3@@ 15
part@@ 15
regi@@ 15
onal 15
val 15
hur@@ 15
suspen@@ 15
sau@@ 15
stat@@ 15
directions 15
ties 15
cade 15
yel@@ 15
iner 15
Afri@@ 15
far@@ 15
ray@@ 15
cape 15
pizz@@ 15
eling 15
taxi 15
Chin@@ 15
terrain 15
aved 15
qui@@ 15
visit@@ 15
colli@@ 15
spor@@ 15
aller 15
cheerlea@@ 15
Amer@@ 15
ator 15
soc@@ 15
cyc@@ 15
ggles 15
hal@@ 15
cray@@ 15
run@@ 15
cool 15
tage 15
Eu@@ 15
offic@@ 15
Con@@ 15
indi@@ 15
usi@@ 15
monument 15
bull@@ 15
point 15
20@@ 15
Lon@@ 15
lacrosse 15
wards 14
mou@@ 14
ght@@ 14
spon@@ 14
nap@@ 14
ican 14
sco@@ 14
hap@@ 14
ush 14
mit@@ 14
cher@@ 14
gol@@ 14
ere 14
12 14
sou@@ 14
sion 14
cers 14
jo 14
hoo@@ 14
attra@@ 14
ron@@ 14
lem@@ 14
quar@@ 14
uns 14
sor@@ 14
attention 14
sit@@ 14
machines 14
expre@@ 14
cture 14
wat@@ 14
let@@ 14
enter@@ 14
swee@@ 14
news@@ 14
bouquet 14
vie 14
exerc@@ 14
sty@@ 14
admir@@ 14
ballet 13
Mc@@ 13
onal@@ 13
camping 13
arri@@ 13
tropi@@ 13
four@@ 13
mo 13
enti@@ 13
nature 13
sci@@ 13
bicyc@@ 13
bris 13
barri@@ 13
let 13
jet 13
gri@@ 13
stance 13
sal@@ 13
tech@@ 13
cs 13
rafting 13
cloth@@ 13
que@@ 13
are@@ 13
organ@@ 13
plu@@ 13
Mo@@ 13
han@@ 13
form 13
ouse 13
le-@@ 13
parachu@@ 13
carri@@ 13
ti 13
grocer@@ 13
activ@@ 13
lanter@@ 13
2@@ 13
scou@@ 13
visible 13
g-@@ 13
circu@@ 13
8 13
ral 13
accom@@ 13
6 13
shir@@ 13
5@@ 13
navig@@ 13
rail@@ 12
magazines 12
assem@@ 12
scoot@@ 12
branches 12
C 12
apr@@ 12
Joh@@ 12
rapi@@ 12
ples 12
silhouette 12
past@@ 12
bul@@ 12
nel 12
poin@@ 12
ren@@ 12
ket 12
ange 12
va@@ 12
tricycle 12
bloc@@ 12
en-@@ 12
Po@@ 12
dies 12
M 12
our@@ 12
atta@@ 12
cage 12
tape 12
Su@@ 12
oth@@ 12
kit@@ 12
yoga 12
tures 12
cti@@ 12
prepar@@ 12
vol@@ 11
tique 11
mid@@ 11
cul@@ 11
types 11
constru@@ 11
ab@@ 11
yon 11
appar@@ 11
dent 11
sons 11
vari@@ 11
ening 11
horizon 11
graph@@ 11
syn@@ 11
dar@@ 11
gue 11
yer 11
flan@@ 11
audit@@ 11
pass@@ 11
pier@@ 11
ctions 11
pir@@ 11
vit@@ 11
kha@@ 11
ness 11
contra@@ 11
illumin@@ 11
parachute 11
cano@@ 11
foo@@ 11
turquoise 11
ristmas 11
lon@@ 11
sar@@ 11
haired 11
scape 11
oranges 11
sca@@ 11
raf@@ 11
salon 11
viol@@ 11
bron@@ 11
bli@@ 11
E 11
Indi@@ 11
roun@@ 11
ympi@@ 11
bers 11
couples 11
fix@@ 11
todd@@ 10
thing 10
ong 10
bre@@ 10
ners 10
cab@@ 10
ney 10
multi@@ 10
stac@@ 10
ass@@ 10
ulti@@ 10
pin 10
concen@@ 10
dium 10
scaff@@ 10
portrait 10
sy 10
Ch@@ 10
inging 10
hind 10
wn@@ 10
ried 10
z 10
cin@@ 10
ide 10
mb@@ 10
laborat@@ 10
floo@@ 10
9@@ 10
exer@@ 10
# 10
ban 10
dor@@ 10
termin@@ 10
mil@@ 10
O 10
religi@@ 10
dress@@ 10
fle 10
ach@@ 10
sy@@ 9
bes 9
tel@@ 9
ka@@ 9
gon 9
service 9
section 9
ato@@ 9
J 9
vir@@ 9
sure 9
sti@@ 9
rollers 9
fs 9
anti@@ 9
acci@@ 9
gy@@ 9
spir@@ 9
dir@@ 9
bec@@ 9
diti@@ 9
gal@@ 9
cir@@ 9
ima@@ 9
pel@@ 9
silhou@@ 9
moto@@ 9
4@@ 9
cou@@ 9
figures 9
tun@@ 9
Y 9
tal 9
fort 9
ore@@ 9
gie 9
bikin@@ 9
som@@ 9
py@@ 9
iss@@ 9
unique 9
scienti@@ 9
sign@@ 9
tro 8
bare@@ 8
forest@@ 8
lin 8
positi@@ 8
ile 8
ols 8
oth 8
camp 8
ues 8
make@@ 8
hau@@ 8
stun@@ 8
mannequ@@ 8
fri@@ 8
skin@@ 8
f-@@ 8
vel 8
founta@@ 8
tour@@ 8
gir@@ 8
erie 8
descen@@ 8
identi@@ 8
ettes 8
mag@@ 8
oni@@ 8
D 8
ental 8
ess 8
rock@@ 8
sil@@ 8
pt 8
bee 8
org@@ 8
s-@@ 8
pour@@ 8
rails 8
dal@@ 8
rece@@ 8
pain 8
shou@@ 8
examine 8
i-@@ 8
sprin@@ 8
spect@@ 8
commercial 8
ser 8
acrobati@@ 8
stant 8
tour 8
poli@@ 8
vo@@ 8
- 8
xe 8
dre@@ 8
itu@@ 8
graff@@ 8
int 8
ave@@ 7
labor@@ 7
trot@@ 7
rest@@ 7
jack@@ 7
ggling 7
ition 7
policem@@ 7
with@@ 7
dio 7
9 7
im 7
infla@@ 7
pie 7
divers 7
zone 7
Ne@@ 7
ey 7
die 7
ston 7
pige@@ 7
busin@@ 7
cigar@@ 7
electri@@ 7
arrow 7
ments 7
rist@@ 7
gla@@ 7
magni@@ 7
ste 7
dan@@ 7
pedestri@@ 7
quet 7
nat@@ 7
non 7
trans@@ 7
? 7
roses 7
exp@@ 7
occu@@ 7
ino@@ 7
skateboar@@ 7
fron@@ 7
fit 7
sac@@ 7
ales 7
pou@@ 7
anci@@ 7
conf@@ 7
dess@@ 7
ami 7
atter@@ 7
7 7
8@@ 7
emp@@ 7
dec@@ 7
6@@ 7
professi@@ 7
cover@@ 7
pul@@ 6
main 6
autom@@ 6
cop@@ 6
fer 6
unes 6
fam@@ 6
stati@@ 6
red-@@ 6
youn@@ 6
combat 6
tons 6
aiss@@ 6
gues 6
W 6
v 6
cycles 6
personn@@ 6
profe@@ 6
sno@@ 6
instal@@ 6
tor 6
rea@@ 6
ole 6
glaci@@ 6
cent@@ 6
ado@@ 6
tau@@ 6
pai@@ 6
appro@@ 6
ron 6
appe@@ 6
ki 6
iles 6
grand 6
dor 6
dos 6
quad 6
P 6
re-@@ 6
abo@@ 6
scope 6
inclu@@ 6
chil@@ 6
lun@@ 6
cial 6
kio@@ 6
portable 6
acro@@ 6
festi@@ 6
N 6
cem@@ 6
wet@@ 6
spen@@ 6
tag@@ 6
ket@@ 6
fra@@ 6
cham@@ 6
chu@@ 6
near@@ 6
niver@@ 6
ign@@ 6
walk@@ 5
sage 5
ith 5
re 5
rem@@ 5
cheer@@ 5
ids 5
cent 5
inf@@ 5
pau@@ 5
mirro@@ 5
ici@@ 5
yo@@ 5
cav@@ 5
ffe@@ 5
key@@ 5
mail@@ 5
moti@@ 5
tting 5
read@@ 5
chat 5
L 5
U 5
na 5
ei@@ 5
marches 5
Jo@@ 5
assor@@ 5
cert 5
basket@@ 5
saxoph@@ 5
sleep 5
pati@@ 5
ball@@ 5
specta@@ 5
gage 5
arr@@ 5
attentiv@@ 5
attendant 5
tend 5
Q@@ 5
strum@@ 5
rer 5
tamb@@ 5
pied 5
util@@ 5
alls 5
ster@@ 5
gent 5
prom@@ 5
lass@@ 5
une 5
thro@@ 5
frien@@ 5
them@@ 5
ut 5
grim@@ 5
trou@@ 5
chant 5
pagne 5
lasso 5
mani@@ 5
mot@@ 5
und 5
ots 5
ebr@@ 5
bol 5
ird 4
vent 4
ell@@ 4
circuit 4
plat@@ 4
anim@@ 4
sages 4
trom@@ 4
iller 4
fig@@ 4
pant 4
partici@@ 4
nique 4
bear@@ 4
nant 4
za 4
ements 4
sement 4
T-shirts 4
allow 4
restau@@ 4
cles 4
pal@@ 4
peop@@ 4
ath@@ 4
long-@@ 4
equip@@ 4
chool 4
fic 4
descend 4
prof@@ 4
windo@@ 4
yc@@ 4
mb 4
dau@@ 4
ghters 4
ind 4
ier 4
dings 4
enjo@@ 4
file 4
backp@@ 4
fru@@ 4
caf@@ 4
Z@@ 4
eld 4
T 4
tax@@ 4
salu@@ 4
rose 4
door@@ 4
san@@ 4
sque 4
doc@@ 4
sent@@ 4
va 4
vice 4
R 4
velo@@ 4
proxim@@ 4
sant 4
X@@ 4
balcon@@ 4
parasol 4
-shirt 4
chem@@ 4
regar@@ 3
pren@@ 3
yant 3
mob@@ 3
Q 3
phon@@ 3
route 3
gam@@ 3
situ@@ 3
ir 3
flot@@ 3
sai@@ 3
trav@@ 3
ro 3
In@@ 3
chor@@ 3
adul@@ 3
oran@@ 3
mom@@ 3
aves 3
haw@@ 3
adolescent 3
ggage 3
onloo@@ 3
attend 3
tant 3
zed 3
distri@@ 3
stuff@@ 3
den@@ 3
ette 3
graffit@@ 3
portra@@ 3
horiz@@ 3
ale 3
audi@@ 3
tabl@@ 3
vide 3
umin@@ 3
: 3
K 3
tout 3
quel@@ 3
tball 3
iser 3
ockey 3
F 3
lance 3
shoul@@ 3
mas 3
appla@@ 3
bit@@ 3
gages 3
BM@@ 3
aga@@ 3
rand@@ 3
gon@@ 3
brown@@ 3
G 3
enf@@ 3
onn@@ 3
lad@@ 3
rap@@ 3
pause 3
val@@ 3
middle-@@ 3
chur@@ 3
bout 3
violet 3
beauti@@ 3
lation 3
cycle 3
gent@@ 3
diver@@ 3
lev@@ 3
blonds 3
ang 3
blonde 3
iers 2
derly 2
plan 2
align@@ 2
tiv@@ 2
vin 2
bonnet 2
diff@@ 2
class@@ 2
wel 2
incen@@ 2
percu@@ 2
ux 2
traverse 2
ques 2
obsc@@ 2
jama 2
sa 2
con 2
jam@@ 2
teet@@ 2
alie 2
iff@@ 2
met 2
No@@ 2
mal 2
ret 2
vous 2
joy@@ 2
portant 2
scaffol@@ 2
mp@@ 2
loy@@ 2
aux 2
inst@@ 2
que 2
tiss@@ 2
pour 2
oi@@ 2
cour@@ 2
cle 2
pays 2
agri@@ 2
j 2
agit@@ 2
journal 2
sweat 2
close@@ 2
,@@ 2
rine 2
participant 2
jou@@ 2
ambu@@ 2
las 2
deo 2
kar@@ 2
veral 2
even@@ 2
barb@@ 2
volley 2
ena 2
age@@ 2
due 2
comb@@ 2
ay@@ 2
ph 2
long@@ 2
ensemble 2
blond-@@ 2
H 2
lons 2
ope 2
` 2
dread@@ 2
entre@@ 2
% 2
rant 2
pom@@ 2
pav@@ 2
verse 2
ga 2
ordin@@ 2
locks 2
plaque 2
lac 2
du 2
te-@@ 2
brun@@ 2
bandan@@ 2
ouvre 2
passer 2
plom@@ 2
escal@@ 2
gant 2
grat@@ 2
ign 2
mari@@ 2
arro@@ 2
aya@@ 2
par 2
spec@@ 1
lage 1
courts 1
rying 1
combin@@ 1
guit@@ 1
caban@@ 1
isi@@ 1
mains 1
sous-@@ 1
fabri@@ 1
quat@@ 1
erole 1
bas 1
B 1
etting 1
teen@@ 1
los 1
spectat@@ 1
ghter 1
imm@@ 1
ille 1
hors 1
vres 1
grave@@ 1
tte 1
footbal@@ 1
che 1
ou 1
ne 1
esc@@ 1
accordi@@ 1
public@@ 1
stes 1
urs 1
toboggan 1
brand@@ 1
bik@@ 1
res 1
sous 1
laugh@@ 1
wich 1
amer@@ 1
sav@@ 1
ballons 1
outf@@ 1
nu 1
twe@@ 1
rent 1
mic@@ 1
colo@@ 1
gars 1
lau@@ 1
again@@ 1
ours 1
pian@@ 1
crav@@ 1
passage 1
carton 1
sse 1
-ball 1
kaki 1
skate@@ 1
entre 1
dents 1
ffect@@ 1
dus 1
mout@@ 1
ix 1
bask@@ 1
q@@ 1
oking 1
eur 1
hic@@ 1
milit@@ 1
eurs 1
shirt@@ 1
performan@@ 1
roll@@ 1
visi@@ 1
wom@@ 1
grav@@ 1
enou@@ 1
enta@@ 1
nage 1
chemise 1
utili@@ 1
q 1
ream 1
fai@@ 1
scul@@ 1
coupe 1
7@@ 1
dure 1
cad@@ 1
concre@@ 1
$ 1
xoph@@ 1
bras 1
photo@@ 1
traver@@ 1
vert 1
oce@@ 1
reli@@ 1
dit 1
rient 1
Fri@@ 1
pay@@ 1
articles 1
oph@@ 1
ful@@ 1
marine 1
nis 1
telesc@@ 1
volle@@ 1
fou@@ 1
esse 1
musi@@ 1
ait 1
fon@@ 1
smil@@ 1
protection 1
cen@@ 1
fume 1
-po@@ 1
Vo@@ 1
ument 1
hin@@ 1
sac 1
onne 1
igne 1
fum@@ 1
journ@@ 1
lette 1
adolescents 1
aud@@ 1
quette 1
differ@@ 1
coin 1
tram@@ 1
midd@@ 1
asse 1
obstac@@ 1
auto@@ 1
tron@@ 1
leur 1
cuisine 1
= 1
sembl@@ 1
bout@@ 1
bre 1
clients 1
surve@@ 1
cet 1
coup 1
/ 1
bandana 1
gran@@ 1
