#version: 0.2
u n</w>
a n
n e</w>
e s</w>
u ne</w>
p o
e n
o u
d e</w>
po s
m m
& a
&a pos
&apos ;
a r
an t</w>
h o
e u
mm e</w>
l e</w>
c h
e n</w>
o n
v e
u r</w>
t r
a i
e t</w>
d an
dan s</w>
s ur</w>
en t</w>
q u
t i
ho mme</w>
a ve
d es</w>
t e</w>
ave c</w>
s e</w>
e r
o i
o n</w>
a s
a u
r e</w>
e s
f e
l a</w>
r i
b l
eu x</w>
i l
d e
s on
g ar
s i
a u</w>
a l
g e</w>
fe mme</w>
r s</w>
r e
&apos; un</w>
r ou
d eux</w>
e r</w>
p l
c ou
o r
p e
r o
j ou
t s</w>
d i
es t</w>
n es</w>
a t
qu e</w>
p er
e m
u e</w>
l es</w>
mm es</w>
r t</w>
per son
&apos; une</w>
m ar
b ou
as si
p e</w>
j e
i n
p ar
il le</w>
é e</w>
tr e</w>
eu r</w>
t en
l i
po r
ch i
t ant</w>
c o
p r
ai n</w>
bl an
t u
t a
ch e</w>
e au</w>
v i
oi r</w>
b al
r a
re gar
o t
v ant</w>
e t
bou t</w>
gar ç
en f
t an
de bout</w>
person nes</w>
e l
son t</w>
s on</w>
u i
f ai
t es</w>
p i
e i
a m
eu rs</w>
je une</w>
di s</w>
d u</w>
de vant</w>
tan dis</w>
ho mmes</w>
h i
f ille</w>
pe ti
g rou
p a
grou pe</w>
chi en</w>
garç on</w>
assi s</w>
en s</w>
t ou
b le</w>
v ê
q u</w>
s es</w>
oi s</w>
r ue</w>
s a
c i
rou ge</w>
- s
b r
é l
t é</w>
-s hi
è re</w>
pl a
s ant</w>
e u</w>
o l
n oir</w>
por tant</w>
mar ch
s u
vê t
l o
blan c</w>
-shi rt</w>
po ur</w>
c e</w>
è s</w>
au x</w>
tr a
p ho
l u
d é
an ts</w>
s ou
d ant</w>
a g
s te</w>
s au
T -shirt</w>
g ens</w>
ve r
ch e
tr ois</w>
ai l
tr ain</w>
c ô
bl eu</w>
cou r
m ent</w>
fai t</w>
fe mmes</w>
r an
&apos; eau</w>
b e</w>
p ro
enf ant</w>
enf ants</w>
t er
s a</w>
é s</w>
pr ès</w>
tu re</w>
qu i</w>
m on
ch em
che v
cô té</w>
d es
ti ent</w>
chem i
r es</w>
peti t</w>
c on
pho t
l on
au tre</w>
m e</w>
l a
c u
é ri
regar de</w>
s em
m an
m i
et te</w>
b â
i l</w>
b o
n i
f on
jou e</w>
c as
g ran
et tes</w>
person ne</w>
a p
bal l</w>
el le</w>
ten ant</w>
d ent</w>
ti on</w>
en ts</w>
ei l</w>
jou ant</w>
bl eu
on s</w>
n oi
o m
qu el
ai r</w>
il l
f il
u si
ar ri
pa r</w>
v él
f i
vêt u</w>
r é
j a
ch a
phot o</w>
j eu
a n</w>
bâ ti
l eurs</w>
ta ble</w>
ja une</w>
f ou
p an
qu es</w>
jeu nes</w>
chemi se</w>
vél o</w>
ho rs</w>
tra v
as i
a d
e x
er s</w>
t ent</w>
n ei
lo rs</w>
a ti
ve rt</w>
peti te</w>
jou ent</w>
u l
pla n</w>
on n
t oir</w>
regar dant</w>
de hors</w>
bâti ment</w>
tr ot
p as
f o
v oi
blan che</w>
p en
mar che</w>
lu n
d er
a l</w>
lun ettes</w>
u s
su s</w>
fai sant</w>
g ri
s ol
pr en
b at
des sus</w>
b re</w>
f or
s k
qu a
trot toir</w>
ve ste</w>
b an
sou ri
assi se</w>
t al
c ho
tou t</w>
sau te</w>
regar dent</w>
co l
bal l
o s</w>
ê te</w>
chev eux</w>
s ent</w>
or an
b ar
march ant</w>
&apos; air</w>
fou le</w>
g u
c l
n s</w>
o b
pla ge</w>
trav ail
ri ère</w>
pe au</w>
por te</w>
der rière</w>
c a
bleu e</w>
l ant</w>
sem ble</w>
é es</w>
g es</w>
è re
tr es</w>
es c
â g
m é
g ui
b or
b as
nei ge</w>
è ne</w>
cou rt</w>
s o
a c
h er
ball on</w>
b u
ère -
arri ère-
fo ot
c ar
m ain</w>
ve rs</w>
usi eurs</w>
ro se</w>
pl usieurs</w>
arrière- plan</w>
co m
fil les</w>
co s
quel que</w>
g ne</w>
tou r</w>
s er
b i
gran d</w>
ar d</w>
cho se</w>
au tres</w>
v e</w>
tr ave
br un</w>
eu se</w>
ten ue</w>
t éri
em ent</w>
t ai
t ar
r n
noi re</w>
her be</w>
h au
il i
c s</w>
- dessus</w>
sou s</w>
v ille</w>
&apos; herbe</w>
oran ge</w>
b é
qua tre</w>
cos tu
c r
ver te</w>
t eau</w>
march ent</w>
s se</w>
pr é
foot ball</w>
chi ens</w>
&apos; é
s tr
qu ot
quot ;</w>
h a
& quot;</w>
cha peau</w>
m ai
ro ch
gui tar
a ge</w>
su r
ch an
asi ati
qu i
m ail
sol eil</w>
m ur</w>
ter r
l eur</w>
téri eur</w>
c or
mail lo
lon g
cou p
b a
r es
c am
au tour</w>
&apos; ar
d s</w>
él é
l an
r on</w>
bl on
g ro
sa ge</w>
o c
bal le</w>
n ent</w>
ro be</w>
b ois</w>
i m
fon t</w>
b e
m ot
cour se</w>
s c
t e
ra p
&apos; il</w>
r ant</w>
c en
v en
guitar e</w>
n ou
b ill
c ui
m at
par c</w>
garç ons</w>
assi ses</w>
&apos; autre</w>
s al
sa c</w>
o y
esc al
sc ène</w>
p u
mar ron</w>
m es</w>
ch es</w>
ter re</w>
f f
s ho
c an
t on</w>
m ag
lon g</w>
f a
e l</w>
l ent</w>
en semble</w>
at ten
qu ette</w>
mon ta
ha bill
terr ain</w>
t at
m ili
c li
bl i
ban c</w>
s s
pan tal
jou rn
jou eur</w>
t élé
tr i
ui t</w>
ch am
bor d</w>
str u
ou v
voi ture</w>
sk at
maillo t</w>
gar s</w>
vêt ue</w>
u ni
pho ne</w>
c h</w>
u s</w>
rou te</w>
asiati que</w>
ê tre</w>
i e</w>
di s
ra y
t ête</w>
hau t</w>
vi ol
t er</w>
tr ès</w>
lu i</w>
pl an
je an</w>
em ents</w>
ch au
b é</w>
d re</w>
s ci
pantal on</w>
costu me</w>
u ti
gri s</w>
cas que</w>
e ts</w>
r ri
pe c
d os</w>
c y
br es</w>
u es</w>
t au
sem bl
bo ard</w>
vêt ements</w>
uti li
p er</w>
l e
d eur</w>
gro s</w>
s pec
sho rt</w>
nou rri
cas quette</w>
coup le</w>
n om
mat ch</w>
m a
po us
chev al</w>
ch ar
bé bé</w>
bat eau</w>
&apos; autres</w>
trave r
pl ei
c er
oi s
at tra
ra m
oi t</w>
pen dant</w>
mili eu</w>
rou ges</w>
man g
g n
&apos; en
re m
pren d</w>
gran de</w>
b ri
sa ble</w>
sau tant</w>
b ra
télé phone</w>
o t</w>
cui si
cour ant</w>
mag asi
magasi n</w>
ex térieur</w>
so l</w>
sci ne</w>
pi scine</w>
oi re</w>
in t</w>
pré par
as se</w>
vê tu
s or
ouv ri
l er</w>
au -dessus</w>
a de</w>
é qui
m usi
éri c
cy cli
pe l
nourri ture</w>
in g</w>
pos e</w>
cham p</w>
w e
r as
f l
d or
am éric
s tes</w>
cou p</w>
fa ce</w>
i er</w>
ai se</w>
skat e
po n
ti que</w>
fai re</w>
bas e
ad ul
&apos; elle</w>
po u
man teau</w>
s we
j u
g ra
é c
ti er</w>
pro m
o u</w>
&apos; ap
é r
vi sage</w>
t eur</w>
par le</w>
des cen
a f
noi rs</w>
v re</w>
skate board</w>
pas se</w>
on t</w>
g i
e ant</w>
col or
blan cs</w>
al long
journ ée</w>
ai re</w>
f r
bra s</w>
pu bli
con tre</w>
&apos; homme</w>
pi e
m ou
g il
vi eil</w>
s er</w>
s an
oi n</w>
v ol
il s</w>
cour ent</w>
res tau
p é
m ents</w>
v é
li t</w>
&apos; oc
ni s</w>
f rap
c le</w>
t o
arri ère</w>
t or
march é</w>
e aux</w>
c k
âg é</w>
ui e</w>
po li
blon de</w>
s en
mi cr
micr o</w>
l è
de r</w>
c ti
bas k
tou r
monta gne</w>
t om
souri ant</w>
s ta
col li
souri t</w>
restau rant</w>
ar bre</w>
y ant</w>
t ée</w>
c in
d onn
cam i
ten nis</w>
sal le</w>
pi er
par ti
mai ns</w>
c tion</w>
é an</w>
nom br
bal an
n u
b ain</w>
eu le</w>
por table</w>
pi ste</w>
chemi n</w>
ras sembl
r u
f leurs</w>
il les</w>
a t</w>
n at
par -dessus</w>
g la
for me</w>
&apos;oc éan</w>
ê t</w>
j et</w>
f en
d ra
&apos; in
g ée</w>
el les</w>
ten te</w>
mar i
po i
ac c
tr ou
p ri
ch er</w>
ui ts</w>
mot o</w>
fon c
cin q</w>
améric ain</w>
v ag
ob je
plei n</w>
g li
base ball</w>
âg ée</w>
trave rs</w>
t te</w>
je u</w>
rem pl
m o
cuisi ne</w>
be au
travail le</w>
par a
eu ses</w>
ar ti
ten ues</w>
pl uie</w>
par lant</w>
l é
o g
beau coup</w>
ou se</w>
o ù</w>
n uit</w>
dé bar
ti en
la c</w>
fi gu
f es
ap par
a près</w>
p ê
n o
d r
co mm
s su
cl ô
quel qu</w>
pi è
g en
f ri
attra per</w>
vêtu s</w>
s sant</w>
vi ère</w>
tr an
ri vière</w>
p ul
jou eurs</w>
f au
travail lant</w>
jou er</w>
m in
gu eule</w>
en nei
ray é</w>
p es</w>
dis cu
ve r</w>
plan che</w>
f fi
cu le</w>
ram pe</w>
&apos; extérieur</w>
in stru
cami on</w>
tien nent</w>
pon t</w>
pe aux</w>
ouvri ers</w>
n u</w>
habill é</w>
c es</w>
bu s</w>
&apos; hommes</w>
son s</w>
on g
jou et</w>
g nes</w>
débar deur</w>
am i
sur f
ba s</w>
an im
pi er</w>
li vre</w>
blan ches</w>
pro d
piè ce</w>
en tour
roch er</w>
po m
è res</w>
re au</w>
or di
musi que</w>
mai son</w>
bleu s</w>
bl es</w>
b es</w>
tai re</w>
spec tat
cycli ste</w>
b onn
adul tes</w>
&apos; enfants</w>
&apos; a
viol et</w>
pier re</w>
p au
m or
ai e</w>
tra î
lan c
ssu res</w>
s é
pos ent</w>
peti ts</w>
pa y
br u
travail lent</w>
swe at</w>
s tan
r ts</w>
po rt</w>
fen être</w>
s e
pa s</w>
m i</w>
cou rs</w>
b on
b ois
quel ques</w>
po l
dan se</w>
spectat eurs</w>
ro s
ordi nat
clô ture</w>
é cou
e y</w>
ch aise</w>
pos ant</w>
b in
an te</w>
v ent</w>
f eu
&apos; obje
ill ée</w>
balan ç
v a
tor se</w>
publi c</w>
pren ant</w>
pel ouse</w>
f u
et t
cti f</w>
ci el</w>
n ag
appar eil</w>
z o
tu res</w>
pl us</w>
en tre</w>
chan te</w>
ar bres</w>
utili se</w>
ri t</w>
costu mes</w>
pe in
cor de</w>
char i
bonn et</w>
équi pe</w>
y m
com bin
b ul
al i
&apos;obje ctif</w>
tr o</w>
re aux</w>
p ant</w>
ma chi
gil et</w>
for êt</w>
ch é</w>
combin ai
stan d</w>
pa ti
ob jet</w>
n eau</w>
m as
fri s
figu re</w>
march es</w>
tai ne</w>
ol esc
mé tro</w>
gla ce</w>
allong é</w>
ad olesc
zo ne</w>
vag ue</w>
s no
ran donn
pol o</w>
p il
f ête</w>
b ei
poli ci
po int</w>
n a
es sa
sno w
pie ds</w>
mang er</w>
cu l
ch ant</w>
balanç oire</w>
ai s</w>
ai ne</w>
trou ve</w>
ti s</w>
t ons</w>
par lent</w>
p s</w>
mon tre</w>
chari ot</w>
re cou
n ett
e -
bâ ton</w>
sa cs</w>
r ée</w>
j am
gra ffi
f am
cou leur</w>
t -shirt</w>
regar der</w>
qu en
monta gnes</w>
j au
f ré
f fe
escal ier</w>
colli ne</w>
ci r
as tique</w>
&apos;ap pr
v o
oran ges</w>
n ement</w>
jau nes</w>
br an
b elle</w>
ai sse</w>
sk i
pren dre</w>
ho ck
fré quen
escal ade</w>
d u
ver re</w>
u r
ordinat eur</w>
machi ne</w>
f la
bri ques</w>
ai l</w>
ag es</w>
v ée</w>
pen te</w>
pe int</w>
pan car
p in
og rap
chau ssures</w>
qua i</w>
phot ograp
oi g
fam ille</w>
es s
bei ge</w>
- ball</w>
&apos;in térieur</w>
fon taine</w>
em br
co w
al o
x i
vi eux</w>
pas sent</w>
om bre</w>
in di
g er</w>
en ne</w>
dé o</w>
&apos; ils</w>
so mm
pul l</w>
on ne</w>
long s</w>
f s</w>
ennei gée</w>
car reaux</w>
can ap
al l
vi e
tou rn
parti ci
mé tal
mi té</w>
dé fil
-shi rts</w>
tu di
ti re</w>
t eu
t -
prom en
phot os</w>
fau teu
cu ri
canap é</w>
ca f
ai ses</w>
cycli stes</w>
combinai son</w>
ri e</w>
para pluie</w>
par mi</w>
métal li
d o
c ette</w>
au che</w>
él e
sol e
pla ce</w>
noi res</w>
graffi tis</w>
en sole
cas ques</w>
be e</w>
asiati ques</w>
v oir</w>
utili sant</w>
tou s</w>
t és</w>
sau t</w>
k a
i mm
d oig
bru ns</w>
blon d</w>
bleu es</w>
sor te</w>
prépar e</w>
pie d</w>
gen ou
caf é</w>
vol le
ti onn
somm et</w>
pê che</w>
l oin</w>
hock ey</w>
g ent</w>
alo rs</w>
ail le</w>
vi f</w>
si on</w>
s tat
re r</w>
r on
pa pier</w>
fe u</w>
f er
ensole illée</w>
e ffe
t y
r o</w>
nu mé
n er</w>
fris bee</w>
cou ver
cou r</w>
t h
s port</w>
pré sen
nombr eux</w>
descen d</w>
T -shirts</w>
tr e
spec ta
pro fi
hi ver</w>
fr uits</w>
effe c
d ont</w>
xi mité</w>
v ue</w>
t eurs</w>
pro ximité</w>
pan neau</w>
c e
bou che</w>
bar be</w>
atten dant</w>
œ u
y eux</w>
trav ail</w>
ta bli
t em
stat ue</w>
ré par
roch ers</w>
pous se</w>
pl astique</w>
pi s</w>
p ui
ouvri er</w>
gil ets</w>
frap per</w>
dan sent</w>
c eau</w>
bé ton</w>
bo y</w>
bask et</w>
atten dent</w>
ai rs</w>
&apos;é qui
è ge</w>
ç ant</w>
ten d
ta l</w>
pas sant</w>
n us</w>
n ant</w>
musi ci
genou x</w>
feu illes</w>
d ée</w>
bo ar
uni forme</w>
t oit</w>
por tent</w>
vêtu es</w>
vé hi
tr on
specta cle</w>
plei ne</w>
numé ro</w>
man i
ff ér
curi té</w>
bu reau</w>
adul te</w>
stru c
s é</w>
gri m
di ffér
dan sant</w>
ai ns</w>
traver se</w>
ta s</w>
swe at
r é</w>
nombr euses</w>
m oy
ju pe</w>
j ar
atten d</w>
at ta
n age</w>
li gne</w>
g ym
g a
fréquen tée</w>
for mes</w>
dra peau</w>
con d
cl air</w>
cl ai
ch aises</w>
bou te
t é
mon te</w>
m et</w>
m ant</w>
li sant</w>
jar di
h u
essa yant</w>
di t</w>
d am
con cer
com pé
&apos;ar bres</w>
&apos; am
ver ts</w>
tri ne</w>
s -
pancar te</w>
o te</w>
maillo ts</w>
m ê
m ul
journ al</w>
défil é</w>
c ap
bask et
acc rou
&apos; â
s son</w>
m ère</w>
g g
fonc és</w>
fo ot</w>
co pe</w>
cl asse</w>
ci gar
&apos; est</w>
vé nement</w>
tat ou
ta tion</w>
si x</w>
sau tent</w>
prom ène</w>
mi c
m er</w>
g ol
entour é</w>
embr as
dor t</w>
concer t</w>
compé ti
voi tures</w>
ve ment</w>
sweat -shirt</w>
sau ter</w>
ro l
r en
pren nent</w>
pay sage</w>
mon tr
lanc er</w>
fauteu il</w>
dé ser
uni formes</w>
u re</w>
ta pis</w>
struc ture</w>
ré uni
ro déo</w>
métalli que</w>
mang eant</w>
c ra
ba r</w>
&apos;â ge</w>
&apos; él
&apos; hiver</w>
éle c
souri ent</w>
pl i
pi é
p re
o ë
mi er</w>
lon s</w>
g é</w>
de au</w>
dan s
compéti tion</w>
c oin</w>
é vénement</w>
v age</w>
ter ie</w>
sé curité</w>
sk i</w>
s sent</w>
roch euse</w>
rempl i</w>
ob ser
lé gu
lè ve</w>
la ge</w>
k i
gu es</w>
gro sse</w>
des si
co mme</w>
cha peaux</w>
c lo
ai de</w>
a vant</w>
é ch
vél os</w>
vie ille</w>
snow boar
pi ers</w>
lan ce</w>
l s</w>
br une</w>
bi ère</w>
é tant</w>
â teau</w>
sen tier</w>
re pas</w>
pui s</w>
l ement</w>
instru ments</w>
gn ant</w>
fon d</w>
es pa
de puis</w>
bar b
b ot
é tudi
ti n
tabli er</w>
p ent</w>
nom bre</w>
ni que</w>
ag i
ad ver
éc rit</w>
è me</w>
san s</w>
qu ili
pl at
pan ier</w>
o re
moy en</w>
légu mes</w>
lu mi
g eant</w>
f al
d é</w>
bâti ments</w>
v res</w>
pil ote</w>
oi te</w>
m et
k ing</w>
k in
habill ée</w>
fa ç
eu r
cou leurs</w>
bat tent</w>
a yant</w>
&apos;équi pe</w>
&apos; eux</w>
é clai
to bo
tobo gg
tobogg an</w>
tend ue</w>
su s
oë l</w>
o ri
m u
d onne</w>
cow -
chan tant</w>
ca de</w>
c ad
al es</w>
N oël</w>
é pau
voi e</w>
sem ent</w>
quili bre</w>
mul ti
jardi n</w>
gri se</w>
g auche</w>
en ce</w>
dra peaux</w>
at h
arti ste</w>
v é</w>
sus pen
skat eur</w>
si onn
sa tion</w>
rou lant</w>
r ent</w>
mê me</w>
gli sse</w>
ch er
bu vant</w>
barb u</w>
traver sent</w>
te aux</w>
sur f</w>
s cul
scul p
ros s</w>
prod uits</w>
j us
fal aise</w>
color és</w>
bot tes</w>
bal lons</w>
af fi
&apos;appr ête</w>
&apos; arrière</w>
véhi cule</w>
u che</w>
qu ar
pro fes
po teau</w>
pl ong
p al
om b
o r</w>
o i</w>
mot oc
mor ceau</w>
long ue</w>
instru ment</w>
imm eu
g ants</w>
cigar ette</w>
blon ds</w>
v es</w>
ta bles</w>
polici er</w>
pa vée</w>
l ing</w>
in ter
gran ds</w>
bi kin
ami s</w>
âg ées</w>
y a
vi trine</w>
ver tes</w>
tran s
tem ps</w>
san d
s eau</w>
ro ses</w>
peti tes</w>
p h
nett oy
m us
i r</w>
habill és</w>
frap pe</w>
dr oit</w>
doig t</w>
dam e</w>
cou pe</w>
chev aux</w>
bu t</w>
bo w
b ai
as te</w>
ven deur</w>
snowboar deur</w>
ro bes</w>
rassembl ent</w>
pein ture</w>
p ère</w>
mar ti
man ge</w>
h e</w>
gri l
en tes</w>
cap uche</w>
au tom
a ch
&apos; embras
é tendue</w>
vi er</w>
traver sant</w>
tom b
ti rant</w>
ta bl
t es
stru ction</w>
ro -
prépar ant</w>
pous s
pos i
pl oy
par king</w>
i ste</w>
fonc é</w>
fil s</w>
eu re</w>
escal a
el s</w>
di tionn
cô te</w>
bi en</w>
as s
surf eur</w>
ra ge</w>
par ler</w>
m em
lon gues</w>
j eux</w>
con struction</w>
c les</w>
bow ling</w>
bou le</w>
b er
&apos;en traî
ér a</w>
élec tri
vo le</w>
rou l
pou r
pe u</w>
pe i
o l</w>
musici ens</w>
motoc ross</w>
mat éri
marti aux</w>
m en
ju ste</w>
g ue</w>
en ti
cour ses</w>
cou cher</w>
cam éra</w>
c teur</w>
c ré
bri l
boute ille</w>
&apos; attraper</w>
vi on</w>
tra ditionn
ta ge</w>
s ombre</w>
ri c
pre mier</w>
p at
la bou
co lo
chan tier</w>
cen tre</w>
cas cade</w>
all ée</w>
t oi
sol d
ray ée</w>
qu et</w>
pro fon
mas que</w>
mang ent</w>
in s</w>
al im
ven dant</w>
ser vi
s eu
ri vage</w>
ri ent</w>
nou ve
n n
matéri el</w>
li eu</w>
g é
cow- boy</w>
couver ture</w>
colli er</w>
ai t</w>
ski eur</w>
si er</w>
rou le</w>
qu ant</w>
prépar ent</w>
pe lu
li re</w>
espa ce</w>
es tre</w>
effec tu
dr oite</w>
discu tent</w>
com p
cir cu
can ne</w>
c oi
an de</w>
af ric
pom piers</w>
pen che</w>
man ches</w>
ka ya
immeu ble</w>
h eur
fl ot
fil et</w>
descen dant</w>
con ver
b ro
b ag
ati que</w>
allong ée</w>
âg és</w>
vi ent</w>
v ou
ui sant</w>
tr am
pos é</w>
ou verte</w>
ois eau</w>
oi e</w>
n e
mar at
marat ho
l am
l aisse</w>
i ers</w>
en ou
ch ée</w>
cer tai
bul les</w>
bl o
bikin i</w>
ag enou
af ro-
ven d</w>
v al</w>
s ses</w>
r at
publi ci
pouss ette</w>
poi sson</w>
p ée</w>
or ch
orch estre</w>
min i
g on
es te</w>
base -ball</w>
ar ds</w>
&apos;en tre</w>
&apos;ar t</w>
éch elle</w>
terr asse</w>
rempl ie</w>
recou verte</w>
photograp he</w>
mani fes
ill é</w>
g âteau</w>
fou l
dé gui
différ entes</w>
cou vert</w>
clo w
chau ss
c â
c i</w>
bat terie</w>
adolesc ent</w>
a s</w>
viol ette</w>
vag ues</w>
tr ée</w>
ti ss
tau reau</w>
sur pl
sor t</w>
s tal
ri r</w>
r ui
r et</w>
profes sionn
pr es
pel le</w>
pa gne</w>
p eu
m ée</w>
ess aie</w>
em ploy
ch ent</w>
é tran
é char
w a
viol on</w>
s oi
po in
pe tte</w>
par t</w>
gi r
eu sement</w>
dé cor
cour eur</w>
conver sation</w>
color é</w>
bois sons</w>
a tion</w>
é quilibre</w>
vi si
t ue</w>
s sons</w>
r ê
montr ant</w>
mi r
mari ée</w>
march er</w>
d ents</w>
comp toir</w>
coi ff
cli ents</w>
che f</w>
c é
c ri
bou e</w>
an s</w>
a te</w>
&apos;él oi
&apos; elles</w>
volle y
vol ant</w>
t on
randonn ée</w>
pau se</w>
gym n
di re
d ou
con str
ba se</w>
b rou
anim ée</w>
acc roch
équi pes</w>
électri que</w>
éc labou
traver ser</w>
tabl eau</w>
surf e</w>
re présen
ra n</w>
profon de</w>
polici ers</w>
pelu che</w>
cti ons</w>
ci ment</w>
ch in
bois son</w>
affi che</w>
a voir</w>
a vion</w>
éc ran</w>
tu y
ti r</w>
tai res</w>
s tique</w>
rol ler</w>
qu er</w>
pré ci
pro te
posi tion</w>
p â
na vi
mari age</w>
en dor
cor des</w>
chau ve</w>
bo î
an di
é n
volle y</w>
va te</w>
ti fs</w>
t o</w>
t asse</w>
sou ff
s co
rassembl ées</w>
promen ant</w>
pl u
ob sta
mir oir</w>
maratho n</w>
jou euse</w>
jou ets</w>
ff ron
el lement</w>
cra vate</w>
cour eurs</w>
ca v
attra pe</w>
ath lè
a z
échar pe</w>
é té</w>
u m</w>
su per
si eur</w>
s ée</w>
s ui
rou sse</w>
rem or
recou vert</w>
promen ade</w>
par oi</w>
n é</w>
ma qu
k ar
je tte</w>
er ci
di en</w>
ch u
bar be
anim al</w>
adolesc ents</w>
&apos; ex
&apos; ac
tr ou</w>
sta tion</w>
ss eau</w>
sk ate</w>
sau ve
s ei
pas sage</w>
p i</w>
p ai
ou ti
mon sieur</w>
k i</w>
foul ard</w>
fou r
en -
cui r</w>
cond uit</w>
c ue</w>
barbe cue</w>
ba t</w>
b y</w>
ap pu
&apos;appr ê
&apos; escalade</w>
&apos; A
ve stes</w>
t aille</w>
surpl omb
sal on</w>
po m</w>
photograp hi
pay s</w>
o li
mot ard</w>
mic ros
la tion</w>
l in
in stal
i ne</w>
h ar
gli se</w>
g e
clow n</w>
chemi sier</w>
c er</w>
b an</w>
ai rie</w>
- pom</w>
écou teurs</w>
te in
suspen du</w>
sta de</w>
seu l</w>
sembl ent</w>
s aire</w>
rui sseau</w>
ra pi
pous si
pom -pom</w>
pier res</w>
par as
pa p
nag eant</w>
mé tal</w>
mem bres</w>
li er</w>
jam be</w>
gol f</w>
entour ée</w>
déser t</w>
discu tant</w>
di ri
cour ts</w>
co le</w>
c al
bor dée</w>
bi tre</w>
&apos;am u
épau les</w>
tu r
tour ne</w>
tou ri
surplomb ant</w>
sco ot
sand ales</w>
remor que</w>
qu ettes</w>
p n
mé di
man ège</w>
g ag
en te</w>
en droit</w>
cé ré
coup er</w>
cha î
ch és</w>
c al</w>
bat te</w>
bal a
b oit</w>
ap préci
&apos;ar bre</w>
équi pe
én or
è nent</w>
vi ve</w>
vi n</w>
vi ande</w>
tuy au</w>
t él
so li
snow board</w>
ru elle</w>
quar tier</w>
pous sant</w>
plan tes</w>
o s
l et
jus qu</w>
j ong
il lage</w>
gra vi
effectu ant</w>
cuisi ni
coup ant</w>
colo re</w>
bo x
bl ement</w>
balan ce</w>
appu y
&apos;a ffron
&apos; al
vi rage</w>
v oy
tu nn
tunn el</w>
souri ante</w>
sembl ant</w>
sculp ture</w>
rou lent</w>
r ues</w>
pr airie</w>
pi n</w>
obje ts</w>
o le</w>
mou vement</w>
hau ts</w>
habill ées</w>
cor dé
c k</w>
c et</w>
b arrière</w>
an tes</w>
an d</w>
&apos; an
ê tes</w>
énor me</w>
v a</w>
tou tes</w>
tou t-
représen tant</w>
re pose</w>
prote ction</w>
pas ser
p y
multi colore</w>
micros cope</w>
kaya k</w>
fu me</w>
en traî
de aux</w>
cou rir</w>
cha t</w>
c el
c aisse</w>
basket -ball</w>
am bul
&apos;ap par
&apos; ombre</w>
vi de</w>
tron c</w>
tra de</w>
ten d</w>
si gne</w>
sauve tage</w>
réuni s</w>
ré es</w>
ran gée</w>
passer elle</w>
la bor
labor at
l le</w>
ka ki</w>
gon fla
g le</w>
g ers</w>
fr oi
ennei gé</w>
en sei
di e</w>
cordé on</w>
cer cle</w>
c lu
c ent</w>
c elle</w>
bâ tons</w>
bl ou
ati ques</w>
ali gn
accrou pi</w>
él è
z on</w>
tél es
travail ler</w>
tram poli
trampoli ne</w>
ta m
si este</w>
sa le</w>
rempl i
ra quette</w>
prod uit</w>
poli ce</w>
pi qu
pa g
p éri
onn ette</w>
ois eaux</w>
mon ie</w>
mo tifs</w>
mic ro
mi de</w>
laborat oire</w>
l ave
je tée</w>
jam bes</w>
in spec
h ô
grim pe</w>
fu mant</w>
fes ti
f res
ex am
color ées</w>
color ée</w>
cam pagne</w>
c on</w>
bal us
ati ons</w>
at eur</w>
alim en
ai res</w>
&apos;am us
é ro
vêt ement</w>
volley ball</w>
téles cope</w>
tiss u</w>
ti s
tein dre</w>
ss é</w>
s ty
s por
rou e</w>
ri ant</w>
prom ènent</w>
profi tant</w>
pié tons</w>
oi si
og g
mili taire</w>
m é</w>
lumi ères</w>
kar at
karat é</w>
jou r</w>
j ogg
in térieur</w>
g nent</w>
figu res</w>
fi que</w>
eu e</w>
escal iers</w>
endor mi</w>
donn ant</w>
des sous</w>
céré monie</w>
con tr
c ro
boî te</w>
bo l</w>
b ad
V oi
&apos; aide</w>
étudi ants</w>
é glise</w>
é cha
x o
voi t</w>
soli taire</w>
si ège</w>
scoot er</w>
pou belle</w>
par k</w>
p é</w>
ob el
nu ag
na se</w>
mon tant</w>
m és</w>
lumi ère</w>
j oy
i que</w>
gym nase</w>
gir ls</w>
g obel
g al
fe r</w>
faç ade</w>
er ie</w>
effec tue</w>
d î
d us</w>
co u</w>
co té</w>
chu te</w>
bro sse</w>
bon dée</w>
bat teur</w>
balus trade</w>
am i</w>
al ier</w>
Voi ci</w>
&apos;éloi gne</w>
écha fau
é chi
ven dre</w>
u ns</w>
tr o
tou che</w>
ti f</w>
t êtes</w>
sho rts</w>
se p
sep t</w>
sa xo
s oit</w>
s eule</w>
roul ettes</w>
ra tion</w>
pro jet</w>
partici pant</w>
p aille</w>
o ts</w>
nett oie</w>
ne z</w>
mag az
m oi
m eu
gar e</w>
fres que</w>
f ér
escala dant</w>
e mm
du res</w>
descen dent</w>
chin ois</w>
chemi ses</w>
ach è
accrou pi
a ts</w>
a ble</w>
&apos;ar ts</w>
&apos; ho
&apos; enfant</w>
écou te</w>
écou tant</w>
ère ment</w>
y er</w>
tr om
tout- petit</w>
ti cule</w>
ten ir</w>
souri re</w>
soi rée</w>
répar er</w>
ré fl
ré cu
pr ati
pom pier</w>
pl on
pei gnant</w>
partici pent</w>
pa vé</w>
p è
obsta cle</w>
nettoy ant</w>
mo ment</w>
man teaux</w>
i d
i c
heur eux</w>
hau tes</w>
gli ssant</w>
gar dien</w>
exam in
doig ts</w>
cui t</w>
cou v
c la
bal aie</w>
b ui
b re
b on</w>
N e
&apos; ordinateur</w>
&apos; as
échafau d
â ne</w>
voi le</w>
v eur</w>
utili sent</w>
télé pho
ty pe</w>
ti vement</w>
th ou
thou si
tan g</w>
tam bou
sur ve
super marché</w>
sold ats</w>
rou x</w>
ra le</w>
qu é</w>
pri n
po t</w>
piqu e-
pen ché</w>
pas sa
par ta
par cours</w>
pantal ons</w>
ori en
ol s</w>
mon tent</w>
met tant</w>
lanc eur</w>
lan çant</w>
l ers</w>
indi vi
hau te</w>
gymn aste</w>
guitar iste</w>
g ou
faç on</w>
en thousi
do cu
d eurs</w>
cor ps</w>
com bat</w>
ck s</w>
certai ns</w>
ce in
cad re</w>
ca le</w>
bran dit</w>
bon dé</w>
bat tant</w>
bar re</w>
bal con</w>
ami ne</w>
a br
&apos; être</w>
œ ur</w>
éc ri
v éri
u res</w>
trot tin
tou te</w>
te -
tatou age</w>
ta bou
sa vou
ru g
re tourn
randonn eurs</w>
randonn eur</w>
ram bar
pri se</w>
pla t</w>
pl au
pas ser</w>
parti e</w>
or k</w>
n ée</w>
n eur</w>
mot os</w>
j oli
in g
hu mide</w>
gri l</w>
gonfla ble</w>
festi val</w>
ex amine</w>
dé pla
dis sant</w>
di vers</w>
cou l
cou ché</w>
circu lation</w>
ci en</w>
chaî ne</w>
car es
bag ages</w>
au -
as sant</w>
ap plau
améric aine</w>
afro- américain</w>
&apos;ar ti
&apos;ac cordéon</w>
&apos; en</w>
é cos
wa y</w>
va che</w>
ui sent</w>
trav aux</w>
traditionn els</w>
tra c
tr oisi
troisi ème</w>
t ement</w>
t ball</w>
sur face</w>
s il
s eur</w>
réfl échi
ru ban</w>
ri er</w>
ra deau</w>
qu eue</w>
plat eau</w>
pié ton</w>
pique- nique</w>
p ing</w>
or dures</w>
oc k
o ë</w>
o ffi
mon de</w>
march andi
m an</w>
li vres</w>
li n</w>
dé jeu
du re</w>
di ver
dans euse</w>
cou verte</w>
chev auche</w>
chev au
chan tent</w>
cav alier</w>
car ton</w>
can oë</w>
b oi
autom ne</w>
ar gen
améric ains</w>
ag ent</w>
adver se</w>
a le</w>
&apos;amus ent</w>
ô le</w>
écos s
vo l</w>
tr ouv
tom be</w>
toi le</w>
ten tent</w>
ten tant</w>
sor ti
sal o
s és</w>
rassembl és</w>
r êt</w>
pro je
pro che</w>
pri s</w>
poi s</w>
pat tes</w>
p uie</w>
outi ls</w>
oi se</w>
obser ve</w>
mon ticule</w>
mili taires</w>
mar teau</w>
m e
lé g
lu ge</w>
lin ge</w>
le vant</w>
jogg ing</w>
g rat
g o
frap pant</w>
f lan
déser te</w>
dor mant</w>
cow boy</w>
comm erci
cham bre</w>
bl ouse</w>
at or</w>
anim aux</w>
al lu
ai si
ac ro
a k
Y ork</w>
A si
épau le</w>
él an
éclabou ssures</w>
é tr
é car
è que</w>
â tre</w>
ver d
v an
ur bain</w>
téri eure</w>
tr é
ta pe</w>
t oire</w>
saxo phone</w>
salo pette</w>
sal to</w>
s ar
re ce
qua d</w>
py jam
profi te</w>
pr êt</w>
pi an
paras ol</w>
ouv re</w>
ore illes</w>
n g</w>
mou sta
mag ni
lan gue</w>
ill on</w>
id enti
gran des</w>
foot bal
footbal leurs</w>
f ra
f an
en tre
dire ction</w>
coul oir</w>
comm ent</w>
ci er</w>
cher che</w>
che z</w>
chan teur</w>
bas se</w>
ban dan
athlè te</w>
at teindre</w>
&apos;en trée</w>
&apos;affron tent</w>
é tang</w>
é p
y s</w>
w i
w ag
ui es</w>
trouv ent</w>
trottin ette</w>
tra cteur</w>
touri stes</w>
ti rer</w>
tes se</w>
t- être</w>
t ail
sold at</w>
servi ette</w>
ser t</w>
rug by</w>
rol lers</w>
ro che</w>
rambar de</w>
publi que</w>
pl uies</w>
peu t-être</w>
para pluies</w>
p le</w>
ou fla
oufla ge</w>
n eaux</w>
lu min
li ère</w>
im age</w>
g ant</w>
foot ball
football eur</w>
fla que</w>
f lu
en tr
dî ner</w>
différ ents</w>
di ns</w>
dan ser</w>
cu les</w>
cr eu
can i
cam ouflage</w>
ca deau</w>
bui ssons</w>
bala i</w>
b oire</w>
arti cles</w>
ar e</w>
ambul ant</w>
ad mi
V T
VT T</w>
&apos;ap puie</w>
équipe ment</w>
y e</w>
vi déo</w>
ver se</w>
ver res</w>
tal ons</w>
tabou ret</w>
t i</w>
ss er</w>
so f
sof tball</w>
sa ges</w>
s uit</w>
re bord</w>
rassembl ement</w>
pian o</w>
para chute</w>
o p
musici en</w>
mu rs</w>
m élan
lu t
l ar
ju pes</w>
joy eusement</w>
fér ence</w>
fonc ée</w>
f in
escal ator</w>
dé ten
dé fen
d re
com pl
chauss ettes</w>
cha c
bril lant</w>
bran che</w>
bat eaux</w>
b assi
au to
ar ts</w>
ar bitre</w>
alimen taire</w>
al pin
ai ent</w>
acro b
C h
&apos;apprê tant</w>
&apos;amu sant</w>
éclai rée</w>
é cu
z z
verd oy
trans portant</w>
ter min
ten u</w>
surf ant</w>
si tu
ray ures</w>
pyjam a</w>
pour ch
per che</w>
pancar tes</w>
ou vert</w>
ordinat eurs</w>
mon ter</w>
met tre</w>
manifes tation</w>
mai s</w>
lo cks</w>
j ock
for m
fi le</w>
feu ille</w>
f é
f oin</w>
f leur</w>
embr asse</w>
dre ad
dread locks</w>
descen dre</w>
de ment</w>
cô tés</w>
cr ois
cond uisant</w>
con trac
clô tu
cla vier</w>
cir cuit</w>
chauss ée</w>
ch eur</w>
ca ban
bé ret</w>
bri que</w>
bandan a</w>
b eau</w>
b am
atten tivement</w>
assi ette</w>
ar rêt</w>
ar gent</w>
ag ri
af fai
I n
B M
&apos;appar eil</w>
&apos; s</w>
z e</w>
ym pi
vi ves</w>
vi sion</w>
v és</w>
ur b
té ti
ti rent</w>
ti ons</w>
ski s</w>
s sion</w>
s si
ré ci
ray on</w>
qu ent</w>
publici té</w>
poussi ère</w>
poi gn
po di
podi um</w>
plat e-
plate- forme</w>
pi le</w>
pi ge
p ain</w>
ot es</w>
mari é</w>
mari ne</w>
lè vent</w>
her bes</w>
ha bi
h uit</w>
h ou
fréquen té</w>
fer més</w>
employ és</w>
discu ter</w>
d al
d a</w>
cô nes</w>
cré p
commerci al</w>
co équi
cami onnette</w>
ca bi
boi vent</w>
ban cs</w>
bal les</w>
bal ade</w>
at ter
allong és</w>
all em
ai ss
adver saire</w>
ad o
&apos;ar rê
&apos; à</w>
&apos; attra
è che</w>
vi sages</w>
us cule</w>
travail leurs</w>
tin g</w>
th é
ta le</w>
sta tionn
sor tant</w>
sal u
sa pin</w>
récu pé
res semble</w>
res semblant</w>
profi tent</w>
professionn elle</w>
pos és</w>
pos ée</w>
poin te</w>
poi ssons</w>
ori gi
omb re
nat ation</w>
mou illé</w>
le ver</w>
lan te</w>
l ou
je ans</w>
in té
i s</w>
gra dins</w>
gobel et</w>
gar age</w>
g ami
gami n</w>
fr ont</w>
fi n</w>
dé col
dans euses</w>
d res
crép uscule</w>
cou stique</w>
cou dre</w>
cor pul
con tre
con férence</w>
co r</w>
clu b</w>
chevau chant</w>
cha que</w>
certai nes</w>
cen tr
caban e</w>
boute illes</w>
blo cs</w>
ban der
atta ché</w>
ar ène</w>
ar rê
an ti
an ce</w>
ai der</w>
a éri
a coustique</w>
Ne w</w>
&apos;é té</w>
&apos; atten
&apos; adultes</w>
ê ts</w>
étran ger</w>
éro port</w>
éclai ré</w>
échafaud age</w>
vou s</w>
vi tesse</w>
ve au</w>
u n
ti ère</w>
ti ve</w>
ti ré</w>
tambou r</w>
t ex
str i
ssu re</w>
ss ée</w>
sou lève</w>
sil hou
répar e</w>
réci pi
roch eux</w>
re li
re -
r és</w>
r us
qu el</w>
pn eu
plan ches</w>
plan cher</w>
pla que</w>
pla fond</w>
pin s</w>
per cu
partici pe</w>
pap illon</w>
pa d
oc cu
nettoy er</w>
multi color
multicolor es</w>
mot ards</w>
ki os
joli e</w>
in cen
incen die</w>
i nes</w>
i le</w>
gla ces</w>
fra î
flu o</w>
fauteu ils</w>
et er</w>
en tou
employ é</w>
dor é</w>
dis sent</w>
de -
col le
cas quettes</w>
car tes</w>
car te</w>
c ée</w>
c eaux</w>
c ai
blou son</w>
ber ger</w>
basket teur</w>
appuy é</w>
alim ents</w>
ai dant</w>
affai res</w>
ac com
S u
BM X</w>
&apos;ar gent</w>
û te</w>
ve lo
velo p
v aste</w>
v ali
ui re</w>
trom pette</w>
tr u
tr ait</w>
tomb er</w>
tan ts</w>
tai l</w>
t ées</w>
s om
s eaux</w>
ri re</w>
ra me</w>
pr êts</w>
por te-
por tables</w>
pl eure</w>
passa gers</w>
pal mi
palmi ers</w>
ore ille</w>
ore ill
o d</w>
nuag eux</w>
ni ère</w>
métalli ques</w>
mi r</w>
marchandi ses</w>
mai sons</w>
magni fique</w>
m éri
lég èrement</w>
l é</w>
kios que</w>
ill és</w>
identi ques</w>
i f
ho o
fé mini
flot tant</w>
enthousi as
déjeu ner</w>
dé contrac
dor mir</w>
dans eurs</w>
d en
câ lin</w>
cuisi nant</w>
cr ête</w>
cr oi
combinai sons</w>
cho ses</w>
che fs</w>
chau ssure</w>
chac un</w>
ca ge</w>
c œur</w>
bran dissant</w>
bi jou
autom atique</w>
au di
at e
allem and</w>
align és</w>
ac tion</w>
ac k</w>
P ère</w>
&apos;oc cu
&apos;attra ctions</w>
&apos;a vant</w>
&apos; origi
élé ph
é pou
è ges</w>
ç onn
wag on</w>
véhi cules</w>
utili ser</w>
urb aine</w>
télépho nique</w>
tou cher</w>
to ri
ti tu
ti ques</w>
t ch
sou s-
si èges</w>
se ction</w>
sand wi
s ées</w>
s t
récupé rer</w>
ro ck</w>
regar d</w>
re tte</w>
re fl
r ête</w>
publici taire</w>
pro té
pou tre</w>
pos er</w>
pl es</w>
pati noire</w>
par ents</w>
pap a</w>
ot h
ol ympi
obser vent</w>
ob s
nag ent</w>
n é
n i</w>
n ais</w>
mé de
mot eur</w>
mm ent</w>
mi ère</w>
magaz ine</w>
m â
m er
m am
lé v
lam pad
l ette</w>
jong le</w>
indi en</w>
hi s
har nais</w>
h é
h al
ga zon</w>
g s</w>
froi d</w>
fr ais</w>
for es
fi x
f ran
en velop
en gag
dis cours</w>
di stri
d ur</w>
cuisini er</w>
cor n
comm ence</w>
co lon
chan ter</w>
bor dé</w>
bat tre</w>
basket ball</w>
acrob ati
acc roche</w>
a c</w>
&apos;origi ne</w>
&apos;embras sent</w>
&apos; automne</w>
véri fi
vé téti
ven ant</w>
v aiss
vaiss elle</w>
tr ei
tr ai
tor ses</w>
tom bé</w>
ti l
te l</w>
t euse</w>
su p
sty le</w>
se -
s mas
s aisi
récipi ent</w>
re posent</w>
qu oise</w>
pê cher</w>
prépar er</w>
pos ées</w>
por tes</w>
por ter</w>
pn eu</w>
pi rat
pati n
parti ellement</w>
pal et</w>
oth èque</w>
on d
o pé
nu ages</w>
ni ver
na val</w>
n au
mus ée</w>
montr ent</w>
mem bre</w>
mar quer</w>
maqu illage</w>
m ob
m es
l eux</w>
l ass
ja pon
indi enne</w>
heur euse</w>
grim pant</w>
gri ma
gra vier</w>
g es
f oire</w>
ex pl
en nes</w>
du cteur</w>
diri ge</w>
d i</w>
cu r
cro sse</w>
cr euse</w>
chi ot</w>
chan son</w>
cer f
car tons</w>
car re
can ard</w>
bli othèque</w>
bill ard</w>
bi bliothèque</w>
ball er
at t
appréci ant</w>
agi tant</w>
afric ains</w>
accroch é</w>
a juste</w>
C o
&apos;é quilibre</w>
&apos;é cole</w>
&apos;ar rête</w>
œu vre</w>
œu fs</w>
élè ves</w>
y n
x i</w>
vététi ste</w>
vol ent</w>
viol on
vi c
ven te</w>
usi l</w>
télé vision</w>
tu be</w>
tram way</w>
tr on</w>
tatou ages</w>
ta xi</w>
t è
t gol
tgol fi
surve ill
sorti e</w>
ru re</w>
rece veur</w>
rapi dement</w>
ra se</w>
r ai
pâ te</w>
poussi ér
pou ce</w>
po il</w>
plong eant</w>
plong e
pi tal</w>
pein dre</w>
pai x</w>
p és</w>
p re</w>
oi ent</w>
offi ci
mon tgolfi
mam an</w>
lo t</w>
li ers</w>
le vé</w>
lass o</w>
lar ge</w>
la vant</w>
k e</w>
ju m
im posant</w>
im pli
i si
hô pital</w>
hu la</w>
hoo p</w>
her b
h am
grou pes</w>
gril ler</w>
g o</w>
fu mée</w>
fil ets</w>
fai te</w>
f usil</w>
et é</w>
en voie</w>
dégui sés</w>
dé place</w>
dé cor</w>
docu ments</w>
d él
cô ne</w>
cri ck
crick et</w>
con ducteur</w>
comm en
che tant</w>
chau de</w>
ch âteau</w>
car naval</w>
bou euse</w>
bois é</w>
bander ole</w>
atta chés</w>
athlè tes</w>
at ure</w>
alpin iste</w>
ado ssé</w>
ac ci
a van
a chetant</w>
O rient</w>
M i
&apos;é trei
&apos; amis</w>
ô t</w>
ê tres</w>
étran ge</w>
é ta
é co
voi es</w>
viol ets</w>
vic toire</w>
vi tre</w>
v illage</w>
tri cy
ten tes</w>
souff le</w>
ski eurs</w>
silhou ette</w>
ser rant</w>
sci enti
sandwi ch</w>
s i</w>
s col
ré gi
rou es</w>
ro sage</w>
reli gi
re ç
r gi
professionn el</w>
prod uisent</w>
poi trine</w>
poi ds</w>
plon ge</w>
plan te</w>
pat au
pas s
pan neaux</w>
pa gn
p aire</w>
opé ration</w>
ong s</w>
ombre lle</w>
oc y
niver saire</w>
nau tique</w>
n ac
nac elle</w>
mousta che</w>
mon ocy
micro s</w>
micro phone</w>
mar bre</w>
man che</w>
ma tion</w>
m a</w>
li sent</w>
lampad aire</w>
lam pe</w>
l ants</w>
k il
k e
journ aux</w>
j ail
ho r
gé ant</w>
grima ce</w>
g rap
g noire</w>
g ement</w>
for mation</w>
flan c</w>
fl eu
fi r
fen êtres</w>
fai blement</w>
examin ant</w>
esc ri
entraî neur</w>
ensei gne</w>
distri bu
dessi n</w>
de dans</w>
d une</w>
d ue</w>
comm an
coiff ure</w>
chem in
chan teuse</w>
cares se</w>
cai sses</w>
cabi ne</w>
c at
bran ches</w>
bou quet</w>
bois ée</w>
bijou x</w>
bassi n</w>
bar res</w>
bai gnoire</w>
b enne</w>
aéri enne</w>
ate lier</w>
arti stique</w>
ar me</w>
ar i
agenou illée</w>
afric aine</w>
accroupi e</w>
M oy
J o
&apos;en tre
&apos;apprê tent</w>
ï s</w>
étudi ant</w>
élec tron
écri vant</w>
vol er</w>
ven tre</w>
ven deurs</w>
usi ne</w>
u ment</w>
traî neau</w>
to ge</w>
to ff
thé âtre</w>
tch ou
tchou c</w>
tai nes</w>
t tor
t ongs</w>
se cou
san s-
régi on</w>
ré pè
re posant</w>
ran g</w>
pê cheur</w>
po ul
pige ons</w>
pel let
par tout</w>
pan iers</w>
ou tchouc</w>
ou rs</w>
nouve au-
nouveau- né</w>
nourri sson</w>
mé tier</w>
monta gn
monocy cle</w>
mo der
mi x
le vés</w>
lave rie</w>
jock ey</w>
j e</w>
inter section</w>
imm en
gymn astique</w>
grap hi
gir l</w>
gi es</w>
gar ée</w>
g este</w>
g an
four rure</w>
fou r</w>
fl â
fan f
f ro
f il</w>
f aux</w>
ex écu
et h
escala dent</w>
es sen
en t
donn er</w>
dis pu
dam es</w>
couv re-
contr ôle</w>
clôtu rée</w>
cl és</w>
cl aire</w>
circu lant</w>
ch â
ce p
cami ons</w>
ca outchouc</w>
brou ette</w>
bre t
br é</w>
blon des</w>
ban deau</w>
ban de</w>
bag u
b ons</w>
attra pant</w>
as ses</w>
arri ères</w>
arri ve</w>
applau dissent</w>
anim é</w>
allong ées</w>
afro- américaine</w>
achè tent</w>
achè te</w>
ach eter</w>
ac h</w>
abr i</w>
Asi atiques</w>
&apos;in stru
&apos;en vers</w>
&apos;embras ure</w>
&apos;ar bitre</w>
&apos;amu se</w>
&apos; escalier</w>
électron ique</w>
écou tent</w>
écoss aise</w>
vi ron</w>
vi e</w>
tri co
traditionn el</w>
tomb ant</w>
to ges</w>
ti rée</w>
t â
t u</w>
so ci
si ble</w>
ser v
ser re</w>
scol aire</w>
sans- abri</w>
s ter</w>
répar ant</w>
ri zon</w>
rapi des</w>
ra f
r ail
qu ille</w>
présen tation</w>
pro ba
proba blement</w>
pou pée</w>
por trait</w>
po teaux</w>
plon gée</w>
per mé
per c
pen chée</w>
pati o</w>
parta gent</w>
par quet</w>
pag aie</w>
pa ga
p ées</w>
p te</w>
outi l</w>
nou s</w>
nn eur</w>
nett oient</w>
nag eurs</w>
n œu
méri que</w>
mou sse</w>
mon ument</w>
moder ne</w>
mat el
man ne
ma ïs</w>
lè vres</w>
li qui
lave r</w>
l ée</w>
k s</w>
k er</w>
inter agi
indivi dus</w>
indivi du</w>
in fir
im pri
im permé
ill ard</w>
i s
hi p
hau teur</w>
gravi ssant</w>
gar ni</w>
fémini n</w>
froi de</w>
for t</w>
for aine</w>
fon cti
flot te</w>
fl ûte</w>
fi ce</w>
ff re</w>
fer rée</w>
fanf are</w>
f ans</w>
ex térieure</w>
ex péri
ex position</w>
entour és</w>
en- ciel</w>
en g
em u
e y
déten dent</w>
dél abr
décor é</w>
décontrac tée</w>
di ens</w>
de l
dan ce</w>
d ri
d en</w>
câ bles</w>
cui re</w>
cu ill
cu e
cr ème</w>
cr âne</w>
cr aie</w>
cou che</w>
corn emu
com posé</w>
colle ction</w>
col lè
cl in
ci n</w>
cer ceau</w>
cein ture</w>
cav ali
cam ping</w>
cam p</w>
c -
c- en-ciel</w>
bou tique</w>
bou gies</w>
bonn ets</w>
be ach</w>
bar il</w>
arri vée</w>
agi te</w>
agenou illé</w>
ag ents</w>
a b
L e
&apos;ho rizon</w>
&apos;ho nneur</w>
&apos;entraî nement</w>
œu vres</w>
œ il</w>
étr oite</w>
équipe ments</w>
éléph ant</w>
écar tés</w>
é toff
é pée</w>
voi lier</w>
viol ettes</w>
ve s
ve ments</w>
vali se</w>
uni ver
tu s</w>
tricy cle</w>
ti vi
ti en</w>
tes ur
st ol
ss i</w>
spor tif</w>
sci e</w>
s éri
s prin
réuni ssent</w>
ré col
rus ses</w>
ru rgi
rou ler</w>
ram assant</w>
rail s</w>
ra quettes</w>
qui n</w>
qu ement</w>
pê chant</w>
proté ger</w>
prod uisant</w>
pro ch
prati quent</w>
pneu s</w>
plu mes</w>
pl eu
pi stol
perc euse</w>
per ru
pein ts</w>
pe l</w>
pati n</w>
pass ants</w>
parta geant</w>
nouve l
ni ques</w>
navi gu
nag er</w>
méde cin</w>
mou vements</w>
met tent</w>
machi nes</w>
m uni
m ati
lo cal</w>
liqui de</w>
le quel</w>
l o</w>
ki tesur
j o</w>
inspec te</w>
immen se</w>
hal l</w>
gro sses</w>
gril le</w>
graffi ti</w>
gi n</w>
ges tes</w>
gar és</w>
gar é</w>
g ère</w>
fris és</w>
fores tier</w>
escri me</w>
er i
en cou
en com
e ils</w>
dé garni</w>
dé coupe</w>
diver ses</w>
discu te</w>
diri geant</w>
dessi nant</w>
der by</w>
creu sant</w>
coéqui pier</w>
cou teau</w>
constr uisant</w>
colli nes</w>
col lants</w>
cli ent</w>
ci trou
chi rurgi
chi ots</w>
chau ff
chau d</w>
cerf -
cerf- volant</w>
cad die</w>
c rie</w>
br on
bon bons</w>
bl ess
bask ets</w>
bas -
ban an
bad au
badau ds</w>
ba c</w>
b és</w>
au ssi</w>
ath lé
as sent</w>
arti stes</w>
ar c-en-ciel</w>
an cien</w>
am ie</w>
ai n
afric ain</w>
a bru
M ar
C on
&apos;éloi gnant</w>
&apos;é tudi
&apos;entraî ne</w>
&apos;entraî nant</w>
&apos;embras sant</w>
&apos;arrê tent</w>
&apos;ar rosage</w>
&apos; escrime</w>
&apos; em
&apos; atteindre</w>
&apos; arrière-plan</w>
&apos; accroupi
&apos; accroche</w>
é ven
é tal
é gal
égal ement</w>
y m</w>
y ent</w>
univer si
uni que</w>
u nes</w>
tudi o</w>
tu ellement</w>
tro pi
tran sport</w>
tourn er</w>
ti é</w>
te int</w>
te ch
tatou é</w>
sk ie</w>
si n
si m
si gn
ser vant</w>
scienti fique</w>
savou re</w>
s yn
s tudio</w>
réuni on</w>
ré di
reç oit</w>
retourn ant</w>
ren ver
ren if
refl et</w>
ran s</w>
qui t
profes seur</w>
pl eurs</w>
pirat eur</w>
pi zz
per ron</w>
pen chant</w>
parti r</w>
paras ols</w>
par ade</w>
obsta cles</w>
nuag euse</w>
moi tié</w>
mi -
manifes tants</w>
magaz ines</w>
m è
m o</w>
m al
let tres</w>
la mm
je tant</w>
jail li
impermé able</w>
ic a</w>
i stes</w>
i g
hô tel</w>
hé li
hock ey
h an
gu é</w>
go û
gla cée</w>
gal erie</w>
g és</w>
g ées</w>
g rue</w>
g re</w>
g r
ex e</w>
espa gn
dé s</w>
dé part</w>
do g</w>
discu ssion</w>
d euse</w>
cul aire</w>
cuisini ère</w>
croi x</w>
cou vre</w>
contre bas</w>
con tenant</w>
commen cer</w>
ci pa
cho rale</w>
cho isi
cher chant</w>
char rette</w>
ch è
ch ette</w>
ch et</w>
bul le</w>
brou illard</w>
bril lante</w>
bou ée</w>
bou eux</w>
bor deaux</w>
bo ys</w>
blou ses</w>
bas- côté</w>
b elles</w>
b ains</w>
at es</w>
as sé</w>
argen té</w>
appar eils</w>
ap pe</w>
an ces</w>
al lo
adver ses</w>
accom pagn
abru pte</w>
R e
L ond
2 0
1 2</w>
&apos;arti fice</w>
&apos;ap proche</w>
&apos;accroupi t</w>
&apos;A si
&apos; arrivée</w>
&apos; E
z ar
vi r
v u</w>
v ar
ui -
ty pes</w>
tur ban</w>
tron çonn
tri b
tr em
tomb ée</w>
th é</w>
tau corps</w>
ta ch
t ère</w>
t ain</w>
suspen due</w>
surve ille</w>
sur éle
sur poids</w>
sou r
som bres</w>
soci été</w>
sau vage</w>
s tra
s te
ré graphi
ri s
ri ng</w>
ri ers</w>
re gi
re bon
ray és</w>
raf ting</w>
pé dal
pâ le</w>
pro pri
pre mière</w>
por che</w>
po ê
po terie</w>
po mmes</w>
plonge oir</w>
pl ô
piè ces</w>
pin g
per for
perfor man
performan ce</w>
pai sible</w>
pa tient</w>
p ha
orien tale</w>
on ce</w>
o les</w>
navi gue</w>
nat ure</w>
nag eur</w>
mou tons</w>
mou ton</w>
mor ceaux</w>
min ce</w>
manne quin</w>
mag as
magas ins</w>
m au
li gnes</w>
la ve</w>
l és</w>
l et</w>
l es
l ai
kil t</w>
jus taucorps</w>
jum elles</w>
jou é</w>
japon ais</w>
j us</w>
j ol
in térieure</w>
in clin
im ages</w>
il lumin
hockey eurs</w>
grim ac
grimac es</w>
gli sser</w>
gi le</w>
gen ou</w>
gar ées</w>
gag ner</w>
ga z
g ie</w>
fr ère</w>
fil me</w>
fa bri
f eux</w>
ett eurs</w>
essen ti
escala der</w>
ent ass
enf lamm
en vir
en gin</w>
emm ent</w>
em bar
dépla çant</w>
dé bri
débri s</w>
dor ée</w>
docu ment</w>
dispu tent</w>
di sant</w>
di plô
dessi ne</w>
de man
d om
cuill ère</w>
crois és</w>
cr as
cour te</w>
cou ples</w>
cornemu se</w>
comm er
cir cule</w>
cipa l</w>
cho régraphi
che ts</w>
che -
char geant</w>
carre lage</w>
can ot</w>
cam é
cal me</w>
ca pe</w>
c é</w>
c ail
bé bés</w>
bu r
bret elles</w>
bre ak
bou les</w>
bo m
bi zar
bask etteurs</w>
bal ayant</w>
bagu ettes</w>
bad ge</w>
b roch
b ack</w>
assi ettes</w>
ar ros
appréci ent</w>
ap prend</w>
align ées</w>
al lant</w>
ai nes</w>
ai les</w>
ai dent</w>
acrobati e</w>
T ex
M c
Lond res</w>
&apos;étrei gnent</w>
&apos;é cra
&apos;embras ser</w>
&apos;an niversaire</w>
&apos; orchestre</w>
&apos; allée</w>
&apos; U
épou x</w>
écoss ais</w>
é vier</w>
é pi
é cole</w>
â teaux</w>
y on</w>
y og
yog a</w>
voy ag
volley -ball</w>
visi ble</w>
vi en
verdoy ante</w>
v al
ui te</w>
tur quoise</w>
tronçonn euse</w>
tri ce</w>
tourn é</w>
ton deuse</w>
ten dant</w>
t ège</w>
t tes</w>
t onn
séri e</w>
su l
sty lo</w>
spor tive</w>
sous- vêtements</w>
sou de</w>
sor tir</w>
situ é</w>
seu lement</w>
se- pousse</w>
sal es</w>
sa n</w>
s t</w>
s mo
re ts</w>
re tourne</w>
re ment</w>
ray ons</w>
ram asse</w>
ram ant</w>
ra s</w>
ra ment</w>
qu ée</w>
qu illes</w>
pul véri
pu pi
présen te</w>
pres sion</w>
pres que</w>
prati quant</w>
pous se-pousse</w>
poign ée</w>
po mme</w>
pla ts</w>
pil otes</w>
pi que</w>
ph al
peu t</w>
pei gnent</w>
patin eurs</w>
par al
pa quet</w>
pa piers</w>
pa ce</w>
p tère</w>
ou r
orien tal</w>
or n
or gan
olympi ques</w>
oi n
o w
nouvel lement</w>
nouve au</w>
nombr euse</w>
ni e</w>
n on</w>
mélan ge</w>
médi é
mus e
montgolfi ère</w>
montagn eux</w>
mi s</w>
mi que</w>
meu te</w>
matel as</w>
mani pu
man u
m ur
lu x
li ne</w>
lan ter
l aine</w>
jong lant</w>
je c
instal lant</w>
in ten
in d
ill ant</w>
i r
héli co
hélico ptère</w>
herb eux</w>
ha che</w>
gé ante</w>
gravi t</w>
gobel ets</w>
g or
g erie</w>
fl é</w>
fi ques</w>
ex posé</w>
essa yer</w>
envir onn
envelop pé</w>
engag és</w>
encou ra
en- dessous</w>
em pil
e- ville</w>
dégui sé</w>
défil ent</w>
dres se</w>
dor ment</w>
dis que</w>
cu me</w>
couver tures</w>
coup s</w>
corpul ent</w>
constr uire</w>
comm ande</w>
colon nes</w>
co ol</w>
cl é</w>
ci ble</w>
chorégraphi e</w>
che cs</w>
char gement</w>
cham eaux</w>
ch ées</w>
centr e-ville</w>
cavali ers</w>
can ette</w>
ca tion</w>
ca r</w>
c élè
c rayon</w>
c aux</w>
bu reaux</w>
br û
bou clés</w>
bor ne</w>
bor dure</w>
bom be</w>
ber ge</w>
ban jo</w>
baller ine</w>
bai ssée</w>
atta chée</w>
ar t</w>
ar che</w>
ali sation</w>
al ler</w>
adolesc ente</w>
acci dent</w>
ac tivi
a éroport</w>
a qu
a jus
W al
Tex as</w>
S e
Jo h
D J</w>
B o
A n
&apos;étudi ants</w>
&apos;é cume</w>
&apos;é brou
&apos;occu pe</w>
&apos;entre tien</w>
&apos;entraî nent</w>
&apos;a vion</w>
&apos; oreille</w>
&apos; obstacles</w>
&apos; aux</w>
&apos; agenou
&apos; affaires</w>
étudi e</w>
é toile</w>
é par
x y
vé gé
voy age</w>
visi bles</w>
violon celle</w>
vi te</w>
ves ton</w>
ven ir</w>
ven dent</w>
v allée</w>
v ac
ur gen
u i</w>
tri ste</w>
traditionn elle</w>
tourn oi</w>
tou chant</w>
tiss er</w>
ti ssant</w>
tex to</w>
tend us</w>
ten du</w>
tal es</w>
tai t</w>
tach eté</w>
so yeux</w>
sin ge</w>
sim il
sign alisation</w>
ser ie</w>
sau té</w>
saisi t</w>
sa v
s è
s cou
répè te</w>
réfléchi ss
ré cep
ron de</w>
roch euses</w>
ri ve</w>
res te</w>
rempli s</w>
religi euse</w>
regi str
re vêtement</w>
re poser</w>
ras semble</w>
pro tes
pro ches</w>
pr è
poussiér eux</w>
pour suit</w>
pour pre</w>
pos te</w>
pon ton</w>
po ts</w>
plu part</w>
plong eur</w>
pli que</w>
pli ante</w>
pla qué</w>
pha se</w>
person n
perru que</w>
per les</w>
pe ment</w>
p ili
on al
oi ses</w>
obser vant</w>
obs curité</w>
nœu d</w>
navi re</w>
n gle</w>
muni cipal</w>
mor d</w>
moi ns</w>
mi e</w>
meu bles</w>
men u</w>
mar i</w>
manipu le</w>
m ène</w>
lév riers</w>
lanc é</w>
la pin</w>
l ées</w>
ju ngle</w>
jou euses</w>
jol i</w>
j oie</w>
inté gra
in habi
inhabi tu
in form
impri mé</w>
immeu bles</w>
i es</w>
i P
hau t-
h es</w>
h aie</w>
gril l</w>
grat te</w>
gn on</w>
g âteaux</w>
g on</w>
g am
fri andi
fleu rie</w>
fl ou
fil m</w>
fer rées</w>
f ati
f ar
examin ent</w>
ex tré
ex ic
ex ci
essenti ellement</w>
es se</w>
environn ement</w>
enthousias tes</w>
enthousias me</w>
enthousi aste</w>
en trée</w>
el é</w>
e p</w>
dépla cent</w>
dé tend</w>
dé ploy
dé mar
dé li
dé couper</w>
dé chets</w>
dire ctions</w>
d è
d on</w>
d o</w>
cu re</w>
cr ée</w>
couvre- chef</w>
couv rant</w>
cou ssi
cou chée</w>
con for
con centre</w>
con centr
clo s</w>
cl ette</w>
chemin ée</w>
chem ent</w>
cham eau</w>
cha ts</w>
ch al
cer ie</w>
cel ui</w>
cas ser
ca pot</w>
c élé
c au
bu ff
bou r
bon ne</w>
bo u</w>
bless é</w>
bikin is</w>
be aux</w>
bas cule</w>
ban nière</w>
ball et</w>
b ols</w>
b arrières</w>
as cen
arti fi
arrière- cour</w>
argen tée</w>
accrou pis</w>
a vi
Mc D
J eux</w>
C hi
20 12</w>
&apos;é c
&apos;ar mée</w>
&apos;a éroport</w>
&apos; hôpital</w>
œu f</w>
étr oit</w>
étoff e</w>
épi cerie</w>
ép aisse</w>
éco liers</w>
éclai rage</w>
échafaud ages</w>
éch asses</w>
éc rans</w>
é tre
é ti
é jec
é checs</w>
é chan
ç on</w>
we en</w>
wa ï
wa ke
vien nent</w>
verdoy ant</w>
vac ances</w>
va le</w>
v rant</w>
v ont</w>
us tri
u ro
uro pe</w>
tru ck</w>
tron cs</w>
tri nes</w>
tri e
trie ver</w>
travail leur</w>
trans porte</w>
tran quille</w>
tr es
tr er</w>
tr en
tori um</w>
ton d</w>
tomb ent</w>
to p</w>
ti sse</w>
ter s</w>
tem ple</w>
ta pant</w>
t- dog</w>
t y</w>
sui vant</w>
soi gn
so da</w>
si ro
si gnes</w>
serv euse</w>
ser veur</w>
secou e</w>
sar celle</w>
salu ant</w>
s- mi
s-mi di</w>
s sement</w>
s pé
spé ci
s li
réuni es</w>
répar ent</w>
réfléchi ssant</w>
rédi ents</w>
ré ali
ro cail
restau ration</w>
rempli t</w>
re grou
ras er</w>
ras ant</w>
rap pel</w>
ra l</w>
ra ges</w>
r ail</w>
quar ter
qu eur</w>
qu elle</w>
péri l
péril leux</w>
pâ tis
pupi tre</w>
prè s-midi</w>
pro chant</w>
pr ête</w>
pr él
pr é</w>
poul et</w>
poin tant</w>
po ing</w>
po che</w>
plat e
pl aisi
plaisi r</w>
pistol et</w>
ping -
photograp hes</w>
phal te</w>
per du</w>
pel lette</w>
pein te</w>
pei g
pati neur</w>
paral lè
p ôt</w>
ouv rant</w>
organ i
oreill er</w>
onn é</w>
onal d</w>
oi res</w>
o ti
nouve lle</w>
n ées</w>
n ue</w>
n otes</w>
n oc
moy enne</w>
mini ature</w>
mi ères</w>
mi te</w>
mi ne</w>
men ant</w>
ma î
m ois
m exic
m al</w>
lév rier</w>
lut tent</w>
la t</w>
l ettes</w>
kitesur f</w>
ki ck
inter vie
inspec tent</w>
ing rédients</w>
indi ennes</w>
ind ustri
ill ent</w>
i tou
i en</w>
i ci</w>
ho t-dog</w>
habi ts</w>
guitar es</w>
gu er
gor ge</w>
gol den</w>
gar de</w>
g ères</w>
foncti onn
fo od</w>
flan elle</w>
fl eur
fleur i</w>
fin ir</w>
fer me</w>
f ois</w>
eu ro
essa yent</w>
essa ye</w>
ess aient</w>
entre pôt</w>
entou rées</w>
emm itou
effectu ent</w>
e ys</w>
délabr é</w>
décor ations</w>
dé coupant</w>
dé coup
du rant</w>
dr oi
dou lière</w>
di a
de mois
d eu
d -
curi eux</w>
cuisi ner</w>
crois ées</w>
couver ts</w>
corpul ente</w>
con tai
con cur
con cours</w>
compl et</w>
coiff e</w>
co l</w>
clow ns</w>
cl assi
circu lent</w>
ci tron</w>
ci er
chari ots</w>
cha r</w>
cha ge</w>
ch u</w>
cer tain</w>
can al</w>
cal èche</w>
bul l
break dance</w>
bra cel
boî tes</w>
box e</w>
blo c</w>
bl az
blaz er</w>
bi ères</w>
ban doulière</w>
balan cent</w>
bai ser</w>
ba var
audi torium</w>
attra ction</w>
as sorti
as ser</w>
as per
arti san
ari de</w>
ap pel
an ci
allo ween</w>
agri cole</w>
a mar
S o
Moy en-
M on
Joh n</w>
H alloween</w>
E n
Asi e</w>
&apos;él è
&apos;é cou
&apos;é ch
&apos;ex position</w>
&apos;en la
&apos;atten te</w>
&apos;as pirateur</w>
&apos;ap pu
&apos;affron tant</w>
&apos; ouvriers</w>
&apos; orange</w>
&apos; obscurité</w>
&apos; embrasse</w>
&apos; au</w>
&apos; au
&apos; animaux</w>
&apos; aider</w>
&apos; adolescents</w>
&apos; a</w>
éven tail</w>
épou se</w>
ép ais</w>
é tal</w>
é meute</w>
é mer
z er</w>
xi ème</w>
wake board</w>
vérifi e</w>
végé tation</w>
visi ère</w>
vie illes</w>
vi ce</w>
ver dure</w>
v ées</w>
v us</w>
v rai
v i</w>
urgen ce</w>
un gle</w>
u ri
u ant</w>
tè ques</w>
tu b
ttor al</w>
tré pied</w>
trou ver</w>
trans par
tr ess
tis me</w>
ti gre</w>
ti ge</w>
ti ers</w>
tabli ers</w>
sé cher</w>
syn ch
synch ron
synchron i
surveill ent</w>
surpl om
sur fer</w>
sup por
sui vent</w>
stra tion</w>
smas h
ski ant</w>
skat eurs</w>
si ve</w>
si te</w>
sho p
shop ping</w>
servi r</w>
sculp tures</w>
scou ts</w>
sc ri
savou rent</w>
san te</w>
sal ue</w>
s ym
s titu
s tant</w>
s ens</w>
roul é</w>
roul ants</w>
rempli ssant</w>
re triever</w>
ray ées</w>
rassembl ant</w>
ras é</w>
rapi de</w>
r y</w>
r ait</w>
quar i
quari um</w>
qu és</w>
qu oi</w>
pu n
propri é
proje cteur</w>
proch ain</w>
pro tège</w>
pri x</w>
poê le</w>
pous sent</w>
pourch assé</w>
pourch assant</w>
po s</w>
plate forme</w>
plan e</w>
photographi é</w>
pein tre</w>
peig noir</w>
pas tèques</w>
parti tion</w>
pa ge</w>
ou verts</w>
os pace</w>
oreill ers</w>
olympi que</w>
oig nent</w>
obs cure</w>
ob ile</w>
nu age</w>
noi x</w>
no mm
navigu ant</w>
n eu
n es
n appe</w>
mê mes</w>
médi cal</w>
mâ che</w>
mur et</w>
mousta chu</w>
mon stration</w>
mon ospace</w>
mob y
mo dè
me c</w>
mau v
mari n</w>
marchandi se</w>
march and</w>
maratho ni
mar t</w>
manifes tant</w>
ma j
m p
m ol
m age</w>
lu tte</w>
lo cale</w>
li ttoral</w>
li s</w>
li bre</w>
lanc ent</w>
la vent</w>
la crosse</w>
l mo</w>
kick box
ki mon
kaya ks</w>
kaya ki
k a</w>
jou rs</w>
jock eys</w>
jardi nage</w>
intégra le</w>
inté res
inspec tant</w>
indi ens</w>
in o</w>
in f
inf éri
impli quant</w>
im pres
im es</w>
ill ées</w>
ill er</w>
i ro
har mon
ha waï
h e
gril lage</w>
goû ter</w>
gla ci
gar de-
fu mer</w>
fro mage</w>
fran chi
fo yer</w>
flâ nant</w>
fi c</w>
ffe r</w>
f lo
f eur</w>
exécu tent</w>
expéri ence</w>
expl o
ex i
ex erci
espagn ol</w>
esc ar
ensei gn
en la
dégui sée</w>
décor ati
décol le</w>
débar deurs</w>
dé monstration</w>
dé ci
dé chi
droi ts</w>
dri b
dr ôle</w>
dou che</w>
distribu teur</w>
di n
deu xième</w>
dessi ns</w>
d age</w>
cri re</w>
creu sent</w>
cow- boys</w>
contr er</w>
constr uit</w>
co re</w>
co ffre</w>
co ck
co c
clôtu ré</w>
cl ar
citrou ille</w>
chè vre</w>
châ le</w>
chin oises</w>
cher cher</w>
char ge</w>
cel lu
cein tures</w>
cani che</w>
can nes</w>
can ards</w>
can a
c teurs</w>
c ils</w>
buff et</w>
bru nes</w>
br ée</w>
bou le
bou lan
bon dit</w>
bizar re</w>
ban s</w>
bam bou</w>
balanç ant</w>
ave r
auto ch
atta che</w>
at a</w>
ar mes</w>
an ge</w>
agenou illés</w>
adolesc entes</w>
admi re</w>
accroch ant</w>
a quarium</w>
Moyen- Orient</w>
J ungle</w>
J a
G ym</w>
Co la</w>
Chi ne</w>
Ch in
&apos;écra n</w>
&apos;é glise</w>
&apos;é cras
&apos;en viron</w>
&apos;ar cade</w>
&apos;appu yant</w>
&apos;al lu
&apos;agenou ille</w>
&apos;a voir</w>
&apos; utiliser</w>
&apos; or
&apos; on</w>
&apos; oiseaux</w>
&apos; image</w>
&apos; es
&apos; ad
&apos; O
élé g
électri ques</w>
éjec té</w>
éclabou ssant</w>
écar t</w>
é tait</w>
é tabli
établi ssement</w>
é dra
édra le</w>
â nes</w>
y -
xy lo
xylo phone</w>
vi trines</w>
vi tres</w>
vi des</w>
ven tion</w>
v eu
universi taire</w>
ui- même</w>
u p</w>
télépho nes</w>
tâ che</w>
tub a</w>
ttor es
ttores que</w>
traî nant</w>
tra fic</w>
tourn ant</w>
touri ste</w>
tom ates</w>
tom ac</w>
tan te</w>
tail ler</w>
tai si
ta ches</w>
sé par
suréle vée</w>
sur vêtement</w>
sui vi</w>
su cette</w>
stationn ement</w>
souri ants</w>
souri antes</w>
sour cils</w>
souff lant</w>
soign eusement</w>
situ ée</w>
si nu
si eurs</w>
servi ce</w>
ser ré</w>
sav on</w>
salu ent</w>
s èche</w>
s pi
s oir</w>
s me</w>
s eurs</w>
récep tion</w>
ru rale</w>
ron d</w>
ri z</w>
retourn é</w>
r d</w>
r all
rall ye</w>
r aide</w>
qui tte</w>
quarter back</w>
qu at
pê chent</w>
pé d
pro pre</w>
pro fond</w>
poussiér euse</w>
por té</w>
pon ge</w>
pol y</w>
po que</w>
po lo
pneu m
plong eurs</w>
plan tant</w>
pla quer</w>
pl ai
pin ata</w>
pil o
pige on</w>
pi ttoresque</w>
pi ra
photographi er</w>
peu pl
per ché</w>
pelu ch
pel ot
pelot on</w>
pau vre</w>
pati nent</w>
pati emment</w>
patau ge</w>
passa ger</w>
par d</w>
par ce</w>
pal mier</w>
paga yant</w>
pag aient</w>
p eur</w>
p assi
ou r</w>
or né</w>
ong les</w>
om bra
om bi
offici elle</w>
occu pés</w>
oc éan</w>
o poly</w>
o eu
nourri t</w>
no sau
neu f</w>
n et</w>
musi cal</w>
muse lière</w>
mu tuellement</w>
mu rale</w>
mp ;</w>
mor t</w>
mor dre</w>
mob ile</w>
mi se</w>
mes sieurs</w>
mas cu
mar mite</w>
maqu ille</w>
mani ère</w>
mani pul
man œu
m û
m on</w>
lè che</w>
li ve</w>
li e</w>
lanter nes</w>
lan tes</w>
lan d</w>
la quelle</w>
l y
l ui-même</w>
l ins</w>
k s
ju ges</w>
je ts</w>
iro quoise</w>
intervie w
instal le</w>
infir mières</w>
in con
in a
impres sionn
im pos
ill ères</w>
il es</w>
i t</w>
i sol
i ques</w>
hor s-
his tori
harmon ica</w>
ham ac</w>
h ur
grim pent</w>
gon f
gla cier</w>
genou illères</w>
gaz onné</w>
gar der</w>
g os</w>
g onnette</w>
g er
fris é</w>
fraî che</w>
fr uit</w>
four gonnette</w>
for ces</w>
flâ nent</w>
fl am
fil mer</w>
fil mant</w>
fati gué</w>
fan taisi
f as
extré mité</w>
expl or
ex posés</w>
eth nique</w>
entre prise</w>
entr er</w>
entr ent</w>
ennei gées</w>
eng a</w>
enf on
encom brée</w>
en terr
en lève</w>
en droits</w>
embras sant</w>
el és</w>
e ff
e f
déten dant</w>
défil ant</w>
dé sor
dé ambul
dra p</w>
dou ble</w>
donn é</w>
donn ent</w>
dom in
do ss
dire c
di vi
di nosau
demois elles</w>
del à</w>
de mi-
câ ble</w>
cuisi nent</w>
cue ille</w>
cr ê
coéqui piers</w>
coup ent</w>
cou d</w>
contai ner</w>
constr uisent</w>
con tenu</w>
comm un</w>
com pris</w>
collè gue</w>
col lation</w>
coiff eur</w>
co tte</w>
co lat</w>
cir culaire</w>
cigar e</w>
ci le</w>
cho n</w>
cho colat</w>
chi c</w>
cher chent</w>
char gé</w>
cham ps</w>
ch at
cer ceaux</w>
cein te</w>
cat cheur</w>
casser ole</w>
cas ino</w>
can yon</w>
cal mes</w>
ca hi
ca deaux</w>
ca che</w>
c rayons</w>
c ing</w>
c es
c ath
cath édrale</w>
c ales</w>
bâ che</w>
bron z
bro ssant</w>
bril lantes</w>
bracel et</w>
br ass
bou gie</w>
bor ds</w>
bo yant</w>
blo quer</w>
bill ets</w>
bei ges</w>
bar bus</w>
banan es</w>
baller ines</w>
b û
autom obile</w>
auto route</w>
au- delà</w>
atter rit</w>
atter rir</w>
att el
athlé tisme</w>
at teint</w>
at man</w>
ar rose</w>
ar ran
appuy ée</w>
appel é</w>
ap prenant</w>
ami que</w>
am a</w>
agri cul
admi rant</w>
acrobati es</w>
accroch és</w>
accompagn é</w>
accom pli
a près-midi</w>
a k</w>
a des</w>
a ban
Wal mart</w>
T imes</w>
S ta
Moy en</w>
McD onald</w>
J enga</w>
In diens</w>
E urope</w>
E lmo</w>
B atman</w>
&apos;équi pes</w>
&apos;éc labou
&apos;ébrou e</w>
&apos;é tire</w>
&apos;é poque</w>
&apos;é crire</w>
&apos;instru ments</w>
&apos;instru ment</w>
&apos;in ter
&apos;ar gile</w>
&apos;al cool</w>
&apos;a ch
&apos;Asi atiques</w>
&apos;A mérique</w>
&apos; urgence</w>
&apos; opération</w>
&apos; athlétisme</w>
&apos; animal</w>
&apos; affi
&a mp;</w>
ô les</w>
étudi ante</w>
étre int</w>
ér é</w>
épar p
élé v
élév ateur</w>
écou ter</w>
éclai rages</w>
échan til
é toi
é tendu</w>
ç a</w>
vérifi ant</w>
voy ant</w>
voi rie</w>
vi se</w>
ver ti
ver sant</w>
ve tte</w>
va ches</w>
télé siège</w>
tâ ches</w>
tur ne</w>
tu tu</w>
tu euses</w>
tropi cale</w>
tro ph
troph ée</w>
tres ses</w>
tren ch
trench -
trench- co
trench-co at</w>
tr ains</w>
tourn age</w>
tou jours</w>
tou chent</w>
toi lettes</w>
ti on
termin é</w>
ten ter</w>
ten sion</w>
te e</w>
tatou ée</w>
tatou eur</w>
tat s-
tats- U
tats-U nis</w>
tal ent</w>
tabl eaux</w>
t une</w>
t os</w>
t ho
t h</w>
t aux</w>
t a</w>
sé ment</w>
sé ance</w>
sè che-
suspen dus</w>
surf eurs</w>
super be</w>
sup port</w>
sui te</w>
stationn é</w>
ssi ère</w>
sprin k
spor ts</w>
spectat eur</w>
sou tien
sou levé</w>
sou levant</w>
sou der</w>
sor tis</w>
sor tent</w>
so ri
smo king</w>
skate boar
skate -
skate- board</w>
ser rent</w>
ser pent</w>
ser ies</w>
sem i
semi -
se c</w>
scri p
scoot ers</w>
sau ci
sar is</w>
san at</w>
s œur</w>
s pon
s es
s cope</w>
s aires</w>
répar ations</w>
réfléchiss ants</w>
ré pé
ré pon
ré confor
rocail leux</w>
renver sé</w>
renif le</w>
ren contre</w>
rem uant</w>
rem et
re tire</w>
re c
rassembl ée</w>
ra vin</w>
r ène</w>
quit tant</w>
quar e</w>
py ra
publici tés</w>
pu b</w>
profon des</w>
professionn els</w>
pro tè
pro chent</w>
pri ses</w>
pri ent</w>
pr atique</w>
pouss ettes</w>
pous sé</w>
pou tres</w>
pou dre</w>
pon ey</w>
polo s</w>
po tier</w>
po p
po ns</w>
po ils</w>
plong er</w>
pli antes</w>
plai san
pla c
pizz eri
pizzeri a</w>
pira te</w>
pin ceau</w>
pili er</w>
pier cing</w>
peupl é</w>
person nage</w>
person nag
personnag es</w>
percu ssion</w>
pellet euse</w>
pau le</w>
pati ns</w>
partici p
particip ants</w>
parti cu
pa tien
p hi
oë s</w>
ouvri r</w>
ot er</w>
op posé</w>
onn ée</w>
on ze</w>
oi rs</w>
offici ers</w>
offi cier</w>
obser ver</w>
o rs</w>
o pard</w>
numé ro
nu mérique</w>
nomm é</w>
noc turne</w>
ni veau</w>
ni er</w>
ni che</w>
nes s</w>
navi ga
naviga ble</w>
nat tes</w>
n ati
nati on
mus eau</w>
mus clé</w>
mu sul
mou illée</w>
montgolfi ères</w>
modè le</w>
moby lette</w>
mo ts</w>
mini -
min ces</w>
mi taines</w>
mexic ain</w>
men ui
mas ques</w>
mas cotte</w>
mari és</w>
mar ins</w>
mai ne</w>
mai n
magni fiques</w>
ma te</w>
ma quette</w>
m ées</w>
lé opard</w>
lumin eux</w>
lou pe</w>
lo go</w>
li ères</w>
le vée</w>
la bra
labra do
l à</w>
l on</w>
l les</w>
l ait</w>
l aire</w>
je ter</w>
je t
je ep</w>
jailli r</w>
j oin
j ave
jave lot</w>
interagi ssent</w>
instru ctions</w>
infir mière</w>
industri el</w>
ina chev
in vi
in scrip
in clu
i rs</w>
his pan
herb euse</w>
haut- de-
haut-de- forme</w>
h andi
handi cap
h a</w>
gui de</w>
gui chet</w>
guer re</w>
gro tte</w>
gravi ssent</w>
grat tant</w>
gonfla bles</w>
gal ets</w>
g ren
g e-
g an</w>
g alo
fri re</w>
fraî chement</w>
frap pé</w>
frap pent</w>
fr on
foul ards</w>
form ations</w>
for tune</w>
fonctionn er</w>
fon taines</w>
flou e</w>
flot tent</w>
fla mmes</w>
fl or
feu tre</w>
feu ill
fer mier</w>
fe t
fa brique</w>
f ê
f us
f ro-
f ac
euro pé
eth niques</w>
es su
er vice</w>
entou rant</w>
entass és</w>
enseign ante</w>
ensei gnes</w>
enflamm és</w>
endor mie</w>
en voyant</w>
en registr
en core</w>
en cad
emmitou flé</w>
em ball
el ée</w>
démar rer</w>
dégui sées</w>
défen seur</w>
décor ée</w>
déchi ré</w>
dé sar
dé nei
dé g
divi dus</w>
diver ti
dinosau re</w>
di r</w>
di o</w>
dessi ner</w>
descen te</w>
der man</w>
deman de</w>
d rap
d on
d ail</w>
cy clette</w>
cuisini ers</w>
cré er</w>
cré ation</w>
couver cle</w>
coussi n</w>
cour bé</w>
cou chés</w>
cor n</w>
con s</w>
con fet
compl exe</w>
com posée</w>
com battant</w>
colo ri
collè gues</w>
coc o</w>
clu me</w>
classi que</w>
cier ge</w>
cho ir</w>
chi ps</w>
chi ff
chev al
cheval et</w>
chan dail</w>
cha pi
ch eurs</w>
cellu laire</w>
can oës</w>
cabi nes</w>
c ross</w>
c re
c ag
bull do
bu ste</w>
bri n
boule ver
boulan gerie</w>
bl ot
bi n</w>
bi cyclette</w>
ber mu
be ille</w>
bat aille</w>
bar que</w>
ban li
bam bin</w>
bal ais</w>
b ong
b o</w>
b es
b aisse</w>
attel age</w>
artifi ci
arrê té</w>
ar bi
ar a
aqu atique</w>
applau dit</w>
appar tement</w>
anti -
anci enne</w>
an gle</w>
ami es</w>
allu re</w>
alimen taires</w>
ain si</w>
ai es</w>
agi tent</w>
afro- américains</w>
activi té</w>
acci den
ac cordéon</w>
a éro
a fin</w>
a ff
a cier</w>
a bor
So on
S quare</w>
S pi
Re d</w>
R a
P i
Mon opoly</w>
K i
In de</w>
C af
B i
A m
-s ervice</w>
&apos;élè ves</w>
&apos;él oignent</w>
&apos;écras ant</w>
&apos;é paule</w>
&apos;é chauff
&apos;obje ts</w>
&apos;in dividus</w>
&apos;ex erci
&apos;ex er
&apos;atten tion</w>
&apos;atten dre</w>
&apos;arti sanat</w>
&apos;arrê ter</w>
&apos;amus er</w>
&apos;allu re</w>
&apos; uniformes</w>
&apos; ordures</w>
&apos; escalader</w>
&apos; ass
&apos; Halloween</w>
œu rs</w>
étal age</w>
éta gère</w>
ép ées</w>
éléph ants</w>
élé gant</w>
échar pes</w>
éc ag
é cl
â ges</w>
É tats-Unis</w>
zo o</w>
z é
z ombi
y th
wag en</w>
w -
w- York</w>
vrai ment</w>
vol ants</w>
voi x</w>
vie ill
ver nis</w>
ven irs</w>
ve z</w>
vali ses</w>
va bo</w>
v illon</w>
ul ti
u m
u le</w>
té res
ty ro
tyro li
tyroli enne</w>
ty pique</w>
tuy aux</w>
tu mul
tumul tueuses</w>
tu bes</w>
tré bu
trou vant</w>
trou s</w>
tro p</w>
trico t</w>
trib u</w>
tri tus</w>
tri bu
tress és</w>
trai ts</w>
trai neau</w>
tr ons</w>
tourn oy
tor tue</w>
tor che</w>
ton es</w>
toi rs</w>
to ne</w>
titu de</w>
tion -service</w>
tin c
ti ste</w>
ti r
ti onne</w>
ti ne</w>
ti na
tina tion</w>
ti n</w>
tex ti
termin er</w>
tem p
temp ête</w>
tech nique</w>
tar de</w>
tail lant</w>
ta tive</w>
ta per</w>
t ôt</w>
t onne</w>
t ob
tob us</w>
t ements</w>
synchroni sée</w>
sym bo
surplom be</w>
sur volant</w>
suppor ters</w>
su eur</w>
struc tures</w>
ste ak
steak s</w>
sta tion-service</w>
ss ante</w>
soutien -
soutien- gorge</w>
souff leur</w>
sou venirs</w>
sou ple</w>
sou pe</w>
sou lever</w>
sou dure</w>
sor tes</w>
somm ets</w>
snowboar der</w>
smas h</w>
sli p</w>
simil aire</w>
si ff
sho oter</w>
servi ettes</w>
secou ri
se cours</w>
saxo pho
sauci sses</w>
san g</w>
san g
s tre</w>
s sa
s pat
spat ule</w>
s l
s h</w>
s -s
répé tant</w>
répè tent</w>
rus tique</w>
rui nes</w>
ru ral</w>
ru bans</w>
ru ade</w>
roul eau</w>
rou illée</w>
ron des</w>
ro me</w>
ro bo
ri tu
ri n
res semblent</w>
res pec
ren trer</w>
rempli ssent</w>
remet tre</w>
regrou pés</w>
recou vrant</w>
rece vant</w>
re vers</w>
re la
re l
rel ais</w>
ras oir</w>
ram pes</w>
ram asser</w>
ram assent</w>
ra deaux</w>
r è
r yth
qu oti
pédal ant</w>
pyra mide</w>
pul ls</w>
proprié taire</w>
proje cteurs</w>
proch aine</w>
pro venant</w>
pro pr
propr es</w>
pro posant</w>
pro pos</w>
prin ci
princi pal
principal ement</w>
pri ant</w>
pr être</w>
pous ser</w>
poul ets</w>
pou pées</w>
posi tif</w>
porte- documents</w>
por tée</w>
por traits</w>
por teur</w>
plu tôt</w>
plu me</w>
plonge on</w>
pleu t</w>
plat eaux</w>
pi stes</w>
personn els</w>
per man</w>
pen d</w>
pel les</w>
pe -
pe- vent</w>
pay san</w>
pati ne</w>
pat te</w>
par tage</w>
par es
pares sent</w>
pan or
pag nie</w>
pa trou
p ple</w>
p ca
p a</w>
ou ver
ou s</w>
ot te</w>
ordi n
oran gé</w>
om bres</w>
ol o
ob tenir</w>
o k</w>
o k
o f</w>
o de</w>
o d
no m</w>
ni ve
nag euse</w>
n or
n ey</w>
mélan geant</w>
médié vale</w>
médi caux</w>
méde cin
médecin s</w>
mé d
musul man
mou illés</w>
mou ettes</w>
motoc y
mot o
mon té</w>
moi ne</w>
mo tif</w>
mo de</w>
min ton</w>
meu ble</w>
men ton</w>
me ill
me cs</w>
mar écag
mar que</w>
maqu illé</w>
manu el</w>
manipul ant</w>
mai d</w>
m el
lut teurs</w>
lon gu
lon ge</w>
lo ge</w>
li v
li ce</w>
le vées</w>
le gg
le -
labrado r</w>
la vabo</w>
la pins</w>
l euse</w>
l as
ks wagen</w>
kin gs</w>
kimon os</w>
kickbox ing</w>
k arti
karti ng</w>
je té</w>
inten sément</w>
instal lée</w>
inscrip tions</w>
inhabitu elle</w>
ing ton</w>
inféri eure</w>
inclu ant</w>
in visible</w>
in titu
impos ante</w>
impli qués</w>
imm ob
il ant</w>
identi fi
iP od</w>
i ssant</w>
hu tte</w>
hu maine</w>
histori que</w>
hawaï enne</w>
ham bur
grim per</w>
gri ses</w>
gonf le</w>
gn ée</w>
ga z</w>
g au
friandi se</w>
fraî chi
fou rn
fores tière</w>
for ment</w>
foncti onne</w>
fo u</w>
fo ssé</w>
fo o
fi er</w>
fantaisi e</w>
fabri quant</w>
exerci ces</w>
ex pression</w>
ex posées</w>
ex pose</w>
ex per
ex hi
eu les</w>
et eurs</w>
ess uie</w>
er o</w>
entraî nement</w>
entraî ne</w>
entr ant</w>
enti èrement</w>
encom bré</w>
en lever</w>
en clume</w>
en clos</w>
en ceinte</w>
emm ène</w>
ei gnant</w>
effectu er</w>
déser tique</w>
dé tritus</w>
dé chargeant</w>
dé but</w>
drib ble</w>
dra gon</w>
dr ôles</w>
doss ard</w>
dis positif</w>
di ffi
di enne</w>
dessi née</w>
des tination</w>
der ie</w>
de van
dan te</w>
d ons</w>
d og
d as</w>
célè bre</w>
célè br
célèbr ent</w>
cu pca
cré ati
cro ya
cri ant</w>
couvre- chefs</w>
couver tes</w>
cou pe-vent</w>
cou de</w>
cor ne</w>
contre basse</w>
constr uite</w>
confet tis</w>
concentr é</w>
con tem
con if
con di
compl è
com pagnie</w>
com bres</w>
colon ne</w>
colo rie</w>
colli ers</w>
co pes</w>
cl am
cigar ettes</w>
ci vi
ci seaux</w>
choisi ssant</w>
chirurgi ens</w>
chiff on</w>
char gent</w>
char cu
chapi teau</w>
ch o</w>
ch asse</w>
cer f</w>
cen trée</w>
cau cas
cas sée</w>
cas sé</w>
cas se</w>
cares sant</w>
cani n</w>
cani ches</w>
can ettes</w>
camé ras</w>
cam ping-
cam pement</w>
ca s</w>
ca des</w>
ca -
ca- Cola</w>
c ture</w>
c te</w>
c re</w>
bulldo zer</w>
bui sson</w>
brû lant</w>
bru m
bron ze</w>
bro sser</w>
bril le</w>
brass ards</w>
bou ts</w>
bou c</w>
bon homme</w>
bo d
blo que</w>
bi tu
bi ker</w>
ber té</w>
bar reaux</w>
bar maid</w>
bar deaux</w>
banli eue</w>
banan e</w>
ban quette</w>
bai gnent</w>
bad minton</w>
ba voir</w>
b œufs</w>
b aie</w>
au près</w>
att le</w>
assi stan
ass eur</w>
as sembl
as h
artifici elle</w>
arrê tée</w>
ara be</w>
ar ro
ar k</w>
appuy és</w>
ap proche</w>
ap prochant</w>
an neau</w>
an ds</w>
alpin istes</w>
allu me</w>
al titude</w>
ajus tant</w>
ail les</w>
agri p
ag ré
afric aines</w>
adver saires</w>
ad or
accroch ées</w>
acc ess
ac teurs</w>
a y</w>
a r</w>
a ffron
a d</w>
a bles</w>
W i
V i
T he</w>
T e
Su perman</w>
Su b
Sta te</w>
Spi derman</w>
Soon ers</w>
Se attle</w>
Q u
Ne w-York</w>
N i
Mi ami</w>
Le gos</w>
G ran
F ran
F or
D i
Co ca-Cola</w>
Ch e
C oc
C an
B u
B os
A pple</w>
A fro-
1 0</w>
-s ho
&apos;étrei gnant</w>
&apos;él astique</w>
&apos;é teindre</w>
&apos;é pée</w>
&apos;or dre</w>
&apos;occu pent</w>
&apos;in téres
&apos;in stal
&apos;affi chage</w>
&apos;ad res
&apos;E st</w>
&apos; or</w>
&apos; hôtel</w>
&apos; enf
&apos; autoroute</w>
étoi les</w>
étoff es</w>
éta ges</w>
én er
élég ante</w>
élè ve</w>
él as
él abor
écu r
écur eu
écureu il</w>
écri re</w>
échantil lon</w>
é téri
étéri a</w>
é tu
é tirant</w>
é tage</w>
é pi</w>
é ment</w>
y si
x -
w at
wat er</w>
voyag eurs</w>
voi les</w>
visi te</w>
violon iste</w>
vi trée</w>
vi ter</w>
ven ue</w>
ve l
val lon
va trice</w>
va tion</w>
v ues</w>
v ing
us ten
ui- ci</w>
u or</w>
u k
téti ne</w>
tu li
tuli pes</w>
tru c</w>
trot te</w>
tropi cal</w>
trom pe
trom bo
trombo ne</w>
tribu nes</w>
tri e</w>
tri coté</w>
trem pé</w>
tre et</w>
tran ches</w>
tra ce</w>
tr ê
touri stique</w>
tour ni
tourni quet</w>
tor y</w>
tor es</w>
tor ches</w>
ton nière</w>
to que</w>
tis sement</w>
ti rés</w>
ti quement</w>
th èque</w>
th e</w>
texti le</w>
ter mine</w>
tar bu
tarbu cks</w>
tan ce</w>
tambou rs</w>
tambou ri
tal ents</w>
tabou rets</w>
ta pent</w>
ta n</w>
t ères</w>
t oy
toy ens</w>
t ness</w>
t ard</w>
t -shirts</w>
suréle vé</w>
surveill ant</w>
sur di
surdi men
surdimen sionn
sui vre</w>
su b
stan ds</w>
ssa de</w>
sprink lers</w>
sprin te</w>
spon sori
souff ler</w>
sou s-s
sous-s ol</w>
sor ti</w>
son n
som br
so c
soc cer</w>
smash ant</w>
smas he</w>
skateboar ds</w>
sinu euse</w>
simil aires</w>
silhou ettes</w>
siff let</w>
si mul
sho ote</w>
ses sion</w>
servi ces</w>
ser rés</w>
sen i
sculp teur</w>
sculp te</w>
savou rant</w>
sal eté</w>
saisi ssant</w>
sa co
saco che</w>
s- volants</w>
s tores</w>
s tiques</w>
s quel
s ph
s elle</w>
s el
réfléchi t</w>
récu père</w>
ré tro
ré si
ré ce
réce mment</w>
ré agi
ryth me</w>
ros ses</w>
robo t</w>
ris sage</w>
ri s</w>
ri en</w>
res ter</w>
res tant</w>
représen tation</w>
renif lant</w>
rem ue</w>
rem et</w>
rem bour
religi eux</w>
rela x
refl ets</w>
ran gées</w>
ra i</w>
ra fraîchi
ra dio</w>
ra con
r su
r ons</w>
r ents</w>
r entre</w>
r asse</w>
quit tent</w>
quat uor</w>
qua ge</w>
qu ill
qu es
qu e
qu anti
quanti té</w>
pê cheurs</w>
péd ale</w>
pé tales</w>
pulvéri se</w>
pui sse</w>
prél assant</w>
pré fér
protè ge-
promen er</w>
proje tant</w>
professionn elles</w>
prod uire</w>
pro jetée</w>
pri e</w>
pres se</w>
pr un
pou ces</w>
pos es</w>
por tail</w>
por c</w>
poin tes</w>
po ni
poni bles</w>
po n</w>
po il
plu vi
pleu rer</w>
plei nes</w>
plan ter</w>
pla quant</w>
pla quage</w>
pl exe</w>
pl as
pl aine</w>
pié tonne</w>
pizz a</w>
pistol ets</w>
pin gou
pin ce</w>
pilo tant</w>
pil es</w>
pi t</w>
pi pe</w>
photographi ée</w>
photographi ent</w>
photographi e</w>
ph ysi
ph are</w>
personn el</w>
per çant</w>
per plexe</w>
pen se</w>
pel le
pelle tant</w>
pein tes</w>
pe e
pee do</w>
pay sa
patin euse</w>
pas sé</w>
partici per</w>
parallè les</w>
para ch
parach uti
par vient</w>
par tant</w>
par e</w>
pai n
pa tron</w>
pa tri
pa on</w>
pa ges</w>
p éré</w>
p uits</w>
p eurs</w>
ouver ture</w>
ot hi
ot a</w>
orn ements</w>
or née</w>
onn euse</w>
ombre lles</w>
og ie</w>
offi ciel</w>
o od</w>
o ffre</w>
o ff
nœu ds</w>
né gli
numéro s</w>
nu ée</w>
nouve aux</w>
nourri ssant</w>
nou illes</w>
nom s</w>
ni ers</w>
nettoy age</w>
nei g
nag euses</w>
n once</w>
n ol
mé cani
mè tre</w>
mè ches</w>
mâ cher</w>
mus elés</w>
mou tarde</w>
mou s
mou ette</w>
mor ts</w>
mor tes</w>
mor te</w>
mor d
montr er</w>
montagn euse</w>
mix age</w>
mini -sho
mini-sho rt</w>
micros copes</w>
mer ica</w>
mel ons</w>
me tière</w>
maî tre</w>
mauv aises</w>
mati née</w>
mascu line</w>
mari onnette</w>
marathoni enne</w>
mar qué</w>
mar queur</w>
mal heureux</w>
mai gre</w>
mag ique</w>
m ement</w>
m e-
lég ère</w>
lé chant</w>
lut tant</w>
lumin euse</w>
lo ts</w>
lin gerie</w>
li on</w>
li gue</w>
li eux</w>
li br
li berté</w>
les sive</w>
legg ing
legging s</w>
lave -
la ho
laho ma</w>
la c
lac ets</w>
l em
kitesur feur</w>
ki es</w>
kayaki ste</w>
kar t</w>
k lahoma</w>
k ie</w>
journ ali
jou es</w>
joli es</w>
jet tent</w>
japon aise</w>
jailli ssant</w>
j ui
isol ée</w>
is ney</w>
interagi t</w>
inten se</w>
instal lés</w>
instal lent</w>
indi quant</w>
incon nue</w>
inclin é</w>
in ette</w>
in er</w>
im patiemment</w>
illumin é</w>
i n</w>
i m</w>
i di
hô tesse</w>
hors- bord</w>
hor loge</w>
ho t
hispan ique</w>
hip po
hi rsu
har pe</w>
han ches</w>
hambur gers</w>
ha m</w>
h t</w>
h en
h aies</w>
gé antes</w>
guitar istes</w>
gui don</w>
gu eules</w>
gri n
grat uits</w>
gran d-
gou t</w>
glaci ères</w>
gen re</w>
ga s</w>
ga r</w>
g ène</w>
g ym</w>
g in
g elé</w>
fus ils</w>
fro tte</w>
friandi ses</w>
franchi t</w>
fran ç
fourn eaux</w>
four ni
four chette</w>
form atique</w>
for mer</w>
for mant</w>
for d</w>
foo ting</w>
flo u</w>
fl éch
fl èche</w>
fi ne</w>
fi e</w>
fau sses</w>
far ine</w>
fal aises</w>
fai ts</w>
f ée</w>
f an</w>
exécu te</w>
expéri men
exci té</w>
ex plique</w>
eu res</w>
envelop pée</w>
entour ent</w>
entass ées</w>
ensei gnant</w>
eng ins</w>
enf ile</w>
enf ilant</w>
endor mis</w>
encoura gent</w>
encoura geant</w>
en vol</w>
en va
en roulé</w>
en do
en ces</w>
empil és</w>
empil ées</w>
ei ge</w>
ef fort</w>
e d</w>
désar çonn
dépla cer</w>
dég us
défen d</w>
décol ler</w>
débar rasse</w>
déambul ateur</w>
dé mé
dé combres</w>
dé balle</w>
dé ball
dé ambulant</w>
du nes</w>
dou ze</w>
dor és</w>
dor ées</w>
donn ée</w>
domin os</w>
dog s</w>
dis tance</w>
dis ques</w>
dis ponibles</w>
dis co
disco thèque</w>
direc t</w>
din de</w>
di z
di ant</w>
devan ture</w>
dessi né</w>
der nière</w>
den taire</w>
demi- cercle</w>
de x</w>
dal les</w>
d ues</w>
d rome</w>
d oit</w>
d enti
d au
céré ales</w>
crê pe</w>
cré ant</w>
croi sent</w>
cra che</w>
cour tes</w>
cour be</w>
cou ture</w>
cou tu
cou n
cor niche</w>
cor nes</w>
contem pl
conif ères</w>
cond uire</w>
concur rents</w>
con ser
comp te</w>
comm uni
com pagne</w>
colori age</w>
coiff é</w>
cock pit</w>
co pi
clo u</w>
cli ente</w>
clar inette</w>
civi le</w>
citrou illes</w>
ci toyens</w>
ci metière</w>
chevau chent</w>
chaî nes</w>
cham pi
cham pagne</w>
chac une</w>
ch é
cerf s-volants</w>
cel ui-ci</w>
ce la</w>
caucas ien</w>
cas cades</w>
car ic
car i
car avan
caravan e</w>
cana dien</w>
camping- car</w>
cam peurs</w>
cam pe</w>
cahi er</w>
cag ou
caf étéria</w>
ca pi
c és</w>
c rosses</w>
c ram
c ations</w>
bé tail</w>
brou ss
bri tan
box eurs</w>
box eur</w>
box er</w>
box ant</w>
bou ton</w>
bou s
bou cles</w>
bou cle</w>
bou cher</w>
bor dant</w>
bleu -
bes oin</w>
bermu da</w>
be l</w>
be c</w>
bassi ne</w>
bar ils</w>
bander oles</w>
ban dés</w>
ban deaux</w>
bam a</w>
balanç oires</w>
balan cer</w>
bai gne</w>
ba gar
b us
b ili
b ant</w>
b ac
avan ce</w>
autoch tone</w>
audi toire</w>
au to</w>
atter rissage</w>
atta chent</w>
at ti
at eurs</w>
assorti ment</w>
assorti es</w>
assi stant</w>
ash ington</w>
ascen sion</w>
as phalte</w>
arti stiques</w>
arros eur</w>
arri vant</w>
ar m
aqu a</w>
appuy ées</w>
appréci e</w>
applau dissant</w>
appar emment</w>
ap plique</w>
anti émeute</w>
an nées</w>
an ne</w>
an k</w>
ami sh</w>
ai me</w>
ag ée</w>
affi ches</w>
ador able</w>
ado ssée</w>
admi rent</w>
ad or</w>
activi tés</w>
acc élé
a jou
a boyant</w>
a beille</w>
W ashington</w>
V ol
T er
Sub way</w>
S treet</w>
S tarbucks</w>
S peedo</w>
P ow
Ni ke</w>
Mi ck
M in
L i
Ja pon</w>
J ack</w>
I C
H e
F i
E F</w>
D isney</w>
D e
D S</w>
Coc a</w>
C ar
Bos ton</w>
Bo b</w>
B re
B e
Am éric
A l
&apos;équi pement</w>
&apos;é vier</w>
&apos;é pi
&apos;in formatique</w>
&apos;exerci ce</w>
&apos;exer çant</w>
&apos;as phalte</w>
&apos;arti stes</w>
&apos;arti cles</w>
&apos;an ge</w>
&apos;al ler</w>
&apos;ach eter</w>
&apos;a vi
&apos;a cier</w>
&apos;Asi e</w>
&apos;A r
&apos; oiseau</w>
&apos; objet</w>
&apos; images</w>
&apos; im
&apos; harmonica</w>
&apos; essayer</w>
&apos; assi
&apos; accrochant</w>
û ts</w>
î t</w>
étu i</w>
éta gères</w>
ér ateur</w>
éparp illés</w>
éner gi
émer ge</w>
élé vatrice</w>
électri cien</w>
élas th
élasth anne</w>
él é</w>
él ère</w>
éclai rées</w>
éclabou sse</w>
é tinc
étinc elles</w>
é tend</w>
é t
é mor
é mi
é cage</w>
é bou
ébou ri
ébouri ff
è se</w>
â ché</w>
zé bré</w>
zz le</w>
ympi ques</w>
y- up</w>
xi s</w>
wi ster</w>
w ing</w>
w ing
wing -
wing- gu
wing-gu m</w>
w al
voyag eant</w>
voy agent</w>
voi rs</w>
voi liers</w>
voi ent</w>
vo û
visi ons</w>
vieill ards</w>
vi tr
vitr ées</w>
vi sé</w>
vi seur</w>
vi s</w>
veu t</w>
verti cale</w>
ver ser</w>
ver sent</w>
ven dus</w>
ve ttes</w>
vallon né</w>
vag es</w>
va po
v ons</w>
v ins</w>
v ill
vill ag
villag e
village ois</w>
v ates</w>
v ap
usten sil
ustensil es</w>
uri ante</w>
urb ains</w>
universi té</w>
ulti mate</w>
ul l</w>
uk ul
ui ent</w>
télépho niques</w>
télé comman
tél é</w>
tu tus</w>
tu nique</w>
tu iles</w>
trébu che</w>
trou peau</w>
trou ble</w>
trottin ettes</w>
tron çon</w>
tron au
trompe t
trompet tiste</w>
trico te</w>
trib al</w>
tri ème</w>
tri ant</w>
tri angle</w>
tre il
treil lis</w>
traî née</w>
traî nent</w>
trav en
traven tion</w>
transpar ente</w>
transpar ent</w>
traditionn elles</w>
tra l</w>
tra ces</w>
tr y</w>
tout- petits</w>
tournoy er</w>
tourn es
tour noi
tou rs</w>
tou ff
ton nier</w>
ton dant</w>
tom ate</w>
to re</w>
tis eur</w>
ti rées</w>
ti ges</w>
ti are</w>
thé tiseur</w>
tex tos</w>
tes que</w>
terr i</w>
termin ant</w>
tend ues</w>
ten us</w>
te- ciel</w>
te e
te ck
tch en
tchen A
tchenA i
tchenAi d</w>
tar te</w>
tam -
tam- ta
tam-ta m</w>
tal i
tail s</w>
ta xis</w>
ta t</w>
ta plane</w>
t t</w>
t t
sé min
sémin aire</w>
sé jour</w>
sé chant</w>
sèche- linge</w>
syn thétiseur</w>
sweat -shirts</w>
sur vêtements</w>
sui vie</w>
sub stan
substan ce</w>
su rer</w>
su re</w>
su mo</w>
su jet</w>
stationn ée</w>
stat ues</w>
ssi ons</w>
ss és</w>
squel ette</w>
specta culaire</w>
sous- marine</w>
souff re</w>
sou lèvent</w>
son ne</w>
sol o</w>
so le</w>
snowboar deurs</w>
smo kings</w>
sli de</w>
sk ier</w>
situ ation</w>
si vement</w>
si tue</w>
si rène</w>
si f</w>
ser vent</w>
seni ors</w>
sem ents</w>
secouri stes</w>
sculp tant</w>
scienti fiques</w>
sci ant</w>
saxopho ni
savou r
sauve teurs</w>
sau vages</w>
sau ts</w>
san té</w>
salu er</w>
sal ade</w>
sa bl
s y
s tu
s tore</w>
s top</w>
s sier</w>
s pa</w>
s oin</w>
s ex
sex y</w>
s el</w>
récol tes</w>
récol te</w>
réali ser</w>
réali se</w>
ré ser
ré no
ré fu
réfu gi
ré fri
réfri g
ré d
rè gle</w>
rug b
rugb ym
ron dins</w>
roch et</w>
ro vi
ro i</w>
ro ck
ritu elle</w>
ri z
ri gol
ri deau</w>
res tent</w>
ren tr
reli é</w>
relax ant</w>
registr ement</w>
recou verts</w>
rece voir</w>
rebon dir</w>
re trou
re tiré</w>
re en</w>
rap porte</w>
randonn euse</w>
rambar des</w>
ram eurs</w>
ram an</w>
ra tisse</w>
ra ff
ra ci
raci nes</w>
r sem
r lan
qui tés</w>
qua trième</w>
qu ins</w>
péri ode</w>
pédal o</w>
pé tr
pé n
pâtis series</w>
pâtis serie</w>
pun k</w>
publi cs</w>
pu zzle</w>
pu ces</w>
protes tation</w>
prote ctions</w>
proje ction</w>
pres tation</w>
poê les</w>
pourch asse</w>
pou vez</w>
pou dr
pou belles</w>
posi tionn
por tière</w>
por ama</w>
pop -
pop- corn</w>
pon g</w>
pon cho</w>
pom pes</w>
poli tique</w>
poil u</w>
poign ets</w>
po table</w>
po le</w>
po ches</w>
pneum atiques</w>
pneum atique</w>
pluvi euse</w>
plong ent</w>
plac ées</w>
pl âtre</w>
pl e
pié tonnier</w>
pirat es</w>
ping- pong</w>
pin çant</w>
pin i
pin ces</w>
pili ers</w>
pil lons</w>
pi re</w>
pi ques</w>
pi eu
pieu vre</w>
photographi és</w>
photographi ant</w>
phi n</w>
ph ar
peu vent</w>
perru ques</w>
percu ter</w>
percu te</w>
per on</w>
pen chés</w>
pen chées</w>
pen chent</w>
peluch eux</w>
pellet tent</w>
pei ne</w>
patrou ille</w>
patri o
patien te</w>
pati ons</w>
passi onn
pas t
particu lier</w>
parti es</w>
para chu
parachu tes</w>
par ten
panor amique</w>
pain tball</w>
pagn on</w>
paga ye</w>
pa vés</w>
pa villon</w>
pa pillons</w>
pa per
p ali
pali ssade</w>
our eux</w>
ou ve
ou ille</w>
othi que</w>
orn em
ori gin
op posées</w>
ong le</w>
ond ul
on nes</w>
on eige</w>
ombra gée</w>
olo gi
oli ve</w>
ol o</w>
ol lie</w>
oisi ère</w>
oi es</w>
oeu vres</w>
occu pées</w>
occu pations</w>
obser vé</w>
obje ctif</w>
ob èse</w>
o sier</w>
nive aux</w>
ni ères</w>
navigu ent</w>
nat te</w>
n ues</w>
n euse</w>
n a</w>
mû r</w>
méri n
méd ailles</w>
mè tres</w>
musulman s</w>
musi cales</w>
muse lières</w>
mus elé</w>
mu le</w>
mou e</w>
moto -
mot oneige</w>
mor dant</w>
mon i
mo quette</w>
mix te</w>
min uti
mi gnon</w>
mi cile</w>
mes u
mes sage</w>
menui sier</w>
mati n</w>
mas qué</w>
mas car
mascar a</w>
march eurs</w>
mar écage</w>
mar rons</w>
mar elle</w>
mar c
marc el</w>
mar ais</w>
manœu vrant</w>
manœu v
mang e
mange oire</w>
maj es
mai re</w>
m ères</w>
m ot</w>
légu me</w>
ly cé
lycé ens</w>
lux uriante</w>
lux u
lux e</w>
lut teur</w>
lun ette</w>
lou rd</w>
longu eur</w>
libr airie</w>
li ste</w>
li g
les quel
lave- vaisselle</w>
lar ges</w>
lanter ne</w>
lan d
lam beaux</w>
lam a</w>
lai ssant</w>
la y-up</w>
la v
la tine</w>
l ue</w>
l ot
l enti
lenti lle</w>
l d</w>
kil ts</w>
kayaki stes</w>
k y</w>
k es</w>
joy euses</w>
jong ler</w>
jail lit</w>
j on
isi ers</w>
invi tés</w>
inté gr
intitu lé</w>
interview e</w>
inter ro
inter dit</w>
instal lé</w>
inform atique</w>
inform ations</w>
inachev é</w>
in stitu
in soli
in se
in on
in o
in cur
in croya
impressionn ant</w>
immob ili
im por
ill ette</w>
il l</w>
id en
iden tique</w>
i x</w>
i vre</w>
i on</w>
i gn
hur lant</w>
hot dogs</w>
ho riz
his toire</w>
hippo drome</w>
hip pique</w>
hen né</w>
haut- par
har na
handicap ée</w>
han gar</w>
ham po
ha w
ha b
h us
h eure</w>
gé ants</w>
gui rlan
gu ée</w>
gravi r</w>
grat te-ciel</w>
gr ès</w>
gou ver
gou r
gon flé</w>
gol feur</w>
go ûte</w>
gn ets</w>
gli ssière</w>
gli ssent</w>
glaci ère</w>
gla cé</w>
gi gan
gigan tesque</w>
ges ticule</w>
ger on</w>
ge les</w>
garde- corps</w>
gam ins</w>
gam ba
ga y</w>
g y
g othique</w>
g eur</w>
g elée</w>
fémini ne</w>
fu ri
fron tale</w>
fri que</w>
fri c
franç ais</w>
fou ille</w>
for mée</w>
for geron</w>
fonc ées</w>
fo sse</w>
fla g</w>
fl âne</w>
fl exi
fix es</w>
fix ement</w>
fix e</w>
figu ri
fi tness</w>
fi celle</w>
fes ses</w>
fer ry</w>
fer rovi
fer mé</w>
fau con</w>
fas cin
fam ili
f ûts</w>
f rou
f re
f ol
f illette</w>
explo sion</w>
exi on</w>
exhi be</w>
examin er</w>
ex tension</w>
ex pres
ex posant</w>
europé en</w>
essu yant</w>
essen ce</w>
escar pée</w>
es tomac</w>
es ti
es -
er e</w>
entr el
entrel ac
ensole illé</w>
enregistr euse</w>
ennei gés</w>
enla çant</w>
enla ce</w>
enfon çant</w>
endo mm
en- cas</w>
en venue</w>
en levé</w>
embras sé</w>
embras ser</w>
embar cation</w>
em pêcher</w>
em prun
ei s
e çon</w>
e z</w>
e k
e gas</w>
e ep</w>
déploy ées</w>
déli ci
déjeu nent</w>
déjeu nant</w>
défen seurs</w>
découp é</w>
décorati ve</w>
décontrac tées</w>
décol lant</w>
dé tient</w>
dé pose</w>
dé gag
dé es</w>
dé ca
déca potable</w>
dé bl
dres sée</w>
dr ai
drai nage</w>
dou ce</w>
do micile</w>
diz aines</w>
diverti t</w>
diver tir</w>
dispu tant</w>
dis posés</w>
diplô mé</w>
différ ent</w>
dia porama</w>
di sent</w>
di re</w>
di rait</w>
di n</w>
di es</w>
di er</w>
di ennes</w>
di able</w>
deman dant</w>
del taplane</w>
de mment</w>
dau phin</w>
dal le</w>
d ol
d le</w>
d d
célé br
célébr ant</w>
câ lins</w>
câ lin
cy gnes</w>
cy gne</w>
cul ti
cui vre</w>
cu vette</w>
cu ve</w>
cu ler</w>
cu lent</w>
cré ature</w>
cri er</w>
cram pons</w>
cra vates</w>
cra be</w>
cr oisière</w>
cow- girl</w>
coutu rière</w>
cour onnes</w>
cour onne</w>
coup é</w>
coun try</w>
cou teaux</w>
cou ches</w>
cou chant</w>
corn ets</w>
contr ô
contr e-
cond uisent</w>
concur rent</w>
con travention</w>
con stitu
con cierge</w>
complè tement</w>
commer çant</w>
commer ç
comman des</w>
comman der</w>
comm émor
com pagnon</w>
com bat
combat tants</w>
col ère</w>
col le</w>
coiff euse</w>
co ts</w>
co q</w>
clai rsem
cl ous</w>
cir eur</w>
ci trons</w>
ci rer</w>
chè vres</w>
choisi ssent</w>
chirurgi cale</w>
chin oise</w>
chi te
chi ste</w>
chev alier</w>
cher ie</w>
che wing-gum</w>
chau dement</w>
chat on</w>
charcu terie</w>
char pente</w>
char ger</w>
char bon</w>
cham allo
cer isiers</w>
cen te</w>
cavali ère</w>
cat ch</w>
cas ion</w>
carre four</w>
caric ature</w>
cares ser</w>
cares sent</w>
car rés</w>
car ré</w>
car go</w>
car ac
carac tères</w>
can on</w>
camé raman</w>
cagou le</w>
ca mar
c œurs</w>
c tique</w>
c rue</w>
c rochet</w>
c arri
carri ole</w>
c an</w>
bé tonnière</w>
bé quilles</w>
bé né
bu n
bu m</w>
broch ure</w>
britan nique</w>
brin gé</w>
bril lent</w>
bri se</w>
bous culent</w>
boulever sé</w>
bou tons</w>
bou tonn
bou ill
bou cherie</w>
bot te</w>
bor dures</w>
bor ant</w>
bong os</w>
bo y
bo x</w>
bo sse</w>
blo qué</w>
bleu- vert</w>
bl é</w>
bitu me</w>
bill et</w>
bi ne</w>
bei gnets</w>
beau té</w>
be ach
bavar dent</w>
bassi ste</w>
ban nières</w>
ban des</w>
bala yer</w>
bal lots</w>
bal lot</w>
bal lage</w>
bal cons</w>
bagu ette</w>
b ati
aéro sol</w>
avi ons</w>
avan t-
autom atiques</w>
autoch tones</w>
au vent</w>
au tobus</w>
atten tion</w>
atten te</w>
atta chées</w>
athlé tique</w>
at terri</w>
as t</w>
as sortis</w>
as pirateur</w>
artifi ciel</w>
arbi tres</w>
ar ra
ar gile</w>
ar chet</w>
ar c</w>
ar borant</w>
appar tenant</w>
ap prennent</w>
ap pel</w>
ap para
an nonce</w>
an niversaire</w>
an as</w>
amar ré</w>
am us
am e</w>
am a
ama ha</w>
allu mée</w>
all ai
ali for
al ement</w>
al bum</w>
aiss ance</w>
ain t</w>
agré able</w>
agricul teurs</w>
agricul teur</w>
agi tée</w>
aff al
af fe
ad os</w>
acrob atiques</w>
accroch ée</w>
accroch ent</w>
accompagn ée</w>
acciden té</w>
access oires</w>
acc élère</w>
ac tuellement</w>
ac tivement</w>
aban donné</w>
a ven
a tri
a m</w>
a chats</w>
a ce</w>
Y amaha</w>
Vol kswagen</w>
V egas</w>
T wister</w>
T oy
T V</w>
S te
S ho
S al
R i
R R
P e
P ark</w>
O h</w>
N ouve
N o
N IC
NIC EF</w>
Mick ey</w>
M o
M ac</w>
M a
L os</w>
L ig
L ak
Ki tchenAid</w>
Jo e</w>
Ja pon
In dien</w>
I s
H ol
H a
For d</w>
En viron</w>
E x
De ere</w>
Chin ois</w>
Caf e</w>
C y
C or
C om
C i
C en
C as
C alifor
Bi envenue</w>
B ull</w>
B lue</w>
B er
An geles</w>
An g
A merica</w>
5 0</w>
0 0</w>
- vous</w>
&apos;équi tation</w>
&apos;épi ce</w>
&apos;écra se</w>
&apos;éclabou ssant</w>
&apos;échauff ant</w>
&apos;éch elle</w>
&apos;é vénement</w>
&apos;é ponge</w>
&apos;é gout</w>
&apos;é chau
&apos;é char
&apos;intéres sant</w>
&apos;instal ler</w>
&apos;in formation</w>
&apos;ex pri
&apos;es tomac</w>
&apos;en vole</w>
&apos;en trer</w>
&apos;en sei
&apos;en registrement</w>
&apos;en dort</w>
&apos;en cou
&apos;assi ed</w>
&apos;as se
&apos;as cen
&apos;ar rêt</w>
&apos;appar tements</w>
&apos;appar ence</w>
&apos;ap prochent</w>
&apos;ap pelle</w>
&apos;al pin
&apos;adres se</w>
&apos;U NICEF</w>
&apos; uni
&apos; ultimate</w>
&apos; ouvrir</w>
&apos; ouvrier</w>
&apos; ouverture</w>
&apos; outils</w>
&apos; ours</w>
&apos; oreilles</w>
&apos; ordinateurs</w>
&apos; opposé</w>
&apos; observer</w>
&apos; o
&apos; immeuble</w>
&apos; hu
&apos; escalator</w>
&apos; aver
&apos; athlètes</w>
&apos; agent</w>
&apos; ag
&apos; acc
&apos; Indiens</w>
ô me</w>
ï que</w>
î tre</w>
ë l</w>
étudi ent</w>
étre in
étrein te</w>
étran gère</w>
étran ges</w>
étran gers</w>
éti quettes</w>
éti quette</w>
étal s</w>
éta t</w>
éri que</w>
éri n
équi page</w>
éparp illées</w>
ép rou
émi ssion</w>
émer ve
élég antes</w>
élé gants</w>
écri vent</w>
écri ts</w>
éco lière</w>
éco lier</w>
éclabou ssée</w>
écl at
échi qui
échiqui er</w>
éch elles</w>
éch appe</w>
éc ess
ébouriff és</w>
é va
éva cu
é v
év è
évè nement</w>
é tri
é tonn
é sus</w>
é qu
équ estre</w>
é ponge</w>
é ping
é di
é cras
è tre</w>
è te</w>
çonn erie</w>
ç u</w>
â ques</w>
zz a</w>
zombi es</w>
zombi e</w>
z z</w>
yn amique</w>
y euse</w>
y dr
x ford</w>
x 4</w>
wal kie</w>
w s</w>
w n</w>
w girl</w>
vérifi er</w>
vé ran
véran da</w>
voyag eur</w>
voy er</w>
vol ante</w>
vol aille</w>
voi lées</w>
vo te</w>
vo les</w>
vo i</w>
visi tant</w>
vi vement</w>
vi v
vi gour
vigour eusement</w>
verdoy antes</w>
verd âtre</w>
vel u</w>
var e
vare ch</w>
vapo ri
vap eur</w>
val eur</w>
va quent</w>
v ois</w>
v aux</w>
v as
v an</w>
us tr
ustr é</w>
uni quement</w>
uni e</w>
um eau</w>
ukul élé</w>
ui ta
uita r</w>
ui sante</w>
u te</w>
u t</w>
u mini
umini um</w>
u ma</w>
u er</w>
télécomman dé</w>
té tho
tétho scope</w>
té m
tém oin</w>
tur bans</w>
tu re
tu eux</w>
tru elle</w>
tru cs</w>
trou pes</w>
trou pe</w>
trot tant</w>
tronau te</w>
tricy cles</w>
trico ter</w>
tri o</w>
tri gué</w>
tri ent</w>
traî ne</w>
trav ag
trans por
tran chée</w>
tra pè
trapè ze</w>
tr e-
tournoi e</w>
tourn ent</w>
tourn e
tourne vis</w>
tour ent</w>
touff ue</w>
tou ché</w>
tor se-
torse- nu</w>
toi lette</w>
tivi tés</w>
tis sage</w>
tin é</w>
til lante</w>
ti ssent</w>
ti quités</w>
ti ns</w>
ti mes</w>
ti fi
ti ck
termin ent</w>
ter rier</w>
ter ies</w>
tend o</w>
ten dent</w>
ten ces</w>
tem por
tempor aire</w>
tee -shirt</w>
teck el</w>
tech nol
technol ogie</w>
tech ni
techni cien</w>
te- fille</w>
tatou er</w>
tar tan</w>
tan ément</w>
tan g
tang ul
tambouri n</w>
tail lés</w>
tabl ette</w>
tabl ement</w>
ta tif</w>
ta po
tapo te</w>
ta mi
ta bac</w>
t ty</w>
t ot
t eux</w>
t est</w>
t elle</w>
t asses</w>
t .</w>
sépar ées</w>
sé d
séd uisante</w>
sé curi
sèche- cheveux</w>
symbo les</w>
symbo le</w>
sy st
syst ème</w>
suspen dues</w>
surplom b</w>
surf ent</w>
sur ée</w>
sur vole</w>
suppor ts</w>
sui s</w>
su çant</w>
su s-
su es</w>
su c
stu pi
str o
stro bo
strobo sco
strobosco piques</w>
str e
str ait</w>
ste ak</w>
ss en
spéci ali
spor tifs</w>
sponsori sé</w>
spi ration</w>
spec tus</w>
sous- marin</w>
souff lent</w>
sou tenu</w>
sou deur</w>
sou dage</w>
sou coupe</w>
sou che</w>
sombr ero</w>
soi gne</w>
soci al</w>
so das</w>
smash er</w>
sl alo
skat er</w>
sk im
sk et
sket ch</w>
siro te</w>
siro tant</w>
simul tanément</w>
sim pl
simpl ement</w>
si ni
sini stre</w>
si ne</w>
si g
si de-
side- car</w>
sho wgirl</w>
sho ot</w>
seu ls</w>
servi s</w>
serv ati
ser ts</w>
ser rée</w>
ser rer</w>
ser re-
serre- tête</w>
ser pil
ser pen
semi- remorque</w>
se z</w>
se ins</w>
se cs</w>
se con
sculp té</w>
sc in
savour eux</w>
sau na</w>
sau mon</w>
sau ce</w>
sar i</w>
sand ale</w>
san tes</w>
san i
sani taires</w>
san gle</w>
saisi r</w>
sabl onneuse</w>
sa ïque</w>
sa bre</w>
s- nu</w>
s téthoscope</w>
s ters</w>
s tar
s quée</w>
s pagne</w>
s pag
spag h
s oie</w>
s hampo
s cr
s am
sam ou
samou ra
rétro -
répon d</w>
réfrig érateur</w>
réfléchiss antes</w>
réfléchi r</w>
réfl exion</w>
réd uit</w>
récupé rant</w>
récu péré</w>
récol tent</w>
récipi ents</w>
ré férence</w>
ré créati
ré chaud</w>
roul ée</w>
rou tier</w>
rou pier</w>
rou illé</w>
rou ille</w>
ron din</w>
rocail leuse</w>
ro buste</w>
ris bee</w>
ri ste</w>
ri ssant</w>
ri di
rgi ste</w>
retourn ée</w>
retourn ent</w>
res pi
représen te</w>
renver sée</w>
rentr ant</w>
ren voyer</w>
ren dre</w>
rempl ir</w>
rembour ré</w>
regrou pées</w>
regar dés</w>
regar dé</w>
recou vertes</w>
rec tement</w>
rec tangul
rebon dit</w>
re venant</w>
re trouve</w>
re trai
re tirer</w>
re tient</w>
re pos</w>
re por
repor tage</w>
re pli
repli é</w>
re join
re cy
re cule</w>
re constitu
re cherche</w>
ray ant</w>
rap pro
ran gs</w>
ram pant</w>
rai nes</w>
rai des</w>
racon te</w>
ra pe</w>
ra mique</w>
ra mes</w>
ra gent</w>
ra ce</w>
r âteau</w>
r oi
roi tement</w>
quoti dien</w>
quill ages</w>
quili bré</w>
qu ées</w>
qu ets</w>
qu et
qu ais</w>
pê ché</w>
pétr ole</w>
péd ales</w>
pé li
pè se</w>
pè rent</w>
pè ce</w>
pâ tu
pyjam as</w>
pui ent</w>
publici taires</w>
pu tt</w>
présen tent</w>
présen tat
présen tant</w>
prépar ation</w>
prél assent</w>
préfér é</w>
préci pi
pré servati
proté gée</w>
prote cteurs</w>
proprié taires</w>
propri été</w>
prom ou
promou vant</w>
proje té</w>
profon dé
profondé ment</w>
profi ter</w>
pro visions</w>
pro spectus</w>
pro pose</w>
pro pan
propan e</w>
pro jette</w>
pro gra
pro fil</w>
prin temps</w>
pri maire</w>
pres sent</w>
pre in
prein tes</w>
prati quer</w>
pr on
pourch assent</w>
pour rait</w>
pou les</w>
posi tionne</w>
pos térieur</w>
pos ter</w>
pos t-
pos session</w>
porte- voix</w>
porte- bébé</w>
por cs</w>
pon cho
poncho s</w>
pon ce</w>
pom pons</w>
pom pe</w>
polici ère</w>
poli tiques</w>
pol lu
pol aire</w>
poin tu</w>
poin gs</w>
poign ées</w>
po ker</w>
pli quant</w>
pli ant</w>
pleu rant</w>
ple ins</w>
plas tron</w>
plan tés</w>
plan eur</w>
pla ques</w>
pla quent</w>
pla cent</w>
pl i</w>
pié tiné</w>
piqu eur</w>
pini ons</w>
pingou in</w>
pier cin
piercin gs</w>
pi ssen
pi e</w>
pi ck
pick -
pick- up</w>
pi c</w>
physi que</w>
phar ma
peti te-fille</w>
percu ssions</w>
per man
per d</w>
per cée</w>
per cer</w>
pen du</w>
pen dent</w>
pel et</w>
pein tures</w>
pei gne</w>
pe lage</w>
paysa ger</w>
patien ce</w>
pati nant</w>
pati nage</w>
patau gent</w>
patau geant</w>
patau ge
patauge oire</w>
past èque</w>
passi on</w>
pas teur</w>
parten aire</w>
parallè lement</w>
parachuti ste</w>
par ka</w>
par ent</w>
par e-
par celle</w>
paper asse</w>
pan y</w>
pan neuse</w>
pan da</w>
pal our
palour des</w>
pal mes</w>
pal ais</w>
pai ssent</w>
pa quets</w>
pa ble</w>
p se</w>
p ains</w>
ow n</w>
ou vertes</w>
ornem en
origin aire</w>
orien taux</w>
orien tales</w>
ordin aires</w>
ordin aire</w>
or gue</w>
or age</w>
or a
op posée</w>
ombra gé</w>
om étri
ologi que</w>
ol et</w>
ol den</w>
ok é</w>
oi ng</w>
oi gnant</w>
offici els</w>
oeu vre</w>
od gers</w>
ock s</w>
occu pée</w>
occu pé</w>
o pinions</w>
o ping</w>
o mm
o mique</w>
o kies</w>
né tiquement</w>
né go
négo ci
nouvel les</w>
nor mes</w>
nom bres</w>
no te</w>
no eu
ni es</w>
neig eux</w>
nation aux</w>
n écess
n in
n ers</w>
n ave
n ami
n aie</w>
mê lent</w>
métal lu
métallu rgiste</w>
mérin diens</w>
mélan ger</w>
mélan gent</w>
médié vaux</w>
médié val</w>
médi tant</w>
médi cale</w>
mécani cien</w>
mé ga
méga phone</w>
mé can
mécan ique</w>
mâ le</w>
mus cu
muscu lation</w>
mus cles</w>
multi ples</w>
mou sine</w>
mou lants</w>
mou lante</w>
mou che</w>
motocy cli
motocy clette</w>
moto- cross</w>
mord illant</w>
mon ture</w>
mon ster</w>
mon naie</w>
mon ade</w>
mol let</w>
mol le</w>
moi nes</w>
mo tion</w>
mo squée</w>
mo saïque</w>
mo ri
mo que</w>
mo i</w>
mm er</w>
mix eur</w>
mir oirs</w>
mini- jupe</w>
mi- hauteur</w>
mi tés</w>
mer ve
menui serie</w>
men us</w>
men diant</w>
meill eure</w>
me e
mee ting</w>
maî tri
mat ador</w>
mascu lin</w>
mas sues</w>
marécag eux</w>
marécag euse</w>
marti al</w>
marathoni ens</w>
mar ie</w>
mar e</w>
maqu illées</w>
maqu iller</w>
manu els</w>
manne quins</w>
man que</w>
man qu
man ie</w>
mail let</w>
mag iques</w>
mag i
magi cien</w>
ma çonnerie</w>
ma s</w>
ma chette</w>
m ènent</w>
m y
m il
m eurs</w>
m assi
m all
mall ette</w>
lé z
lé ger</w>
lou che</w>
lot erie</w>
lo oping</w>
lo com
lo caux</w>
li ts</w>
li ster</w>
li mousine</w>
li monade</w>
li esse</w>
li es</w>
li c</w>
li b
lesquel s</w>
le- même</w>
le y</w>
le i</w>
le cture</w>
le cteur</w>
lanc és</w>
lanc ée</w>
lan cer
lampad aires</w>
lam e</w>
la veur</w>
la tin
la mment</w>
la des</w>
l âché</w>
l une</w>
l oin
l en
len tement</w>
l ate
late x</w>
kimon o</w>
ke ba
keba b</w>
kar a
kara oké</w>
k et</w>
ju ge</w>
ju do</w>
joy eux</w>
journali ste</w>
jong leur</w>
jon ché</w>
joli ment</w>
jogg eurs</w>
ja zz</w>
ja b</w>
is me</w>
interagi ssant</w>
instal lées</w>
insoli te</w>
inhabitu el</w>
incur vée</w>
incon nu</w>
inclin ée</w>
inclin able</w>
inachev ée</w>
in trigué</w>
in tendo</w>
in dex</w>
impri mée</w>
impor tante</w>
imm er
immer gé</w>
im pro
im portant</w>
illumin ée</w>
ill i</w>
il ement</w>
ig n</w>
idi ot</w>
i ssent</w>
i se</w>
i rri
i cots</w>
hu ttes</w>
horiz on
ho rri
hirsu te</w>
hi o</w>
har icots</w>
habill er</w>
habi t</w>
ha s</w>
h ydr
h ui
h i</w>
gé ométri
guirlan des</w>
guer rier</w>
gril lades</w>
gri gn
grign ote</w>
gren ouille</w>
graphi que</w>
grand- mère</w>
gran d
grand s-
gra ve</w>
gr ains</w>
goû tant</w>
gou dr
goudr onnée</w>
gon do
go sse</w>
gn é</w>
gn o
gn er</w>
gla ç
gg y</w>
ger eusement</w>
ge mment</w>
gau f
gar des</w>
galo pe</w>
g è
g raines</w>
g ot</w>
g i</w>
g ham</w>
g h</w>
g eis
g as
fré nétiquement</w>
fris ée</w>
fri te</w>
fres ques</w>
fre es
frap pés</w>
frap peur</w>
fran ges</w>
fran c</w>
fr ustré</w>
fr aise</w>
fourni tures</w>
four re</w>
four gon</w>
fou illant</w>
fou gères</w>
for te</w>
for mé</w>
for ce</w>
fon s</w>
fol le</w>
fléch ettes</w>
flou s</w>
flot teurs</w>
flot teur</w>
fleu ris</w>
flam boyant</w>
fla ques</w>
fla mme</w>
fl û
fin it</w>
fin ale</w>
figuri nes</w>
fi èrement</w>
fi s
ffe e</w>
ff e</w>
feuill ages</w>
feu illage</w>
ferrovi aire</w>
fer mée</w>
faç onne</w>
fau sse</w>
fas t</w>
fam illes</w>
fac teur</w>
fabri qué</w>
fa vo
f éro
f lic</w>
f fons</w>
extré mités</w>
expérimen té</w>
explor ateur</w>
explor ant</w>
exper t</w>
exerci ce</w>
ex travag
ex ique</w>
ex es</w>
eur re</w>
eu x-
et nami
espagn ole</w>
escri meurs</w>
es trade</w>
es qui
es pèce</w>
es ca
esca beau</w>
eri es</w>
er am
envelop pe</w>
enva hi
entrelac és</w>
entou rs</w>
enterr é</w>
engag ées</w>
enflamm é</w>
enf once</w>
encou rage</w>
encad rées</w>
en ge</w>
en chaî
employ ées</w>
employ ée</w>
emmitou fl
emm en
embar quant</w>
em pl
em pile</w>
el le-même</w>
ei n</w>
ei gnent</w>
effe ts</w>
eff rayée</w>
e m</w>
dî nent</w>
dî nant</w>
déten dre</w>
désor dre</w>
désor donné</w>
désarçonn er</w>
déploy é</w>
dénei ger</w>
délici euse</w>
délabr ée</w>
dégui ser</w>
défen dent</w>
découp és</w>
décorati f</w>
décor ant</w>
décol let
déci der</w>
déci dent</w>
déball ant</w>
dé vi
dé tr
dé tourne</w>
dé tournant</w>
dé ta
dé roulent</w>
dé roule</w>
dé rape</w>
dé pri
dé passer</w>
dé passe</w>
dé passant</w>
dé panneuse</w>
dé neige</w>
dé mène</w>
dé mo
dé gonflé</w>
dé formée</w>
dé file</w>
dé di
dé cou
dé clar
dé chaî
drib bl
dri ble</w>
drap ée</w>
dra g
dou c
douc ement</w>
don c</w>
do s-nu</w>
do jo</w>
diver tissant</w>
distribu ant</w>
distri b
distrib ue</w>
dis per
diri gés</w>
direc tement</w>
diplô me</w>
din des</w>
diffi cile</w>
di van</w>
di le</w>
dessi nées</w>
dessi nent</w>
des sus-
des serts</w>
des sert</w>
des ign</w>
denti ste</w>
de z</w>
de voirs</w>
de vi
de v
dd hi
dans eur</w>
dan gereusement</w>
dal mati
d ôme</w>
d ynamique</w>
d y</w>
d ron</w>
d rier</w>
d res</w>
d ram
d g
d an</w>
célé b
céléb rer</w>
cé ramique</w>
cy cla
cycla ble</w>
cupca kes</w>
cupca ke</w>
cul ture
cul aires</w>
cue illant</w>
cu s</w>
crê pes</w>
cro co
croco dile</w>
cre vettes</w>
cr ânes</w>
cr uche</w>
cow boys</w>
couv rir</w>
coussi ns</w>
cour b
coul oirs</w>
cou sant</w>
cou li
cou ettes</w>
cou ette</w>
cou chage</w>
cornemu ses</w>
cor tège</w>
cor rectement</w>
cor ce</w>
contrô ler</w>
contrac tant</w>
contempl ant</w>
conser ves</w>
confor tablement</w>
condi tions</w>
cond uite</w>
concentr és</w>
con çu</w>
con vention</w>
con tin
con sul
con ique</w>
con grès</w>
con fér
con courent</w>
con ces
con centrée</w>
con ce
compé tences</w>
compl exes</w>
commémor ati
commerç ante</w>
commerci ale</w>
commer ce</w>
comm unique</w>
comm un
com prend</w>
com prenant</w>
colon i
colo rier</w>
colli sion</w>
colli e</w>
colle y</w>
coiff ée</w>
coi n
coi ffer</w>
co quillages</w>
co ols</w>
co okies</w>
co mique</w>
co lis</w>
classi ques</w>
clai rière</w>
clai rement</w>
cl ée</w>
cl asseur</w>
cl airs</w>
cier ges</w>
ci rant</w>
ci eux</w>
ci de</w>
châ tai
châ les</w>
chu cho
chucho te</w>
cho ns</w>
cho ix</w>
chirurgi cal</w>
chi ffons</w>
chauff eur</w>
char gée</w>
chan teurs</w>
champi gnon</w>
cham bres</w>
chal umeau</w>
chal et</w>
cha pelet</w>
ch œur</w>
ch asser</w>
ch arri
ch ages</w>
cer t</w>
cer fs</w>
cen taines</w>
cau se</w>
cat amar
catamar an</w>
casser oles</w>
carre lée</w>
car net</w>
car dia
car d</w>
capi taine</w>
cap u
cap es</w>
cana diens</w>
can ine</w>
camar ades</w>
cam eram
cal eçon</w>
cai ssière</w>
cahi ers</w>
cad res</w>
cad dies</w>
ca ke</w>
ca cher</w>
ca chent</w>
ca chant</w>
c ées</w>
c tes</w>
c roupier</w>
c eux</w>
c esse</w>
c ages</w>
bû cher
bû che</w>
béné voles</w>
bé rets</w>
bâ ches</w>
bur q
bun ker</w>
bull dog</w>
bu ri
bu ggy</w>
brum eux</w>
brouss ail
bronz ant</w>
broch ettes</w>
bril lamment</w>
bran chages</w>
br assi
brassi ère</w>
br asse</w>
bow l</w>
boutonn ée</w>
boulever sée</w>
bouill oire</w>
bou tiques</w>
bou s</w>
bou que
bou ddhi
bou cli
bou chée</w>
bor dés</w>
bong o</w>
bon dissant</w>
bod y
bo te</w>
bo a</w>
bless ée</w>
bl ème</w>
bl essu
bin s</w>
bijou terie</w>
bi che</w>
ber gers</w>
beach -
beach- volley</w>
be ag
beag le</w>
bavar der</w>
bat tue</w>
bat tu</w>
bat e
bas es</w>
bas culer</w>
barb elés</w>
barb elée</w>
bar man</w>
bar bote</w>
bar bi
bam bous</w>
balan celle</w>
bala ye</w>
bal aient</w>
bai ssant</w>
bai es</w>
bagar re</w>
bag ue</w>
bac s</w>
ba le</w>
b eurre</w>
b arri
b al</w>
b aille</w>
aéri en</w>
avant- bras</w>
avan cer</w>
auto collants</w>
au- dessous</w>
au quel</w>
au be</w>
attra pé</w>
atter rissant</w>
atten dre</w>
atta chant</w>
atta bl
atri ck</w>
athlé tiques</w>
at tire</w>
at own</w>
at ors</w>
assistan te</w>
assi sent</w>
assembl ée</w>
ass ai
asper gé</w>
ascen seur</w>
as sorti</w>
as semble</w>
artisan aux</w>
artisan ale</w>
artisan al</w>
arti san</w>
arrê tés</w>
arrê tant</w>
arran geant</w>
arran ge</w>
arm ure</w>
ari des</w>
argen tés</w>
arbi e</w>
ar rosage</w>
ar més</w>
ar is</w>
ar d
appu yant</w>
appara ît</w>
appar ai
ap per</w>
anti- émeute</w>
anim ées</w>
an tique</w>
an neaux</w>
an ges</w>
an g
ami cale</w>
am érin
am pli</w>
am phi
am oureux</w>
allu mées</w>
allu mé</w>
allu mer</w>
allem ands</w>
all enge</w>
alimen tation</w>
ali gnent</w>
al entours</w>
ajus ter</w>
ai son</w>
agrip pe</w>
agrip pant</w>
ag ue</w>
ag res
affal é</w>
ad roitement</w>
ad o</w>
ad a</w>
ach i</w>
ach eteurs</w>
accélé rant</w>
accompli ssant</w>
acc e
ac k
ac cueille</w>
ac corde</w>
ac clam
aban donnée</w>
a ve</w>
a p</w>
a der</w>
a bon
Wi i</w>
W el
W C</w>
W A
U S</w>
U S
US A</w>
Toy ota</w>
Ter rier</w>
T ou
T i
T a
T O
T H
T E
Sho p</w>
Se a
S tory</w>
S t.</w>
S ou
S no
S i
Pow er
Pi zza</w>
P âques</w>
P en
P atrick</w>
O re
O l
O bama</w>
N intendo</w>
N Y</w>
N O
Mi ke</w>
Mar ket</w>
M ère</w>
M ouse</w>
M or
M exique</w>
M ets</w>
M arti
M ac
Lig ht</w>
Le go</w>
Lak ers</w>
L ou
L as</w>
Ki tty</w>
K en
J ésus</w>
J eep</w>
Is land</w>
I N
I G
Hol lister</w>
H ero</w>
H ar
Gran d</w>
G uitar</w>
G ri
G olden</w>
G i
F risbee</w>
F e
F ac
E i
E RR
Di eu</w>
D el
D an
Con verse</w>
Con ey</w>
Con cert</w>
Com pany</w>
Chin atown</w>
Che v
Ch allenge</w>
Caf é</w>
C ol
C ir
Bo y</w>
Ber lin</w>
BM W</w>
B us
B ro
B ri
B ra
B ill
B as
B arbie</w>
B ank</w>
Asi atique</w>
Ang els</w>
Améric ain</w>
A r
A ir
A fric
A I
A .</w>
4 x4</w>
2 4</w>
0 8</w>
&apos;étudi er</w>
&apos;él an
&apos;écou ter</w>
&apos;échau ffer</w>
&apos;échar pe</w>
&apos;é viter</w>
&apos;é tirant</w>
&apos;é tat</w>
&apos;é normes</w>
&apos;é co
&apos;é car
&apos;uni sson</w>
&apos;oc casion</w>
&apos;in spiration</w>
&apos;im pression</w>
&apos;expri me</w>
&apos;ex ci
&apos;ex am
&apos;entraî neur</w>
&apos;entraî ner</w>
&apos;enla cent</w>
&apos;enla ce</w>
&apos;encou ragent</w>
&apos;en tourent</w>
&apos;en droit</w>
&apos;avi ateur</w>
&apos;aver tissement</w>
&apos;ass oit</w>
&apos;ass oient</w>
&apos;as surer</w>
&apos;arrê tant</w>
&apos;ar ène</w>
&apos;ap puient</w>
&apos;an tiquités</w>
&apos;an neaux</w>
&apos;an cien</w>
&apos;alpin iste</w>
&apos;al longe</w>
&apos;al gues</w>
&apos;ag ili
&apos;affron ter</w>
&apos;ach eteurs</w>
&apos;ac tivités</w>
&apos;a viron</w>
&apos;a ven
&apos;a van
&apos;O klahoma</w>
&apos;A frique</w>
&apos; œuvre</w>
&apos; éle
&apos; y</w>
&apos; usine</w>
&apos; université</w>
&apos; où</w>
&apos; op
&apos; essence</w>
&apos; atterrissage</w>
&apos; atterrir</w>
&apos; alimentation</w>
&apos; alignent</w>
&apos; affiche</w>
&apos; adversaire</w>
&apos; accrochent</w>
&apos; I
ê tes
éven tuellement</w>
éven tails</w>
évacu er</w>
étudi antes</w>
étran gères</w>
étr er</w>
étr eignant</w>
éti rem
étirem ents</w>
étal ant</w>
ét eignent</w>
éro s</w>
équi pée</w>
éprou vette</w>
éping lés</w>
épar se</w>
énergi quement</w>
émerve illée</w>
élé ment</w>
éle vé</w>
élabor ée</w>
élabor é</w>
él er
éjec tée</w>
édi fice</w>
écri teau</w>
écras ée</w>
écou teur</w>
écoss aises</w>
éclat ante</w>
éclai rés</w>
éclabou ssé</w>
éclabou sser</w>
écl e
écle ctique</w>
échantil lons</w>
échan geant</w>
échafau d</w>
éch apper</w>
écar tées</w>
écar tant</w>
éc lat</w>
éc la
é viter</w>
é tire</w>
é teindre</w>
é tabl
établ i</w>
é s
és ili
é rale</w>
é quilibré</w>
é pui
épui sé</w>
é plu
éplu chant</w>
é peron</w>
é pai
épai ss
épaiss eurs</w>
é motion</w>
é ma</w>
é li
é gy
égy p
é en</w>
è tres</w>
è f
è de</w>
è ches</w>
ç onne</w>
â ge</w>
â chée</w>
à -vous</w>
zz i</w>
z ig
zig z
zigz ag
zigzag uer</w>
z els</w>
z ar</w>
z aine</w>
yn y
yny rd</w>
ym ne</w>
y sty
ysty rène</w>
y ser</w>
y oy
yoy o</w>
y o</w>
y ette</w>
xy gène</w>
x e</w>
wi ffer</w>
wa ys</w>
w ood</w>
w ok</w>
w in
w es
wes ter
wester n</w>
w ei
wei ser</w>
w as
was a
wasa ki</w>
w an</w>
vê tr
vêtr és</w>
vél o
vélo taxi</w>
vé té
vété rans</w>
vol ée</w>
vol ti
volti geur</w>
vol ter</w>
vol kswagen</w>
voi tu
voitu rette</w>
voi si
viv ante</w>
visi teurs</w>
visi blement</w>
violon istes</w>
viol ence</w>
ving taine</w>
vien noi
vieill otte</w>
vie illard</w>
vi vent</w>
vi vant</w>
vi tés</w>
vi sée</w>
vi ser</w>
vi sant</w>
vi re
vire volter</w>
vi gno
vi etnami
vietnami en</w>
vi es</w>
vi dé
vi de-
vide- gren
vide-gren ier</w>
vi cti
victi me</w>
vi an
vian des</w>
vi al</w>
veu lent</w>
ves tons</w>
ves ti
ver sion</w>
ver sale</w>
ver glacée</w>
ver glacé</w>
ven tée</w>
ven til
ven deuse</w>
ve lu
ve lle</w>
vapori sée</w>
va ts</w>
va se</w>
v rent</w>
v re
vre té</w>
v rai</w>
v autour</w>
v ateurs</w>
v ales</w>
v ais</w>
v ain
vain cre</w>
usi ness</w>
us si
uri noir</w>
uri nant</w>
urgen ti
urgenti stes</w>
universi taires</w>
uni ques</w>
un i</w>
ul k</w>
ui de</w>
u t
u sa
u re
u p
u ge</w>
u demment</w>
u ction</w>
téri eures</w>
téri elle</w>
télé viseur</w>
télé ph
téléph érique</w>
tè nement</w>
tur eux</w>
tu niques</w>
tu eusement</w>
tu euse</w>
tu es</w>
tu el</w>
tu de</w>
trê mement</w>
trê me</w>
trouv é</w>
trot toirs</w>
tron omique</w>
trico ts</w>
trib aux</w>
tri ture</w>
tri stes</w>
tri colore</w>
tri ces</w>
tri bale</w>
tri bal
tribal es</w>
tress é</w>
tren taine</w>
trem pée</w>
trem pli
trempli n</w>
tre int</w>
traî neaux</w>
trave s
traves ti</w>
travail l
travaill euses</w>
transpor ts</w>
trans versale</w>
trans porter</w>
trans portent</w>
trans pire</w>
trans parents</w>
trans formant</w>
tran quill
tranquill ement</w>
trai tement</w>
trac é</w>
tra jet</w>
tra des</w>
tra ction</w>
tra cer</w>
tr èf
tr i</w>
tr aire</w>
tr aine</w>
tout- terrain</w>
tournes ols</w>
tournes ol</w>
tourn és</w>
tourn e-
tourne- disque</w>
touri sme</w>
tot alement</w>
tor til
tortil la
tortilla s</w>
tor si
ton due</w>
tomb ées</w>
toi ts</w>
toi let
to r</w>
to le</w>
to ast</w>
tiss ée</w>
tiss eur</w>
tis sus</w>
tis h</w>
tir oir</w>
tir euse</w>
tionn elle</w>
til les</w>
til lant</w>
tick ets</w>
ti ème</w>
ti ves</w>
ti quer</w>
ti qu
tiqu aire</w>
ti nu
ti mo
timo re</w>
ti mité</w>
ti me-
time- la
time-la pse</w>
ti mate</w>
ti m
ti ens</w>
ti cules</w>
ti ce</w>
thé i
théi ère</w>
th ème</w>
tes te</w>
terr ant</w>
terr aine</w>
termin us</w>
termin al</w>
ter ro
ter riers</w>
ter res</w>
ter net</w>
ter ne</w>
ter gent</w>
ten tative</w>
ten ance</w>
tein ture</w>
te ils</w>
te e-
tee- ball</w>
tau reaux</w>
tar tes</w>
tar ds</w>
tan tes</w>
tan s</w>
tan de
tande m</w>
tambouri ns</w>
tal us</w>
tal ki
talki e-
talkie- walkie</w>
tal ien</w>
tal ie</w>
tal ement</w>
tail lé</w>
tail leur</w>
tail les</w>
tach et
ta tiquement</w>
ta mment</w>
ta guée</w>
ta gué</w>
ta g
tag gée</w>
ta che</w>
t- ce</w>
t ôle</w>
t lem
t lan
tlan ta</w>
t her
t euses</w>
t elles</w>
t ch</w>
séri eux</w>
sépar e</w>
sé v
sé quen
sé qu
séqu oi
séquoi a</w>
sé chées</w>
sé ché</w>
synchroni sées</w>
sym pho
swe et</w>
swe ats</w>
suspen sion</w>
sus hi
sushi s</w>
surveill er</w>
surveill ance</w>
surplomb ent</w>
surdimensionn é</w>
sur é</w>
sur volent</w>
sur pris</w>
sur gi
sur chargé</w>
super visé</w>
super -
super- h
super-h éros</w>
suc c
succ ès</w>
su spec
suspec t</w>
su péri
supéri eur</w>
su pé
supé rette</w>
su ng</w>
su ce</w>
stupi de</w>
struc teur</w>
stre et</w>
str o</w>
str ing</w>
stationn ées</w>
stationn aire</w>
star ting</w>
sta l</w>
sta f
staf f</w>
sta bili
ssi ers</w>
ss ées</w>
ss eaux</w>
ss ar
ssar des</w>
spéci ale</w>
sprink ler</w>
sprin t</w>
sponsori sée</w>
spon so
sph ères</w>
spagh ett
spaghett i</w>
souri res</w>
sour ces</w>
sour ce</w>
souff lé</w>
sou tènement</w>
sou terraine</w>
sou terrain</w>
sou ples</w>
sou levées</w>
sou dent</w>
sou dant</w>
sori en
sorien té</w>
sonn ette</w>
sombr er
sombrer os</w>
som p
som nol
sol é</w>
sol s</w>
sol aire</w>
soign ée</w>
soi ns</w>
soi ent</w>
so mmes</w>
snowboar ds</w>
slalo me</w>
sl ei
slei gh</w>
skim board</w>
ski euse</w>
skateboar der</w>
siro p</w>
sinu eux</w>
sign al</w>
sig ni
si ère</w>
si té</w>
si ons</w>
si gnant</w>
si fs</w>
si ens</w>
si bili
shampo oing</w>
ses pé
sespé ré
sespéré ment</w>
serv i</w>
serpil lière</w>
serpen tins</w>
ser rées</w>
ser rure</w>
sen tir</w>
sen tant</w>
sembl er</w>
sembl ables</w>
sel lés</w>
sel fie</w>
sei n</w>
secouri ste</w>
secon d</w>
se- neige</w>
se vel
se ils</w>
se cré
sculp ter</w>
scr u
scou t</w>
scol aires</w>
scin tillante</w>
sci er</w>
sci ent</w>
sci ence</w>
sc uits</w>
sc o</w>
saxophoni stes</w>
saxophoni ste</w>
saxopho nes</w>
sav onneuse</w>
sauve teur</w>
sau ver</w>
sau teur</w>
sau poudre</w>
sau f</w>
sang les</w>
sandwi ches</w>
samoura ï</w>
sa tions</w>
sa gent</w>
s œurs</w>
s ère</w>
s wing</w>
s téri
s ton</w>
s ter
s tent</w>
s sements</w>
s qu</w>
s pin
spin n
spinn ing</w>
s pare</w>
s nor
snor k
snork el
snorkel ing</w>
s n
sn ack</w>
s mi
smi th</w>
s ille</w>
s hi
s exe</w>
s ette</w>
s ards</w>
s ait</w>
s ais</w>
rê nes</w>
réuni t</w>
rétro- projecteur</w>
rési l</w>
rési denti
résidenti el</w>
répon ses</w>
répar ateur</w>
réfugi és</w>
réfugi ent</w>
réfléchi ssent</w>
rédi geant</w>
récu pèrent</w>
récréati f</w>
réconfor ter</w>
réconfor te</w>
réconfor tant</w>
récol tés</w>
récol tant</w>
récep tionn
réagi ssent</w>
ré ti
ré sille</w>
ré seau</w>
ré pan
ré jou
ré g
ré création</w>
ré chauff
réchauff ent</w>
ré action</w>
rus se</w>
rui ne</w>
rugbym en</w>
rugbym an</w>
ru m</w>
rri tos</w>
rou tine</w>
rou tes</w>
rou ge-
rouge- orangé</w>
rou ge
rouge âtre</w>
rou et</w>
rou cho</w>
rol ling</w>
rol et</w>
rock er</w>
ro quet</w>
ro ge</w>
ro bin
robin et</w>
ris que</w>
rin çant</w>
ridi cules</w>
ric an</w>
ri te</w>
ri stes</w>
ri oles</w>
ri l</w>
ri es</w>
ri da</w>
reç u</w>
reç oi
reçoi vent</w>
retrai te</w>
retourn er</w>
restau r
restaur ants</w>
respi rer</w>
respec tivement</w>
respec tifs</w>
res sources</w>
res sort</w>
res sembler</w>
res pon
respon sable</w>
res pirat
respirat oire</w>
renver ser</w>
ren omm
ren du</w>
ren d</w>
ren ard</w>
ren aissance</w>
rempli es</w>
remor queur</w>
rem porter</w>
rem bar
rembar de</w>
rejoin dre</w>
regi stre</w>
regar dées</w>
regar dée</w>
regar ds</w>
refl ète</w>
recy c
recyc lage</w>
rectangul aire</w>
recou vrent</w>
reconstitu tion</w>
rebon dissent</w>
rebon dissant</w>
re z</w>
re vient</w>
re trouvent</w>
re trait</w>
re tour</w>
re tirées</w>
re tirée</w>
re tirant</w>
re tard</w>
re péré</w>
re prenant</w>
re passer</w>
re passe</w>
re montant</w>
re levé</w>
re levant</w>
re e</w>
re cue
ray o
rayo la</w>
rat é</w>
rassembl é</w>
rassembl er</w>
ras ée</w>
rappro cher</w>
rap prochant</w>
rap porter</w>
rap portant</w>
rap port</w>
ran tes</w>
ran te</w>
ran s
ran ien</w>
ran geant</w>
ran ch</w>
ran ce</w>
ram pent</w>
ram assé</w>
rai son</w>
rafraîchi ssements</w>
rafraîchi ssante</w>
raff ute</w>
raff in
raf e</w>
ra t</w>
ra der</w>
ra ble</w>
r ôle</w>
r ès</w>
r â
r way</w>
r oie</w>
r eur</w>
r enf
renf ro
r ds</w>
r attraper</w>
r aille</w>
r a</w>
r -
quoti diennes</w>
quat er
quater back</w>
qu ino
qu eu
queu es</w>
qu asi
quasi ment</w>
qu as
qu ants</w>
qu ad
péri ple</w>
péri ale</w>
pén étrer</w>
pén ètre</w>
péli can</w>
pédal ent</w>
pé tri
pé rer</w>
pé nombre</w>
pé ni
péni blement</w>
pé des
pédes tre</w>
pè des</w>
pâtu rage</w>
pâ tes</w>
py l
pyl ô
pupi tres</w>
pun chin
punchin g
punching -ball</w>
pun ch</w>
pulvéri sent</w>
pui ssant</w>
pu s</w>
préservati fs</w>
présentat eur</w>
présen tes</w>
présen ce</w>
prépar ée</w>
prépar é</w>
prél asse</w>
précipi tent</w>
pré sent</w>
pré -
proté geant</w>
protège- oreilles</w>
protè gent</w>
protes ter</w>
protes tent</w>
protes tant</w>
prote c
pron once</w>
promen é</w>
promen eur</w>
proje ts</w>
progra mmes</w>
prod uction</w>
pro pul
pro chés</w>
pro ces
pro blème</w>
prin cipal</w>
prin cesse</w>
pri vée</w>
pri mi
primi tif</w>
pres se-
pres s</w>
prati quement</w>
prati quants</w>
pr êtes</w>
pr udemment</w>
pr eu
preu ve</w>
pr ess
press o</w>
pr ai
prai ries</w>
pour tant</w>
pour suivi</w>
pour suivent</w>
poudr euse</w>
pou vons</w>
pou lies</w>
pou lie</w>
pou le</w>
post- it</w>
positionn é</w>
posi tions</w>
pos ture</w>
pos tales</w>
porte- vélos</w>
porte- monnaie</w>
por tu
por tait</w>
por cel
pop corn</w>
pollu tion</w>
pol ystyrène</w>
poin tée</w>
poin ts</w>
poin tent</w>
poign et</w>
poign ar
poi v
poi trines</w>
poi rier</w>
poi r</w>
po toir</w>
po teries</w>
po t
po mé
pomé ranien</w>
po mm
po chette</w>
pli ée</w>
pli ent</w>
plat es</w>
plan té</w>
plan tent</w>
plan chiste</w>
plan ade</w>
plaisan tant</w>
plaisan ci
plaisanci ers</w>
plaisan ce</w>
pla çant</w>
pla y</w>
pla queur</w>
pla cé</w>
pla ces</w>
pla cer</w>
pl oie</w>
pl ie</w>
pl en
pissen lit</w>
pique- ni
pingou ins</w>
pilo tage</w>
pil ot
pian iste</w>
pi ton</w>
pi ro
pi olet</w>
pi o
photographi ées</w>
photographi que</w>
phot om
photom at
photomat on</w>
phot o
pho nes</w>
pharma ci
pharmaci e</w>
percu té</w>
per roquet</w>
per met</w>
per le</w>
per dant</w>
per chiste</w>
per ches</w>
pen dues</w>
pen dante</w>
peluch euses</w>
peluch euse</w>
pellet ées</w>
pellet er</w>
pel otes</w>
pein tres</w>
pe ments</w>
paysa gi
paysagi stes</w>
pay sages</w>
pau vreté</w>
pau vres</w>
patrou illent</w>
patrio tique</w>
patin euses</w>
pati ents</w>
passionn és</w>
passionn ément</w>
passa gère</w>
pass oire</w>
pas tel</w>
pas sées</w>
pas sante</w>
particu lière</w>
parti tions</w>
parti ment</w>
pare- brise</w>
parallè le</w>
paral ympiques</w>
parachuti sme</w>
par ty</w>
par terre</w>
par tent</w>
par sem
par ois</w>
par k
par fu
par fai
parfai tement</w>
par esse</w>
par dessus</w>
par court</w>
par courent</w>
par c
parc mètre</w>
par ap
parap ente</w>
panor ama</w>
pan tes</w>
pan ad
panad as</w>
pan a
pana che</w>
pal ettes</w>
pai res</w>
paga yer</w>
pag ode</w>
pag aies</w>
pad dle</w>
pa vant</w>
pa trons</w>
p tant</w>
p rière</w>
p per</w>
p per
p es
pes ant</w>
p aux</w>
p ais</w>
p ail
ow a</w>
ouv rent</w>
ou ston</w>
ou chement</w>
oti ves</w>
ot el</w>
ornemen tal</w>
origi nes</w>
ori ente</w>
organi sé</w>
organi sent</w>
organi se</w>
organi sation</w>
oreill ette</w>
ora h</w>
or teils</w>
or ld</w>
or esc
or der</w>
or ateur</w>
or ak</w>
or ag
orag eux</w>
op y</w>
op per</w>
op en</w>
onn ettes</w>
ondul és</w>
on ni
on der</w>
on chal
onchal a
onchala mment</w>
on -
olo gues</w>
oli sées</w>
ol ler</w>
ok em
okem on</w>
oin t</w>
oi tation</w>
off rant</w>
off er
oc re</w>
oc k</w>
oc ci
occi den
oc -
oc- notes</w>
obser vation</w>
obser vateurs</w>
ob scène</w>
ob er
o vi
o vale</w>
o tique</w>
o re</w>
o per</w>
o o</w>
o o
o ks</w>
o ker</w>
o do</w>
négoci ent</w>
négli gée</w>
négli gemment</w>
nécess aire</w>
né on</w>
né er
néer land
nu yer</w>
nu ances</w>
nourri ssent</w>
nourri r</w>
nou n
noun ou</w>
noeu ds</w>
no tre</w>
no tamment</w>
nive ler</w>
nin j
ninj a</w>
ni té</w>
ni ture</w>
ni on</w>
ni en</w>
ni d</w>
ni a</w>
nes ota</w>
nei ges</w>
navi gant</w>
nave t
nation ale</w>
nat ure
nag ement</w>
na ître</w>
na le</w>
n és</w>
n os</w>
n onchalamment</w>
n k</w>
n eurs</w>
n el</w>
n ar
n ap
n al</w>
mû re</w>
mélan gé</w>
médi as</w>
médi a</w>
mé tro
mé nag
mé ment</w>
mé m
mém oire</w>
mé con
mâ chant</w>
musulman e</w>
musici enne</w>
musi cale</w>
mus clée</w>
muni ci
munici paux</w>
multi tude</w>
multi média</w>
mu res</w>
mu ral</w>
mu ni</w>
mu g</w>
mousta ches</w>
mous tiquaire</w>
mou ssant</w>
mou le</w>
mou choir</w>
motocycli ste</w>
mot ori
mori stique</w>
mord ille</w>
mor dent</w>
montr ée</w>
montr é</w>
moni teurs</w>
mon tés</w>
mon tée</w>
mon ticules</w>
mon s</w>
mon g
mong ol</w>
modè les</w>
moby lettes</w>
mo el
moel leux</w>
mo des
modes te</w>
mm age</w>
mix er</w>
mix e</w>
minuti eusement</w>
minuti euse</w>
mini- golf</w>
mini stra
mini jupes</w>
mini jupe</w>
mini at
miniat ures</w>
min eurs</w>
min er</w>
min ant</w>
mil liers</w>
micro phones</w>
mi me</w>
mi des</w>
mi d
mi che</w>
mexic ains</w>
meu lage</w>
mesu rer</w>
mesu rant</w>
mes ur
mer ic
meric an</w>
men é</w>
men tée</w>
men tation</w>
meill eur</w>
me- cravate</w>
mauv aise</w>
mauv ais</w>
mau ves</w>
mau ve</w>
matéri aux</w>
mati ère</w>
matel assé</w>
matel ass
matelass ée</w>
mat ure</w>
mat hé
mathé m
mathém atiques</w>
mat er
mas sage</w>
mas quant</w>
mas cul
mascul ins</w>
mari times</w>
mari onnettes</w>
mari nes</w>
mari ent</w>
mari achi</w>
march ands</w>
march ande</w>
mar teaux</w>
mar te
mar quant</w>
mar k</w>
mar ier</w>
mar gu
margu eri
mar a
mara cas</w>
maqu illés</w>
maqu ill
maquill euse</w>
manu cure</w>
manqu antes</w>
manifes tent</w>
manifes te</w>
mani velle</w>
man œuvre</w>
mam ans</w>
mal heureuse</w>
mal adroitement</w>
maj ori
maj eur</w>
main tient</w>
main tenant</w>
main tenance</w>
mail le</w>
mai sonnette</w>
m s</w>
m eur</w>
m elles</w>
m asse</w>
léz ard</w>
lég ères</w>
lé gers</w>
lè vre</w>
lè che-
luxu riant</w>
luxu eux</w>
lumin aires</w>
lumi ne</w>
lou p</w>
longu eurs</w>
long temps</w>
lon nant</w>
loin taine</w>
locom otives</w>
lo ve</w>
lo o</w>
lo ges</w>
lo cales</w>
lo be</w>
liv rent</w>
lig ht</w>
lig ator</w>
lib ère</w>
li ssent</w>
li ques</w>
li que</w>
li bé
li ance</w>
let tre</w>
let er
leter re</w>
les -
les- mêmes</w>
le- ci</w>
le z</w>
le m</w>
le ader</w>
lav eurs</w>
lav ande</w>
latin o</w>
las ka</w>
las er</w>
lar s</w>
lar mes</w>
lancer -
lancer- franc</w>
lanc e-
lance- pierre</w>
lan che</w>
lan ces</w>
lam pes</w>
lai tue</w>
lai sses</w>
lai sser</w>
lai ssent</w>
labou rant</w>
la vage</w>
la tions</w>
la r</w>
l y</w>
l timate</w>
l otte</w>
l ois</w>
l eu
leu rement</w>
l ein</w>
l at
lat érale</w>
l agée</w>
kickbox er</w>
ki t</w>
ke es</w>
kar ts</w>
k épi</w>
k man</w>
k et
k e-
jus tice</w>
jum ping</w>
jum elle</w>
jum eaux</w>
jui ve</w>
jui f</w>
ju ché</w>
joy euse</w>
journali stes</w>
jou rd</w>
join tes</w>
join t</w>
jogg euse</w>
jogg eur</w>
jeu di</w>
jet -s
jet-s ki</w>
jau n
jar re
japon aises</w>
jam bières</w>
jailli ssent</w>
ja cu
jacu zzi</w>
j à</w>
j oignant</w>
j er
jer rican</w>
isol é</w>
is l
is h
irri té</w>
ir land
intéres santes</w>
intéres sante</w>
intégra l</w>
intégr ales</w>
intégr alement</w>
intitu lée</w>
intervie w</w>
inter viennent</w>
inter vention</w>
inter net</w>
inter nationaux</w>
institu t</w>
inspec teurs</w>
inse ctes</w>
inse cte</w>
inon dée</w>
inon dé</w>
inféri eures</w>
inform elle</w>
industri elle</w>
indi que</w>
indi gène</w>
indi gè
indigè nes</w>
ind ou</w>
incroya ble</w>
in stant</w>
in sen
in qui
in ger</w>
in ek
inek en</w>
in dé</w>
in col
incol n</w>
in a</w>
impressionn ante</w>
impos ants</w>
impli quées</w>
impli quée</w>
impermé ables</w>
immobili sé</w>
immob iles</w>
immen ses</w>
imm i
immi gra
immigra tion</w>
im périale</w>
im patience</w>
illumin ées</w>
illumin ent</w>
il lumine</w>
il lu
il li
il lac</w>
il er</w>
il der</w>
ign or
ig loo</w>
if e</w>
identifi é</w>
iP ho
iPho ne</w>
iP ad</w>
i talien</w>
i p
i mite</w>
hé ron</w>
hydr au
hus ky</w>
hur le</w>
hui le</w>
hu moristique</w>
hu mides</w>
hu mains</w>
hors- champ</w>
horri fi
horrifi é</w>
hor ns</w>
hoo ps</w>
ho t</w>
ho spi
ho mas</w>
histori ques</w>
hispan iques</w>
hirsu tes</w>
hip sters</w>
hi ver
hi sse</w>
hi jab</w>
hi bou</w>
heur euses</w>
he els</w>
hawaï en</w>
haw ks</w>
haw k</w>
haut-par leurs</w>
haut-par leur</w>
harna ché</w>
handicap é</w>
han g</w>
hal f</w>
hab ille</w>
hab ilement</w>
ha yon</w>
ha chette</w>
h éri
h â
h ymne</w>
h ouse</w>
h indou</w>
géométri que</w>
gé n
gui dent</w>
gu lière</w>
gu illes</w>
grin d</w>
grin ch
grinch eux</w>
grima çant</w>
grim peur</w>
gril lé</w>
gril lent</w>
gril lagée</w>
gri sonn
gri ffe</w>
gravi ers</w>
grands- parents</w>
grand- père</w>
gran ge</w>
gra vats</w>
gra vant</w>
gouver nement</w>
gou ttes</w>
gou ts</w>
gor gée</w>
gondo le</w>
gon fl
gol f
golf eurs</w>
go sses</w>
gn ons</w>
glaç age</w>
gi s</w>
gi ne</w>
gen tlem
gen terie</w>
geis ha</w>
ge yser</w>
gaz onnée</w>
gaz euse</w>
gauf re</w>
gau cher</w>
gas tronomique</w>
garde- à-vous</w>
garde- fou
garde-fou s</w>
gar niture</w>
gar dée</w>
gar diens</w>
gar dez</w>
gar dant</w>
gar d</w>
gamba dent</w>
gamba de</w>
gam elle</w>
galo p</w>
gag ement</w>
g ê
g way</w>
g rette</w>
g reen</w>
g re
g lobe</w>
g at
g age</w>
g a</w>
g -
fê tent</w>
fê tards</w>
féro ce</w>
fémini nes</w>
fus ée</w>
furi eux</w>
furi eusement</w>
fu yant</w>
fu mé</w>
fu mier</w>
fu ment</w>
frou s</w>
frou frous</w>
fron cent</w>
fro t
fris be
fri tes</w>
fri ser</w>
fri me</w>
frees ty
fraî ches</w>
frap pée</w>
franchi r</w>
fr ères</w>
fr once</w>
four che</w>
foul ée</w>
fou iller</w>
fou illent</w>
fou et
fon çant</w>
fon ds</w>
fon d
fo r</w>
flû tes</w>
fléch ette</w>
flu oresc
flot tants</w>
flot tante</w>
flor aux</w>
flor ales</w>
flo cons</w>
flexi ble</w>
fleu riste</w>
flam boy
flam beau</w>
fl èches</w>
fl uide</w>
fix ée</w>
fix é</w>
fix er</w>
fin issent</w>
fin issant</w>
fin i</w>
fin al</w>
fil ment</w>
fil es</w>
figu rant</w>
fi er
fier té</w>
fi dè
ffe l</w>
ff roi</w>
feuill e
feuille tant</w>
festi vités</w>
fer raille</w>
fer mement</w>
fer mant</w>
fe z</w>
fe melles</w>
favo rite</w>
fau ve</w>
fati guée</w>
fascin é</w>
far ouchement</w>
fantaisi stes</w>
fan t
famili ale</w>
famili al</w>
fai tes</w>
fai s</w>
fai m</w>
fai ble</w>
fabri quer</w>
fa ci
f âchée</w>
f us</w>
f uite</w>
f lot</w>
f -
f- d</w>
exécu tant</w>
expéri ences</w>
explor ent</w>
explo re</w>
expl oitation</w>
exper ts</w>
exhi bant</w>
exci tés</w>
exci tée</w>
exci tant</w>
exam en</w>
ex trêmement</w>
ex traire</w>
ex tatiquement</w>
ex pé
ex empl
ex cep
ex cen
excen tri
ex ca
eux- mêmes</w>
europé enne</w>
euro s</w>
eu vage</w>
eth nies</w>
espagn ols</w>
espa dri
espadri lles</w>
escar pé</w>
escar got</w>
escal ators</w>
es presso</w>
es planade</w>
es ame</w>
eri do
erido o</w>
er by</w>
er a</w>
enva hi</w>
entre tient</w>
entre tenue</w>
entre tenant</w>
entraî née</w>
entraî né</w>
entraî neurs</w>
entraî nent</w>
entraî nant</w>
entou re</w>
enterr és</w>
enterr ant</w>
ent ôt</w>
engag ée</w>
engag ent</w>
eng ren
enflamm ées</w>
enf u
enf er
endomm agée</w>
endomm ag
endommag é</w>
encad ré</w>
en vers</w>
en suite</w>
en roule</w>
en registre</w>
en nement</w>
en lèvent</w>
en levant</w>
en jambe</w>
en jam
en che
enche vêtrés</w>
en aissance</w>
en a</w>
emprun tent</w>
empil ant</w>
emmitoufl és</w>
emmen ant</w>
emm ènent</w>
embar que</w>
embar cations</w>
emball és</w>
emball ant</w>
em preintes</w>
em porter</w>
em ple</w>
em ori
em bru
em ballage</w>
el ots</w>
el lo</w>
el les-mêmes</w>
ei ne</w>
eff rayé</w>
eff rayant</w>
e- verte</w>
e fs</w>
e e
e dle</w>
dî ne</w>
dévi sagent</w>
déta chés</w>
désor donnée</w>
désar çonne</w>
dépri mé</w>
déploy és</w>
dénei gement</w>
dénei geant</w>
démé nager</w>
démé nagement</w>
démar rent</w>
démar que</w>
déli mi
délabr ées</w>
dél uge</w>
dégus tation</w>
dégui sements</w>
dégui sement</w>
défen se</w>
défen dant</w>
dédi ca
découp ent</w>
décou pages</w>
décor és</w>
décor ation</w>
décollet é</w>
décol lent</w>
déclar ation</w>
déci de</w>
débl aie</w>
débar ras
déambul ent</w>
dé verse</w>
dé terrant</w>
dé tergent</w>
dé sorienté</w>
dé solé</w>
dé sespérément</w>
dé roulant</w>
dé potoir</w>
dé ploie</w>
dé passent</w>
dé mêlent</w>
dé jà</w>
dé fie</w>
dé fer
dé core</w>
dé chargent</w>
dé charge</w>
dé bout</w>
dé bat</w>
du nk</w>
du el</w>
dribbl er</w>
dres sés</w>
dres sées</w>
dres sé</w>
dres sent</w>
drap é</w>
drap s</w>
dram atique</w>
drag ster</w>
dou zaine</w>
dou leur</w>
dou ches</w>
dou bl
doss ards</w>
dor toir</w>
dom aine</w>
dol lars</w>
dol lar</w>
do wn</w>
do ssiers</w>
do ssier</w>
do mine</w>
diverti ssent</w>
distribu teurs</w>
distribu er</w>
distribu ent</w>
disper sés</w>
dis tinc
dis simul
dis posée</w>
dis par
diri gée</w>
diri gé</w>
diri gent</w>
dire cteur</w>
diplô mée</w>
diplô mes</w>
diffi cul
di x</w>
di strait</w>
di rt</w>
di ng</w>
di gan</w>
di dg
didg eridoo</w>
di ag
di ab
diab olo</w>
devi ne</w>
dessus- dessous</w>
descen du</w>
des tin
des cent</w>
den telle</w>
den se</w>
demois elle</w>
del les</w>
de vez</w>
de o</w>
de bouts</w>
dalmati en</w>
d- E
d-E st</w>
d weiser</w>
d rum</w>
d ay</w>
d as
d ar
d a
cô tière</w>
cô tes</w>
célé bra
célébra tion</w>
câlin ant</w>
cy lin
cur ling</w>
culture l</w>
culti vent</w>
cul é</w>
cul tures</w>
cul ture</w>
cul minant</w>
cuill ères</w>
cui vres</w>
cui ts</w>
cui sses</w>
cui ssardes</w>
cue illent</w>
cu lant</w>
cti onn
créati fs</w>
cré ateur</w>
croya ble</w>
croi sement</w>
cro que</w>
cro cs</w>
cri stal</w>
cri stal
creu sée</w>
cre v
cra bes</w>
cra b
crab ble</w>
cr us
cr oise</w>
cr eux</w>
cow girl</w>
couver cles</w>
couv rent</w>
courb ée</w>
cour roie</w>
cour rier</w>
couli ssante</w>
cou ts</w>
cou t</w>
cou re</w>
cou pl
cou ler</w>
cou des</w>
cou cou</w>
costu mée</w>
costu me-cravate</w>
cos tau
corpul ents</w>
cor gi</w>
cor don</w>
cor d</w>
conver se</w>
contre- jour</w>
contre plaqué</w>
contre cœur</w>
contr ari
contrari é</w>
contin ue</w>
contempl ent</w>
contai ners</w>
consul tent</w>
conser ve</w>
confér en
concer nant</w>
conce voir</w>
con vi
con trée</w>
con torsi
con tinu
con tient</w>
con somm
con sole</w>
con si
con seils</w>
con naître</w>
con fus</w>
con fort</w>
con fi
con ditionn
con courir</w>
complè te</w>
comp toirs</w>
commémorati f</w>
communi cation</w>
commun au
communau taire</w>
commer ces</w>
commen çant</w>
comman dent</w>
comman dant</w>
com posés</w>
com posant</w>
com portant</w>
com partiment</w>
com esti
com ble</w>
com .</w>
color ant</w>
colo rient</w>
colle cte</w>
col lant</w>
coin cé</w>
coiff es</w>
cock tail</w>
co ton</w>
co olisées</w>
co ob
co médi
co me</w>
co les</w>
co chon</w>
co cher</w>
clô tures</w>
clo ne</w>
clo ches</w>
clo che</w>
clin ent</w>
cli ne</w>
clam ant</w>
clairsem és</w>
clai res</w>
clai rage</w>
cla que</w>
cl asses</w>
cl ass
cir que</w>
cir culaires</w>
cir cuits</w>
cin éma</w>
cin elle</w>
ci té</w>
ci terne</w>
ci sco</w>
ci re</w>
ci rage</w>
ci mes</w>
ci bles</w>
ché ologues</w>
châtai ns</w>
chu t</w>
choisi t</w>
cho ristes</w>
cho pe</w>
cho c</w>
chite cture</w>
chite c
chitec tur
chi mique</w>
chi mie</w>
chi gan</w>
chi che-
chiche- kebab</w>
chevau cher</w>
chev illes</w>
cher cheurs</w>
chemin ots</w>
chemin ot</w>
chemin ent</w>
chem ins</w>
che velu
che f-d</w>
chauss ette</w>
chau ves</w>
chau me</w>
chau ds</w>
charri ot</w>
chan delles</w>
chamallo ws</w>
chamallo w</w>
ch s</w>
ch ou
ch ers</w>
ch asseur</w>
ch assent</w>
ch assant</w>
ch as
chas se-neige</w>
ch ants</w>
cer tifi
cer ise</w>
cer cles</w>
cep tion</w>
cen tral</w>
cen drier</w>
cen dr
cellu les</w>
cel le-ci</w>
cas qués</w>
cas iers</w>
cas cad
cascad eur</w>
cari tatif</w>
cari ole</w>
cardia que</w>
car rées</w>
car rée</w>
car digan</w>
car af
caraf es</w>
car a
cara bine</w>
capu chon</w>
cap ti
canap és</w>
can ots</w>
camé scope</w>
cami on-
cameram en</w>
cam pus</w>
cal ot</w>
cail lou
cai ssier</w>
cad ère</w>
cad et</w>
cad en
caban on</w>
ca t</w>
ca pable</w>
ca jol
ca chée</w>
ca c
cac tus</w>
c y</w>
c rient</w>
c o</w>
c ens</w>
c elles</w>
bûcher on</w>
bû ches</w>
bé cher</w>
bus tier</w>
bus tes</w>
burq a</w>
buri n</w>
bur n</w>
bur ger</w>
bul l</w>
bul aire</w>
buff le</w>
bu tte</w>
bu te</w>
bu rritos</w>
bu ilder</w>
bu an
buan derie</w>
brû le</w>
brum euse</w>
bru n
broussail leuse</w>
brou ettes</w>
bronz ée</w>
broch é</w>
broch ures</w>
bro yeuse</w>
bro colis</w>
brin d
bri ser</w>
bri sant</w>
bri de</w>
bret zels</w>
break dan
bre ak</w>
brass ard</w>
bran dir</w>
bran card</w>
bracel ets</w>
bra quant</w>
bra derie</w>
br ésili
br euvage</w>
boî tier</w>
boy -s
box ent</w>
bour se</w>
bour ge
bouque tière</w>
boulan ger</w>
bouddhi ste</w>
boucli ers</w>
bou ées</w>
bou villon</w>
bou clé</w>
bou chons</w>
bou ches</w>
bou chant</w>
bot teur</w>
bor dées</w>
bor de</w>
bon dissent</w>
boi sseau</w>
boi ent</w>
boar ds</w>
boar deurs</w>
boar der</w>
bo sses</w>
bo r</w>
bo cal</w>
bo bine</w>
bo b
bob sleigh</w>
blot tissant</w>
blot ti
blo quée</w>
blo quant</w>
bleu e-verte</w>
blessu res</w>
bl ocks</w>
bl oc-notes</w>
bl indé</w>
bizar res</w>
bizar rement</w>
bin ette</w>
bi ste</w>
bi scuits</w>
bi entôt</w>
bi ens</w>
bi dons</w>
bi don</w>
bi ber
bi b
bib elots</w>
bes ace</w>
bermu das</w>
ber ry</w>
ber line</w>
ber ce</w>
be illes</w>
be ffroi</w>
bavar dant</w>
bati ment</w>
bat tes</w>
bat eur</w>
bat es</w>
barbi er</w>
bandan as</w>
ban dage</w>
ban d</w>
bam bins</w>
balus trades</w>
bala yent</w>
bala dent</w>
bala dant</w>
bai ssé</w>
bai gné</w>
bai gnant</w>
bad ges</w>
ba zar</w>
ba te</w>
ba quet</w>
ba g</w>
ba b
b œuf</w>
b er</w>
b bon</w>
b asi
basi que</w>
b ap
bap ti
avi s</w>
avi d</w>
aver tisseur</w>
aven tureux</w>
auto collant</w>
audi tion</w>
audi o</w>
au- Mexique</w>
au tel</w>
au jourd</w>
au bes</w>
attra pent</w>
atti rantes</w>
atti rail</w>
atten tifs</w>
atten d
attabl és</w>
atta quer</w>
atta que</w>
atta quant</w>
att elle</w>
att eignant</w>
assistan ts</w>
assi stent</w>
asper gés</w>
asper ger</w>
as y</w>
as sure</w>
as sou
as sortie</w>
as sez</w>
as semblent</w>
as s</w>
as pire</w>
as car</w>
arti cle</w>
arrê tées</w>
arrê ter</w>
arros és</w>
arros oir</w>
arros eurs</w>
arro ser</w>
arri vé</w>
arri ver</w>
argen tées</w>
ar térielle</w>
ar te</w>
ar on</w>
ar mées</w>
ar mures</w>
ar den</w>
ar cs</w>
ar chitectur
ar ches</w>
ar buste</w>
appréci er</w>
applau di</w>
appel ée</w>
apparai ssant</w>
ap puie</w>
ap prochés</w>
ap prochent</w>
ap prendre</w>
ap portent</w>
ap pelle</w>
anti- incendie</w>
ang oi
anci ens</w>
an taine</w>
an orak</w>
an kees</w>
an g</w>
an anas</w>
amphi théâtre</w>
ambul ance</w>
amar rés</w>
am sung</w>
am pu
am poules</w>
am our</w>
am es</w>
am bré</w>
am ateur</w>
am as</w>
alpin isme</w>
allu més</w>
allong ent</w>
align ée</w>
align er</w>
ali tés</w>
ali ment</w>
al vin</w>
al timore</w>
al coolisées</w>
ak land</w>
ak er</w>
ak dance</w>
ajus tent</w>
ajou te</w>
ajou tant</w>
ail lant</w>
ai mons</w>
ai ment</w>
ai guilles</w>
ai grette</w>
ai gnée</w>
ai dée</w>
agri coles</w>
agres sivement</w>
agi té</w>
agi ssant</w>
agenou illées</w>
affron tent</w>
affron te</w>
affi chent</w>
affe ction</w>
af ro</w>
admi rer</w>
admi ration</w>
ad way</w>
ad ministra
ad illac</w>
acrob atique</w>
acro bate</w>
ack son</w>
ach et
accroupi es</w>
accompli ssent</w>
accompli r</w>
acciden tée</w>
access oire</w>
acce ptant</w>
ac cou
ac cordé
abor de</w>
ab st</w>
ab oie</w>
ab dos</w>
a î
a wasaki</w>
a veu
a v
a ci
a boient</w>
a battu</w>
Z une</w>
Y ankees</w>
Y M
YM C
YMC A</w>
X X
Wel come</w>
W orld</w>
W onder</w>
W heels</w>
W ee
Vi kings</w>
V ador</w>
U I
TH IN
THIN G</w>
T rans
T rader</w>
T o
T im</w>
T homas</w>
T ha
T h
T en</w>
T ank</w>
Su mmer</w>
Su d</w>
Su d-Est</w>
Sou th</w>
Sno w
Si de</w>
Sea hawks</w>
Se gway</w>
Sal ut</w>
S wiffer</w>
S un</w>
S tones</w>
S prin
S par
S pace</w>
S ol
S k
S esame</w>
S eries</w>
S crabble</w>
S coob
S an
S amsung</w>
S aint</w>
S WA
S M
Ri bbon</w>
Re gardez</w>
Ra dio</w>
R oller</w>
R odgers</w>
R enaissance</w>
R ai
R O
Qu arte</w>
Power P
PowerP oint</w>
Pow er</w>
Pen n</w>
P uma</w>
P rin
P ri
P op
P okemon</w>
P aris</w>
P ap
P an
P abst</w>
P 3</w>
P .</w>
Ore gon</w>
Ol ympiques</w>
O ut
O klahoma</w>
O ce
O R</w>
O R
Nouve l</w>
Nouve au-Mexique</w>
Ne edle</w>
NO THING</w>
Mor gan</w>
Mo hawk</w>
Min nesota</w>
Mi chigan</w>
McD o</w>
Marti ni</w>
Mar x</w>
Mar di</w>
Mac Bo
MacBo ok</w>
M us
M u
M emori
M ad
M P3</w>
M M
MM A</w>
M C</w>
Le B
LeB ron</w>
L ouvre</w>
L ong
L incoln</w>
L ife</w>
L e</w>
L a</w>
L a
L A</w>
K u
K om
K lein</w>
K ing</w>
K awasaki</w>
Joh ns</w>
Jo ker</w>
Japon aises</w>
Japon ais</w>
J us
J um
J im</w>
J ames</w>
J ackson</w>
J A
In ternet</w>
I N</w>
He ineken</w>
Har lem</w>
H us
H ulk</w>
H ouston</w>
H ouse</w>
H otel</w>
H opper</w>
H ello</w>
Gi ants</w>
G roucho</w>
G reen</w>
G re
G ras</w>
G lam
G arden</w>
G ap</w>
G R
G A
GA P</w>
Fran cisco</w>
Fran ce</w>
Fi re
Fe dex</w>
Fac tory</w>
F ish
F as
F ar
F C</w>
Ex press</w>
En rolling</w>
En gine</w>
Ei ffel</w>
ERR OR</w>
E spagne</w>
E l</w>
Dan ois</w>
D or
D oo</w>
D om
D ober
D o</w>
D erby</w>
D en
D ay</w>
D avid</w>
D ark</w>
D ame</w>
D U</w>
D I
Cy clone</w>
Co ffee</w>
Cir cus</w>
Ci ty</w>
Chev rolet</w>
Ch an
Cen tral</w>
Cen ter</w>
Cas tro</w>
Can yon</w>
Can ada</w>
Califor nie</w>
Califor nia</w>
C u
C os
C are</w>
C alvin</w>
C adillac</w>
C K
C D</w>
Bro adway</w>
Bri tish</w>
Bre akdance</w>
Bi g</w>
B usiness</w>
B ur
B résil</w>
B ron
B order</w>
B lo
B lanche</w>
B la
B ir
B ill</w>
B ar
B altimore</w>
Améric ains</w>
Al lem
Air ways</w>
Afro- américaine</w>
Afric ain</w>
A u
A n</w>
A mérindiens</w>
A TV</w>
A M</w>
A H
8 0</w>
6 3</w>
3 8</w>
3 0</w>
20 08</w>
1 4</w>
1 1</w>
0 00</w>
0 0
. com.</w>
. .</w>
. ..</w>
&apos;équi pements</w>
&apos;élè ve</w>
&apos;élan cent</w>
&apos;écou te</w>
&apos;écou lant</w>
&apos;échauff ent</w>
&apos;éch appe</w>
&apos;écar t</w>
&apos;éc rans</w>
&apos;ébrou ent</w>
&apos;ébrou ant</w>
&apos;é tran
&apos;é toile</w>
&apos;é toff
&apos;é tirent</w>
&apos;é tend</w>
&apos;é tang</w>
&apos;é tal</w>
&apos;é tage</w>
&apos;é rable</w>
&apos;é pais</w>
&apos;é corce</w>
&apos;é clairage</w>
&apos;é checs</w>
&apos;â ne</w>
&apos;or gue</w>
&apos;op pose</w>
&apos;occu per</w>
&apos;occu pant</w>
&apos;inter section</w>
&apos;inter roge</w>
&apos;in stant</w>
&apos;in formations</w>
&apos;in fir
&apos;in croyable</w>
&apos;in clinent</w>
&apos;hu i</w>
&apos;exerci ces</w>
&apos;exci tation</w>
&apos;exam iner</w>
&apos;ex trême</w>
&apos;ex hi
&apos;ex ception</w>
&apos;es t-ce</w>
&apos;entre prise</w>
&apos;entre jambe</w>
&apos;ensei gne</w>
&apos;enla çant</w>
&apos;enla cer</w>
&apos;en voi</w>
&apos;en tou
&apos;en tendent</w>
&apos;en nuyer</w>
&apos;en lever</w>
&apos;en gin</w>
&apos;en gagement</w>
&apos;en dormant</w>
&apos;en cre</w>
&apos;en cens</w>
&apos;en ceinte</w>
&apos;em pêcher</w>
&apos;em pare</w>
&apos;em ballage</w>
&apos;aven ture</w>
&apos;avan tage</w>
&apos;au vent</w>
&apos;au tobus</w>
&apos;au rai</w>
&apos;attra ction</w>
&apos;asse oir</w>
&apos;ascen sion</w>
&apos;as tronaute</w>
&apos;as per
&apos;ar genterie</w>
&apos;ar chitecture</w>
&apos;ar che</w>
&apos;ar bustes</w>
&apos;ar aignée</w>
&apos;appar tement</w>
&apos;ap prochant</w>
&apos;ap pliquant</w>
&apos;an née</w>
&apos;an neau</w>
&apos;an gle</w>
&apos;an ci
&apos;an anas</w>
&apos;am our</w>
&apos;al uminium</w>
&apos;al pha
&apos;al ligator</w>
&apos;al cools</w>
&apos;agili té</w>
&apos;ad os</w>
&apos;acc rocher</w>
&apos;ac tion</w>
&apos;ac compagne</w>
&apos;a venir</w>
&apos;a près-midi</w>
&apos;a i</w>
&apos;U ltimate</w>
&apos;U S</w>
&apos;U FC</w>
&apos;O bama</w>
&apos;I owa</w>
&apos;E urope</w>
&apos;Ar mée</w>
&apos;A n
&apos;A merican</w>
&apos; éléphant</w>
&apos; uniforme</w>
&apos; outil</w>
&apos; ornements</w>
&apos; ont</w>
&apos; observent</w>
&apos; observation</w>
&apos; imprimé</w>
&apos; immeubles</w>
&apos; idiot</w>
&apos; hôtesse</w>
&apos; hélicoptère</w>
&apos; hippodrome</w>
&apos; herbes</w>
&apos; habits</w>
&apos; habiller</w>
&apos; habille</w>
&apos; eux-mêmes</w>
&apos; essuie</w>
&apos; espace</w>
&apos; ef
&apos; athlète</w>
&apos; at
&apos; arrière-
&apos; aliments</w>
&apos; aire</w>
&apos; aidant</w>
&apos; agite</w>
&apos; agi
&apos; agents</w>
&apos; age</w>
&apos; adolescentes</w>
