#version: 0.2
i n
in g</w>
t h
a n
a n</w>
i n</w>
a r
i t
r e
m an</w>
o u
th e</w>
o n</w>
e r</w>
i s</w>
s t
l e</w>
an d</w>
l a
a l
h i
r o
e r
o f</w>
w o
w it
wit h</w>
l o
a t
e s</w>
a c
d o
h o
a t</w>
d ing</w>
m e
ou n
p e
b o
k ing</w>
t o</w>
t w
wo man</w>
s i
g r
tw o</w>
ar e</w>
r i
o n
p le</w>
i r
p la
e d</w>
w e
o r
c k</w>
e l
w al
pe o
peo ple</w>
e n
e t</w>
t ing</w>
me n</w>
w h
ar ing</w>
s hi
pla y
u n
shi r
i c
al l</w>
re d</w>
we aring</w>
c o
a s
w n</w>
g e</w>
b l
shir t</w>
it e</w>
u r
y oun
b e
t s</w>
s it
youn g</w>
wh ite</w>
st an
c h
g ir
d s</w>
i l
l e
t o
p o
si d
b la
f ro
u e</w>
t a
w hi
bla ck</w>
i r</w>
f o
h is</w>
w at
whi le</w>
d re
er s</w>
l i
n e
bl ue</w>
hi l
th er</w>
lo o
h a
n t</w>
s o
e n</w>
u m
bo y</w>
sit ting</w>
a r</w>
gir l</w>
do g</w>
r a
s s
k s</w>
c hil
ou t
st re
ho l
stan ding</w>
play ing</w>
gr ou
b u
grou p</w>
b all</w>
sid e</w>
b y</w>
f i
oun d</w>
a m
stre et</w>
ac k
on e</w>
do wn</w>
th e
p er
wal king</w>
s m
re e</w>
s ho
h er</w>
s e
a l</w>
fro nt</w>
o ther</w>
s s</w>
t i
g h
c h</w>
hol ding</w>
d i
w a
o l
r u
wat er</w>
m a
d er</w>
f or
k e</w>
u p</w>
p ar
y ing</w>
wo r
g h</w>
th ree</w>
v er
g s</w>
g re
p ing</w>
s k
s e</w>
r un
s h
t le</w>
wo men</w>
s t</w>
a s</w>
c ar
n o
a d
lo w</w>
j um
c ro
b i
ar d</w>
l it
loo king</w>
gre en</w>
l ar
r ou
g u
lit tle</w>
b ro
v er</w>
o t
g e
fo r</w>
chil d</w>
c e</w>
a p
wal k</w>
ou t</w>
v e</w>
ac h</w>
t e
p ho
lar ge</w>
out side</w>
m e</w>
f e
gr ound</w>
i t</w>
po s
a d</w>
rou gh</w>
s on</w>
r ac
c on
th rough</w>
s no
a ir</w>
y el
u l
yel low</w>
l s</w>
s u
bro wn</w>
per son</w>
dre n</w>
chil dren</w>
b a
y c
n ing</w>
l y</w>
lo n
fro m</w>
st a
the ir</w>
gh t</w>
dre ss
v e
h at</w>
b ack
y s</w>
d e
bu il
in to</w>
p s</w>
sm all</w>
h in
h e
d y</w>
s c
x t</w>
ne xt</w>
th ing</w>
cro w
b le</w>
in k</w>
dress ed</w>
a y</w>
g la
q u
gr as
k e
t ur
o ver</w>
so me</w>
j ack
v ing</w>
p u
buil ding</w>
pho n
for m
b ri
c lo
b as
o f
run ning</w>
l ing</w>
s w
ri ding</w>
el d</w>
p ic
ne ar</w>
ar ound</w>
ss es</w>
an ge</w>
an other</w>
jack et</w>
p a
h an
sid e
c ou
t ra
g a
i d
so me
o d</w>
be ach</w>
side walk</w>
o r</w>
fi eld</w>
ta ble</w>
t al
t er</w>
it y</w>
or ange</w>
gla sses</w>
g ing</w>
crow d</w>
ma le</w>
r ying</w>
phon e</w>
c am
p i
wa y</w>
p ink</w>
jum ping</w>
hin d</w>
stan ds</w>
a pos
& apos
k i
j e
an s</w>
sit s</w>
co m
be hind</w>
sk at
st ru
sho r
tur e</w>
to p</w>
f ac
d ed</w>
c a
back ground</w>
s p
sno w</w>
wat ch
sm il
gras s</w>
ac k</w>
st and</w>
m o
ha ir</w>
bi ke</w>
d an
&apos ;
gir ls</w>
on g</w>
yc le</w>
s ur
t ting</w>
m ar
it s</w>
c ity</w>
oun ta
re a
&apos; s</w>
me nt</w>
t en
bo ard</w>
at i
si an</w>
g o
ou r</w>
b ic
play er</w>
m u
b en
wal l</w>
loo ks</w>
s un
o l</w>
cam er
c er</w>
so c
pla y</w>
ic e</w>
am e</w>
d r
do gs</w>
d e</w>
v es</w>
ver al</w>
s ing</w>
se veral</w>
v i
per form
i m
th at</w>
pe d</w>
in e</w>
gu it
dre ss</w>
f our</w>
ol der</w>
c li
ar e
w ing</w>
er e</w>
of f</w>
camer a</w>
at ing</w>
t e</w>
c e
par k</w>
p an
tal king</w>
al ong</w>
m b
co lo
p as
ti on</w>
ro o
m id
soc cer</w>
t ri
some thing</w>
b lon
f u
k et</w>
w in
la dy</w>
l es</w>
wal ks</w>
bo ys</w>
ro ad</w>
h el
ol d</w>
p re
wor king</w>
ho r
wor k
to ge
toge ther</w>
n i
guit ar</w>
c u
s pe
roo m</w>
ch e
un i
fo od</w>
smil ing</w>
b al
st ri
ir t</w>
ha s</w>
g ame</w>
c ar</w>
play s</w>
pic ture</w>
gr ay</w>
f lo
d er
p ro
m ounta
an t</w>
l l
k es</w>
sno w
h and</w>
d le</w>
su it</w>
for m</w>
j o
s in
skat e
ben ch</w>
A sian</w>
fac e</w>
s y</w>
wo o
si g
s a
hol ds</w>
bo ar
p e</w>
at s</w>
he ad</w>
sta ge</w>
si t</w>
stru c
a f
pan ts</w>
pa in
t y</w>
p ur
hi m</w>
st i
shor ts</w>
fu l</w>
s h</w>
s we
car rying</w>
d ar
cou ple</w>
rac e</w>
ba by</w>
the m</w>
ati on</w>
out do
t ree</w>
um b
bic ycle</w>
m an
bo o
ta king</w>
t re
t ed</w>
or s</w>
st o
bo at</w>
b ack</w>
qu ot
quot ;</w>
e ach</w>
ac ro
& quot;</w>
po ol</w>
sw im
ro ck</w>
a u
d ay</w>
sh ing</w>
s es</w>
dan c
cli mb
v en
le e
do ing</w>
m ic
e x
s el
watch ing</w>
mic ro
ir e</w>
d en</w>
le a
acro ss</w>
f la
d irt</w>
th ere</w>
c ks</w>
a m</w>
c or
are a</w>
t r
je ans</w>
t er
f ri
st s</w>
fo ot
l an
b e</w>
gu y</w>
en ce</w>
st or
bas e
out h</w>
s ha
blon d</w>
d es</w>
l ed</w>
han ds</w>
el e
b and</w>
t -
perform ing</w>
hel me
co at</w>
jum ps</w>
h e</w>
d ge</w>
base ball</w>
it ing</w>
c k
c i
be ing</w>
t u
to w
fe male</w>
mu si
in gs</w>
w s</w>
t rac
m ot
l ine</w>
e ating</w>
wh o</w>
foot ball</w>
st e
man y</w>
u sing</w>
swe at
stri ped</w>
m s</w>
t ball</w>
m outh</w>
ur ing</w>
un der</w>
p at
pur ple</w>
mot or
hor se</w>
a b
sig n</w>
wat ch</w>
mounta in</w>
ir s</w>
c at
lon g</w>
ki ds</w>
g i
colo r
d -
stor e</w>
ad ul
bas ke
win do
s and</w>
n er</w>
m ing</w>
i red</w>
s lee
con struc
th is</w>
loo k</w>
ch air</w>
th ro
g er</w>
dar k</w>
run s</w>
pos ing</w>
play ers</w>
p ping</w>
ha ired</w>
ar s</w>
sun glasses</w>
i l</w>
d ri
h u
ve red</w>
t ic
tre es</w>
fo re
en jo
o b
co vered</w>
wor k</w>
ten n
construc tion</w>
at e</w>
tenn is</w>
micro phone</w>
rea ding</w>
p p
m p
clo thing</w>
ch ing</w>
bo t
mid dle</w>
d uring</w>
c an
ar ds</w>
s er
li ght</w>
flo w
ap er</w>
ce an</w>
st u
motor c
work ers</w>
sur f
s li
m er
baske tball</w>
uni form</w>
o cean</w>
danc ing</w>
l u
on s</w>
g g
to y</w>
sta ur
watch es</w>
re staur
it ch
der ly</w>
climb ing</w>
a ga
shir ts</w>
t le
pas t</w>
in s</w>
el derly</w>
aga in
i d</w>
helme t</w>
again st</w>
tra in</w>
restaur ant</w>
re s</w>
t ru
f t</w>
c la
t- shirt</w>
s et</w>
po l
l er</w>
f ul
f loo
ac h
windo w</w>
umb re
ri des</w>
st um
woo den</w>
the y</w>
o pe
j u
c re
c ke
ab out</w>
te am</w>
le an
it i
h ou
floo r</w>
ver y</w>
outdo or</w>
swim ming</w>
d u
ba g</w>
wa iting</w>
th ers</w>
ss ing</w>
r oun
n a
je c
ha ving</w>
co l
c an</w>
bl es</w>
yc li
ta l</w>
t at
s co
co stum
n s</w>
dr in
color ful</w>
c el
a g
ge tting</w>
fi ve</w>
tru ck</w>
t rying</w>
skate board</w>
of f
hil l</w>
trac k</w>
f ence</w>
com pe
bu sy</w>
an k</w>
l l</w>
sur roun
lean ing</w>
b lo
at ed</w>
d d
bo w
ro ll
p ul
jum p</w>
b ar
sin ging</w>
cel l
boo k</w>
m at
in stru
il y</w>
l ying</w>
clo th
b r
skate boar
o ver
k ed</w>
ch es</w>
ch a
car t</w>
mar ket</w>
la ke</w>
k er</w>
in side</w>
bo dy</w>
a ge</w>
la ying</w>
pat h</w>
hi gh</w>
ri ver</w>
ri de</w>
ni ght</w>
bri ght</w>
he ad
t an</w>
pi e
pho to
k ers</w>
h ats</w>
gras sy</w>
en t</w>
ca p</w>
ma king</w>
cou r
st one</w>
m on
l in
gr ap
fi t</w>
d ra
cloth es</w>
bi g</w>
some one</w>
o thers</w>
la u
f a
u m</w>
wh e
ta kes</w>
o king</w>
ll a</w>
k itch
kitch en</w>
umbre lla</w>
colo red</w>
bu s</w>
bri ck</w>
back p
surroun ded</w>
sk i
re ad
cell phone</w>
c oun
tow ards</w>
m ac
jec t</w>
ful l</w>
pre p
out fit</w>
motorc ycle</w>
g ar
f li
e ts</w>
p aper</w>
me n
ic an</w>
e ven
enjo ying</w>
al s</w>
a bo
sho p</w>
read y</w>
vi e
v ol
ou s</w>
me tal</w>
i c</w>
re st
g ging</w>
sw ing</w>
photo grap
mac hin
hou se</w>
y ard</w>
sh e</w>
pie ce</w>
n y</w>
go ing</w>
bri dge</w>
abo ve</w>
sti c</w>
tri ck</w>
ho o
ar m</w>
sweat er</w>
su b
spe c
r ing</w>
gh t
f fe
e t
d ers</w>
cke y</w>
sti ck</w>
ope n</w>
lo t</w>
v ed</w>
t ank</w>
snow y</w>
fo l
- haired</w>
work er</w>
pain ting</w>
er ing</w>
adul ts</w>
a th
k ne
i p
f il
e p</w>
ch as
c er
c as
x ing</w>
wa ve</w>
li ke</w>
con ver
sp or
p lan
musi c</w>
m er</w>
form s</w>
blon d-
be side</w>
the red</w>
dan ce</w>
crow ded</w>
ad e</w>
ve st</w>
to dd
on to</w>
flow ers</w>
c ur
ar t</w>
sho pping</w>
fri en
uni forms</w>
po in
pho to</w>
outdo ors</w>
g en
f ire</w>
smil es</w>
ru n</w>
h ard</w>
f e</w>
b ir
at t
wat er
te en
po le</w>
o t</w>
ge ar</w>
g y
backp ack</w>
v el
s an
ro pe</w>
il ing</w>
f am
al le
gr af
f it
d en
at te
A mer
w i
s car
drin king</w>
sh es</w>
it e
f ounta
be au
ar i
todd ler</w>
sub way</w>
m p</w>
lau gh
ki d</w>
il l</w>
han ging</w>
spe a
rac ing</w>
ne w
k ic
ho ckey</w>
he a
cat ch</w>
beau ti
ar ms</w>
men ts</w>
fore st</w>
fi shing</w>
fam ily</w>
f f
costum e</w>
sho es</w>
s ed</w>
even t</w>
car ri
a way</w>
to r</w>
pol ice</w>
ou l
ga thered</w>
f in
beauti ful</w>
b an
ar y</w>
A fri
slee ping</w>
n ed</w>
in ing</w>
e y
b ar</w>
ur e</w>
tu res</w>
ta bles</w>
st er</w>
r in
graf fit
de o</w>
ap pe
u p
sta irs</w>
sc en
ro cks</w>
off ic
gu ys</w>
founta in</w>
cha irs</w>
atte mp
an ce</w>
wo od</w>
un ch</w>
snow boar
prep aring</w>
ob ject</w>
di s
be e</w>
bal lo
af ter</w>
vol le
ste ps</w>
k in
graffit i</w>
fi re
do or</w>
com pu
co w
sel ling</w>
s si
m i
gla ss</w>
c le</w>
y ball</w>
t all</w>
s qu
machin e</w>
la r</w>
c ra
whe el
volle yball</w>
ta ke</w>
st ic
st at
pla id</w>
p rac
f f</w>
e l</w>
cro ss</w>
as h
Amer ican</w>
sk y</w>
er se
e qu
j erse
di es</w>
a sian</w>
tle ss</w>
shir tless</w>
s en
m as
al es</w>
t ou
stan ce</w>
s bee</w>
par ade</w>
as t</w>
adul t</w>
vie w</w>
ti me</w>
thro wing</w>
sun ny</w>
si l
p or
mounta ins</w>
c le
ycli st</w>
yc les</w>
t ro
se tting</w>
o p
f ru
do es</w>
cor ner</w>
tw e
pu tting</w>
po se</w>
phon es</w>
g et</w>
dr um
as h</w>
ag ed</w>
Afri can</w>
re c
pu shing</w>
pu bl
li st
gen tle
c ket</w>
twe en</w>
publ ic</w>
on al</w>
equ ip
be tween</w>
scar f</w>
ra mp</w>
ha ve</w>
c al</w>
b ed</w>
woo ds</w>
tr y</w>
shor t</w>
n umb
er y</w>
dr ink</w>
c lu
a y
ve hi
su n</w>
sli de</w>
rea ds</w>
pla stic</w>
m ul
m ales</w>
lin ed</w>
fi sh</w>
d ings</w>
bot h</w>
b rea
wor ks</w>
ven do
sh oul
roll er</w>
r y</w>
pic tures</w>
p ped</w>
le -
g lo
fla g</w>
equip ment</w>
cou ch</w>
sk irt</w>
s k</w>
pro te
pos es</w>
par ty</w>
p es</w>
laugh ing</w>
la dies</w>
e mp
con cre
compu ter</w>
win ter</w>
un der
stat ue</w>
ro w</w>
li gh
instru ments</w>
fo ot</w>
concre te</w>
wh ere</w>
sweat shirt</w>
su its</w>
pp y</w>
compe t
c king</w>
buil dings</w>
bi kes</w>
al ly</w>
whi ch</w>
tra il</w>
i m</w>
e se</w>
di stance</w>
cow boy</w>
v al</w>
ra i
be ard</w>
ve ge
te am
ro ck
ri der</w>
play ground</w>
gg les</w>
bo r
ycli sts</w>
tow ard</w>
st ing</w>
mid air</w>
m in
list en
ju st</w>
ci g
an im
a ir
se ated</w>
ri ght</w>
pla ce</w>
numb er</w>
di um</w>
d le-
c ing</w>
c es</w>
ap s</w>
wh at</w>
tat to
sc ho
ra in</w>
prac tic
ne ar
han d
g ol
do ck</w>
co oking</w>
ba gs</w>
w r
v ari
sh e
sco pe</w>
sc u
sc re
r on</w>
m il
di an</w>
cro ssing</w>
car s</w>
ve l</w>
pla t
musi ci
fil led</w>
f lying</w>
at h</w>
w rest
st r
si x</w>
s or
p on
mid dle-
me d</w>
m other</w>
lea ves</w>
instru ment</w>
hor ses</w>
f en
c l
be er</w>
att ire</w>
appe ars</w>
ve sts</w>
ten t</w>
tat ors</w>
t h</w>
rock y</w>
pre par
ma ke</w>
le ft</w>
cu tting</w>
compet iti
cli ff</w>
be ar
ar ts</w>
spec tators</w>
sho wing</w>
sho w</w>
pul ling</w>
new sp
fe w</w>
dar k
cer t</w>
blond- hair</w>
ach ing</w>
par ked</w>
pain ted</w>
near by</w>
n et</w>
middle- aged</w>
kne el
h ar
g o</w>
frien ds</w>
flow er</w>
bl an
F ri
v en</w>
st ation</w>
skateboar der</w>
sho t</w>
san d
lon g
le c
jerse y</w>
ele c
e dge</w>
dress es</w>
d ding</w>
cour t</w>
cig are
cigare t
carri es</w>
ap ron</w>
Fri sbee</w>
so l
snowboar der</w>
sm i
shor e</w>
rea m</w>
perform s</w>
m ers</w>
g ers</w>
fru it</w>
dri ving</w>
cro ss
bear ded</w>
w n
ti al</w>
struc ture</w>
scho ol</w>
re la
p ad
fi gh
c ream</w>
bu b
bo x</w>
ba thing</w>
smi le</w>
per form</w>
par king</w>
con cert</w>
com ing</w>
c al
bow ling</w>
we t</w>
vendo r</w>
li t</w>
ho me</w>
gr ill</w>
c ho
bi kin
ath le
I n
vari ous</w>
t ele
surf er</w>
ni c</w>
m ir
in ging</w>
h al
drum s</w>
ch ed</w>
ca ke</w>
c up</w>
bu t
boo ts</w>
bir d</w>
ar ti
youn ger</w>
vehi cle</w>
u ses</w>
sm oking</w>
pain t</w>
mar tial</w>
in ter
go ggles</w>
fla gs</w>
f all</w>
emp ty</w>
b ru
scen e</w>
ro deo</w>
p le
ga z
ey es</w>
competiti on</w>
cigaret te</w>
c r
at es</w>
practic ing</w>
on loo
m sel
listen ing</w>
l ling</w>
hi t</w>
ght ly</w>
gentle man</w>
di v
den ts</w>
cl ou
ce ment</w>
bu cket</w>
au di
ti ve</w>
tal ks</w>
sw inging</w>
stu dents</w>
st ra
skat ing</w>
s pla
re ad</w>
prepar es</w>
kic king</w>
gy m
g es</w>
ffe e</w>
e -
costum es</w>
co ffee</w>
cas e</w>
bot tle</w>
wa ves</w>
vi ol
sco ot
sa fe
safe ty</w>
ro of</w>
re nt</w>
newsp aper</w>
la p
jack ets</w>
i e</w>
di rec
di ffe
d iti
d der</w>
conver s
b an</w>
alle y</w>
st aring</w>
skateboar ding</w>
re d-
onloo kers</w>
n o</w>
mil it
la dder</w>
ite ms</w>
f al
et te</w>
diffe rent</w>
convers ation</w>
compe ting</w>
audi ence</w>
ac ks</w>
z ed</w>
wa it</w>
sun set</w>
ra iling</w>
milit ary</w>
me mb
i al</w>
h er
ga ther</w>
g ro
fac ing</w>
coun try</w>
cla ss</w>
bu ll</w>
bi ker</w>
b unch</w>
ay a
ap e</w>
tri es</w>
ti e</w>
spor ts</w>
sp ra
sli ding</w>
ski er</w>
sig ns</w>
s po
hol d</w>
ho t</w>
glo ves</w>
gi ving</w>
ge ts</w>
drin ks</w>
c leaning</w>
blan ket</w>
bikin i</w>
bic ycles</w>
wal k
w ash
sto p</w>
roll er
poin ting</w>
pe t</w>
mat ch</w>
la wn</w>
k aya
for e</w>
fe et</w>
de sk</w>
d in
chas ing</w>
c rou
c ir
bow l</w>
be fore</w>
vege tables</w>
v y</w>
ul p
team s</w>
stre ets</w>
sor t</w>
plan e</w>
pi le</w>
ob ser
me al</w>
le aps</w>
f re
div id
ballo on</w>
walk way</w>
w ra
ur al</w>
th ering</w>
t y
t or
sc ulp
ri st
plat form</w>
photograp h
ne l</w>
ma de</w>
ligh ts</w>
in divid
individ u
ga thering</w>
dis play</w>
d o</w>
cla ss
c en
surf ing</w>
stre t
st ro
sin e
pas s</w>
mas k</w>
hu ge</w>
ho le</w>
e i
bri de</w>
ath on</w>
z z
we dding</w>
t ly</w>
surf board</w>
stic ks</w>
spea king</w>
sol di
se en</w>
mar athon</w>
ha ppy</w>
ha m
cu t</w>
class room</w>
b are
In dian</w>
w er</w>
thro w</w>
sil ver</w>
scre en</w>
pro du
o p</w>
o lo
mir ro
ma s</w>
ki ssing</w>
helme ts</w>
g old</w>
figh ting</w>
cu sto
coun ter</w>
climb s</w>
ca u
bu sine
bas ket</w>
b el
anim al</w>
we l
ur ban</w>
tra diti
swe e
sta ir
sm o
sk i</w>
sin gs</w>
pur se</w>
musici ans</w>
l y
k en</w>
elec tri
wa its</w>
traditi onal</w>
to wn</w>
tal k</w>
t run
ski ing</w>
s ite</w>
s ame</w>
run ner</w>
dr y</w>
de ser
de cor
d ro
d ir
can o
brea k</w>
t un
t on</w>
t ers</w>
st roller</w>
st ac
se e
scoot er</w>
over looking</w>
le gs</w>
di ving</w>
d les</w>
C hin
viol in</w>
st y
so f
rest ing</w>
ra il</w>
p il
la p</w>
fe males</w>
fa ther</w>
f its</w>
el y</w>
cour se</w>
bo x
blo wing</w>
b run
attemp ting</w>
we ar</w>
shoul der</w>
rist mas</w>
out fits</w>
n e</w>
mirro r</w>
lee p</w>
kneel ing</w>
che er
c hi
b b
as leep</w>
arti st</w>
wr iting</w>
wa ving</w>
tic olo
t ation</w>
st un
skat e</w>
par tic
offic er</w>
mul ticolo
l la
i g
head phones</w>
fi c</w>
fac es</w>
en d</w>
ele br
ch ur
c elebr
brun ette</w>
blond- haired</w>
bal d</w>
b at
al low</w>
ach es</w>
t es</w>
sa ys</w>
o per
ful ly</w>
ex am
do or
di scu
di e</w>
busine ss</w>
bub bles</w>
bl e
ballo ons</w>
bal an
at ten
ver ti
t on
sw ings</w>
sw im</w>
st ar
spe n
sh ed</w>
se ment</w>
sc ape</w>
s lo
ra in
m at</w>
li es</w>
le g</w>
la un
in es</w>
il s</w>
g le</w>
electri c</w>
clo se</w>
c ed</w>
bas e</w>
b at</w>
al one</w>
ad verti
v an</w>
teen age</w>
s n
pre sen
pla te</w>
ma kes</w>
lon e</w>
li fe</w>
gy m</w>
gr a
fore ground</w>
er man</w>
danc ers</w>
col lar</w>
chur ch</w>
bri ghtly</w>
bal ls</w>
am ong</w>
we ars</w>
v ice</w>
umbre lla
umbrella s</w>
um p
tra f
traf fic</w>
to ys</w>
ssi on</w>
sh allow</w>
pas sing</w>
p rin
ou se</w>
n ers</w>
mu d</w>
me at</w>
lea ther</w>
le ans</w>
lan d
ic al</w>
hi king</w>
hel ping</w>
gro cer
gi ant</w>
fi xing</w>
dir ty</w>
com ple
co o
clo wn</w>
bare foot</w>
wash ing</w>
ver ing</w>
sta dium</w>
sand als</w>
p itch
p air</w>
offic ers</w>
off ice</w>
multicolo red</w>
ke y</w>
ho od</w>
g ed</w>
frien d</w>
fol ding</w>
fal ling</w>
enjo y</w>
e ar
door way</w>
deser t</w>
clo th</w>
c y</w>
be low</w>
b ur
ati ve</w>
ac e</w>
C h
wi th
w ard</w>
sho vel
par t
pa ved</w>
ot h</w>
musi cal</w>
m b</w>
li f
le ash</w>
ki ck</w>
hea ds</w>
h ur
h eld</w>
go al</w>
fin i
de ep</w>
dark -haired</w>
tatto o</w>
ta in
re f
pic king</w>
pi er</w>
photograp her</w>
perform ance</w>
mo ving</w>
ma ke
l and</w>
ho se</w>
hi gh
gol f</w>
c tion</w>
ach ed</w>
y o
whe el</w>
vi deo</w>
tur n</w>
to ps</w>
stun t</w>
sin ger</w>
s led</w>
re aching</w>
p ou
p ati
ne w</w>
lap top</w>
hoo die</w>
gh ter</w>
gar den</w>
fol lo
fli p</w>
fli es</w>
f lu
d au
cor di
cano e</w>
ac cordi
we ll</w>
w ards</w>
tun nel</w>
thro ws</w>
te et
teet h</w>
t ack
su spen
sp rin
ru m</w>
ro lling</w>
ref lec
ra il
pe de
pede stri
o ri
mo ve</w>
memb ers</w>
m po
lea ping</w>
in spec
in clu
ha k
h ere</w>
gi ves</w>
fu n</w>
f ra
dra wing</w>
di gging</w>
d rum</w>
conver sing</w>
co ats</w>
cat ching</w>
ca fe</w>
blo ck</w>
accordi on</w>
water fall</w>
w ar
tri cks</w>
tatto o
t ire</w>
swee ping</w>
sho ws</w>
sho vel</w>
sculp ture</w>
rela xing</w>
prote c
photograp h</w>
k hak
k ar
in f
hu gging</w>
en ter
el s</w>
e at</w>
do ors</w>
d un
cli mb</w>
che f</w>
c at</w>
br an
bic yclist</w>
at op</w>
Ch ristmas</w>
wrest ling</w>
we a
up side</w>
tou ri
stu ff
stu d
spe e
sc af
pro fe
prep are</w>
plan ts</w>
pas ses</w>
mo to
micro scope</w>
lo cal</w>
la b</w>
jum p
ir d</w>
ho w</w>
ha ir
g ate</w>
fe sti
d dle</w>
col d</w>
clo sed</w>
cat ches</w>
bl y</w>
be i
ba th
b es</w>
vel y</w>
under ne
underne ath</w>
trun ks</w>
tr an
sty le</w>
stre am</w>
slee ps</w>
shoul ders</w>
se at</w>
sc a
r ound</w>
par t</w>
p l
op posing</w>
o pp
ni val</w>
ne ck</w>
m y</w>
m ural</w>
long -
lo ts</w>
l ers</w>
kar ate</w>
id e</w>
i ma
ga ge</w>
g ue</w>
dau ghter</w>
car nival</w>
c yclist</w>
bo w</w>
bei ge</w>
bal con
b oun
ap pro
Chin ese</w>
with out</w>
we t
wat ers</w>
the se</w>
tele scope</w>
spla shing</w>
si on</w>
sho o
r s</w>
pro ject</w>
pon d</w>
poin ts</w>
perform er</w>
o ds</w>
ma gaz
land scape</w>
l ls</w>
l en
jo gging</w>
individu als</w>
in ten
ig n</w>
gu n</w>
gg ling</w>
form al</w>
danc es</w>
custo mers</w>
cle ar</w>
can e</w>
c ri
bic yclists</w>
ap p
a i
tra mpo
trampo line</w>
stuff ed</w>
sho e</w>
s o</w>
run ners</w>
ri ed</w>
re st</w>
re n
r ack
produ ce</w>
pas sen
p in
l oun
ic e
hi ker</w>
fi ght</w>
f ly</w>
f alle
falle n</w>
en ts</w>
dri ver</w>
dan cer</w>
cross walk</w>
clou dy</w>
ch al
c yclists</w>
c rying</w>
bot to
bo oth</w>
bal l
b un
an t
al ls</w>
&apos ;</w>
woo ded</w>
we i
ti ons</w>
the msel
themsel ves</w>
th ird</w>
ta ken</w>
t ted</w>
sur face</w>
stra w</w>
squ are</w>
sk in
san dy</w>
pul led</w>
pic nic</w>
pad d
ne ss</w>
mat ching</w>
make up</w>
m or
lo g</w>
la ys</w>
l unch</w>
inf ant</w>
inclu ding</w>
in fla
i on</w>
i es</w>
hoo p</w>
gym na
go es</w>
ex c
din ner</w>
cir cle</w>
bo ats</w>
b s</w>
attemp ts</w>
ad ers</w>
x o
windo ws</w>
w ed</w>
ul a</w>
trac ks</w>
tr ash</w>
ti c</w>
stair case</w>
se wing</w>
s um
re ce
rack et</w>
pitch er</w>
pedestri ans</w>
p al
no se</w>
long- slee
le aders</w>
hel p</w>
ham mer</w>
de ck</w>
co vering</w>
cen ter</w>
boo ks</w>
balcon y</w>
at ure</w>
N e
wra pped</w>
tu b</w>
teen ag
teenag ers</w>
spea ks</w>
sof tball</w>
slo pe</w>
se ven</w>
s y
q ue</w>
pul ls</w>
pu shes</w>
profe ssi
por ch</w>
part ment</w>
pal m</w>
ol s</w>
n ast</w>
msel f</w>
mar ching</w>
m ate</w>
li ft</w>
le dge</w>
l ic
in door</w>
hi mself</w>
hi kers</w>
grocer y</w>
g on</w>
g gage</w>
festi val</w>
f ur
f ar
do wn
de vice</w>
co w</w>
cheer leaders</w>
chas es</w>
box es</w>
bl ouse</w>
bir ds</w>
bar re
athle te</w>
a ger</w>
to we
ste ep</w>
st on
sprin k
sk is</w>
sha king</w>
sa xo
sa w</w>
re pa
re d
pu ts</w>
pol ice
p it</w>
opp on
ope ning</w>
no t</w>
na p</w>
mul ti
me d
kin d</w>
ke y
it al</w>
hea vy</w>
gym nast</w>
gr in
fore ign</w>
f ts</w>
en tal</w>
e ar</w>
dri ves</w>
bru sh</w>
be ver
at ting</w>
ar row</w>
wet suit</w>
ve ment</w>
ty pe</w>
teen ager</w>
t in
t il
swim s</w>
st ers</w>
st er
shi p</w>
sha ving</w>
se e</w>
ro be</w>
pu ddle</w>
over alls</w>
mo ves</w>
ke t
kaya k</w>
j am
ir ts</w>
il l
ha pp
gr il
fe e
e mer
e k</w>
cur b</w>
con es</w>
color s</w>
clu b</w>
ben t</w>
a do
A T
z ing</w>
y -
wheel chair</w>
v ers</w>
th s</w>
ter y</w>
t ar
st le</w>
shoo ting</w>
she et</w>
se ction</w>
se a</w>
ro bes</w>
ri ders</w>
red- hair</w>
re cor
re aches</w>
ra ft</w>
pou ring</w>
pos ite</w>
po t</w>
po les</w>
pi an
padd ling</w>
op posite</w>
n ice</w>
n a</w>
motorc ycles</w>
lu ggage</w>
lea ding</w>
kic ks</w>
je an</w>
it ting</w>
head ed</w>
han gs</w>
go al
gentle men</w>
g un
g by</w>
fin gers</w>
fa bri
even ing</w>
enjo ys</w>
en a</w>
e y</w>
e g
ck ed</w>
che cking</w>
ch an
bro wn
blo cks</w>
bar ri
bar be
b ank</w>
att ached</w>
am p
air plane</w>
u se</w>
tor y</w>
t um
st ring</w>
st ed</w>
soldi ers</w>
soldi er</w>
sk irts</w>
shovel ing</w>
sha do
sel f</w>
sc i
sa le</w>
s wor
s par
ru gby</w>
red- haired</w>
re fe
rail road</w>
ra l</w>
protec tive</w>
por t</w>
po ster</w>
po dium</w>
pian o</w>
pa jam
m ound</w>
lo a
li ving</w>
laun dry</w>
lau gh</w>
khak i</w>
k n
it ed</w>
ima ge</w>
hur dle</w>
gu ard</w>
ght ers</w>
gar b</w>
fabri c</w>
fa shi
f un
f ast</w>
f air</w>
ei ther</w>
do n
di o</w>
den im</w>
d el
d dy</w>
com pan
clo se
ch er</w>
c ap
brown -haired</w>
ar ena</w>
ap ers</w>
al i
wal ls</w>
w ic
tu be</w>
trac tor</w>
sto ol</w>
ste p</w>
sca la
roller bla
pu t</w>
pi pe</w>
pa vement</w>
ou r
ou fla
oufla ge</w>
ori ental</w>
or k</w>
ne ck
kne e</w>
ju ggling</w>
jerse ys</w>
infla table</w>
hor se
ho me
happ ily</w>
h ula</w>
gol den</w>
goal ie</w>
g room</w>
fra me</w>
flo ating</w>
fi g
f light</w>
f ans</w>
ey e</w>
e scala
e ats</w>
co b
cle an</w>
chas e</w>
ch ar
cas u
cam ouflage</w>
c les</w>
botto m</w>
bi t</w>
ban dan
balan cing</w>
back yard</w>
b read</w>
ag es</w>
J ap
z a</w>
we red</w>
w ine</w>
w il
un ic
tra vel
ton gue</w>
ta il</w>
t yard</w>
stret ched</w>
ster n</w>
spor t</w>
soc ks</w>
skin ned</w>
si zed</w>
sha de</w>
se a
saxo phone</w>
ru bb
re sts</w>
r out
r an
pol o</w>
po sit
pl ant</w>
pajam as</w>
p ri
p it
o c
multi ple</w>
le ss</w>
key board</w>
k a</w>
j un
ha y</w>
gar ba
garba ge</w>
fre sh</w>
fo cu
fi sh
f ir
e ars</w>
cur ly</w>
cour tyard</w>
close up</w>
cau ght</w>
c tor</w>
bu ying</w>
bro o
back wards</w>
am u
am er
yo u</w>
v il
v ac
under water</w>
tr um
towe l</w>
tou ching</w>
th ings</w>
t ice</w>
swim suit</w>
suspen ded</w>
stud ent</w>
sto re
spor ting</w>
skat es</w>
sho wn</w>
sha ped</w>
ser ving</w>
sel l</w>
scaf folding</w>
s pi
rece i
rai sed</w>
professi onal</w>
po st</w>
play ed</w>
pla za</w>
pe n
partic i
p lo
p -
ni ght
musici an</w>
moto cross</w>
me ss
mar ried</w>
li ve</w>
laugh s</w>
kneel s</w>
ki ss</w>
in ning</w>
i st</w>
ha w
guit ars</w>
go ods</w>
fri sbee</w>
form ation</w>
fen ced</w>
escala tor</w>
en s</w>
crou ches</w>
con tain
con fe
che ering</w>
carri age</w>
bi kers</w>
ati ons</w>
appe ar</w>
amer ican</w>
ack ed</w>
Ne w</w>
- covered</w>
z e</w>
wel ding</w>
to ols</w>
thro wn</w>
sur f</w>
su per
st y</w>
st art</w>
spra y</w>
se ts</w>
pi ge
par ac
parac hu
pain ts</w>
p er</w>
ou stic</w>
oppon ent</w>
ob stac
neck la
n ative</w>
n arrow</w>
mo bi
mobi le</w>
mar ket
market place</w>
magaz ine</w>
m id</w>
long -haired</w>
l way</w>
in vol
hoo ded</w>
hal lway</w>
gg ed</w>
g er
for med</w>
flo ral</w>
fi ghters</w>
ff y</w>
f s</w>
ex er
en tr
en g
direc tion</w>
decor ated</w>
de fen
d ining</w>
cke red</w>
che ckered</w>
cha in</w>
ca me
bu cking</w>
boar ds</w>
bo xing</w>
bla ck
bandan na</w>
backp acks</w>
b in
ant a</w>
anim als</w>
an i
an ese</w>
adverti sement</w>
ac oustic</w>
S anta</w>
y ed</w>
wr it
wa gon</w>
vehi cles</w>
t an
su pp
sto ve</w>
stic king</w>
she ep</w>
sh aring</w>
see ms</w>
se m
s ink</w>
ro wing</w>
rac e
r ange</w>
presen tation</w>
police man</w>
p ine</w>
on ly</w>
obstac le</w>
ne on</w>
mu stac
mon ey</w>
mo st</w>
min i
lin es</w>
ip ating</w>
he els</w>
haw k</w>
har ness</w>
guit ari
gra vel</w>
fig ure</w>
fee ding</w>
fe at
f an
exer ci
d ou
cra ft</w>
compe te</w>
climb er</w>
ce re
can dy</w>
c ue</w>
but ton</w>
bub ble</w>
bru shing</w>
bran ch</w>
bl ing</w>
ben ding</w>
ben ches</w>
b a</w>
amu sement</w>
air port</w>
ad ju
ac tion</w>
ac ting</w>
ac ti
ac her</w>
G erman</w>
- skinned</w>
z er</w>
yc ling</w>
y e
wa ys</w>
w ire</w>
v ic
tur ning</w>
trum pet</w>
ten ts</w>
te acher</w>
t ors</w>
str a</w>
snowboar ding</w>
smo ke</w>
sc ent</w>
sand wic
ro pes</w>
refe ree</w>
prin t</w>
pe n</w>
pe e
pat ter
partic ipating</w>
p ra
p han
ou s
or che
orche stra</w>
oper ating</w>
n u
mu zz
mu ddy</w>
mo m</w>
loa ding</w>
lo cks</w>
li qu
lar s</w>
k no
individu al</w>
her self</w>
hal f</w>
h itting</w>
gril ling</w>
go od</w>
gh bor
gg y</w>
fire fighters</w>
exam ining</w>
entr ance</w>
ele ss</w>
dre ad
di sh</w>
der ing</w>
ca sian</w>
c one</w>
bu shes</w>
bot t
bath room</w>
b ars</w>
attemp t</w>
athle tic</w>
am p</w>
Y ork</w>
Jap anese</w>
B M
y h
vil la
vi sion</w>
tur ns</w>
touri sts</w>
to ol</w>
sum mer</w>
stu dio</w>
sil hou
sh in
sh el
se um</w>
s ong</w>
s le
s la
s al
rout ine</w>
race track</w>
rac er</w>
qu et</w>
pu ppy</w>
pu p
prac tice</w>
pos si
po t
photograph s</w>
pe ace</w>
passen gers</w>
or g
on ed</w>
ne i
nei ghbor
na vy</w>
n ur
n um
motorc yclist</w>
memb er</w>
machin ery</w>
ma p</w>
long-slee ved</w>
lan e</w>
la y</w>
jun gle</w>
jump suit</w>
in a</w>
ic a</w>
horse back</w>
hil l
her d</w>
han g</w>
hair cut</w>
gar age</w>
g al
fir st</w>
f ting</w>
er ry</w>
er ial</w>
en ga
ele phan
ei ght</w>
e th
drum mer</w>
discu ssion</w>
de l</w>
d ly</w>
d a</w>
con tro
colo r</w>
cob ble
co ach</w>
cle ans</w>
cke ts</w>
cir cu
che st</w>
ce iling</w>
car pet</w>
bu t</w>
be g
barbe cue</w>
ban ner</w>
at er</w>
as si
ar t
al so</w>
ac t</w>
T -
wei ght</w>
w ns</w>
w ide</w>
vie wing</w>
vendo rs</w>
tum n</w>
ti le</w>
te x
tattoo ed</w>
ta g</w>
swim mer</w>
store front</w>
ston es</w>
sto pped</w>
spee ch</w>
snow board</w>
snow -covered</w>
skateboar ds</w>
scu ba</w>
sandwic h</w>
s ne
ro ad
rac es</w>
pul l</w>
pu ck</w>
pi es</w>
pati o</w>
ous ly</w>
on g
obser ve</w>
mustac he</w>
mu seum</w>
mo del</w>
micro phones</w>
ly m
le ge</w>
la te</w>
l d</w>
jec ts</w>
je wel
inter section</w>
in doors</w>
i se</w>
hou ses</w>
ho sp
hill side</w>
head scarf</w>
he art</w>
grou ps</w>
fun ny</w>
fru its</w>
f el
ex hi
elec tro
dun e</w>
du sk</w>
du ck</w>
dro p</w>
dread locks</w>
dark -skinned</w>
d walk</w>
d on</w>
d board</w>
crou ching</w>
cor n</w>
con te
col lege</w>
cobble stone</w>
co a
cere mon
celebr ating</w>
car dboard</w>
car d</w>
cam p
cal m</w>
bott les</w>
boar dwalk</w>
bo n
bl u
ball er
b in</w>
b ath</w>
af ri
a stern</w>
a head</w>
O lym
AT V</w>
A si
y outh</w>
wh ite
w e</w>
vi l</w>
v eless</w>
uni formed</w>
te red</w>
tattoo s</w>
ta x
ta ils</w>
t- shirts</w>
swor d</w>
sur g
spe ed</w>
sli des</w>
slee veless</w>
sk y
sho ot</w>
sel ls</w>
rubb er</w>
ro ns</w>
prote st</w>
produ c
pp ers</w>
possi bly</w>
pol ka</w>
per i
pe tting</w>
partici pat
par as
p tion</w>
p herd</w>
out stretched</w>
or n
o on</w>
o d
night time</w>
neighbor hood</w>
mor e</w>
mon it
med ical</w>
mar oon</w>
m ly</w>
lea ving</w>
k y</w>
in c
hosp ital</w>
hoo ps</w>
hel ps</w>
h un
h all</w>
guitari st</w>
gre yh
gr ab
ge st
fi x</w>
fen cing</w>
fe a
fan cy</w>
e mb
cri cket</w>
contain er</w>
co me</w>
che ck
cha in
cat cher</w>
bu y</w>
bever age</w>
be am</w>
bb on</w>
baske ts</w>
barre l</w>
b er</w>
a qu
a partment</w>
BM X</w>
B o
wrest le</w>
tra ining</w>
tra il
th in</w>
th day</w>
t ch</w>
surroun ding</w>
su it
stro ll</w>
stret ching</w>
st ly</w>
squ atting</w>
se ats</w>
sc ra
sa u
ren ce</w>
re ach</w>
rai ses</w>
r ural</w>
r ink</w>
posit ion</w>
pie ces</w>
pi pes</w>
pi ck</w>
par ents</w>
p an</w>
orn ate</w>
num er
ne ts</w>
na ked</w>
motor bike</w>
mon str
mo stly</w>
mo ment</w>
mi xing</w>
m all</w>
le y</w>
la mp</w>
ke ts</w>
jo ckey</w>
ite m</w>
inspec ting</w>
i an</w>
ho t
hand stand</w>
gre at</w>
go -
gh ts</w>
gen cy</w>
fur n
flu ffy</w>
flo at</w>
fli pping</w>
fire truck</w>
f arm</w>
exc ited</w>
eth nic</w>
en ti
e u
di shes</w>
con du
com for
cla y</w>
cho ir</w>
car e
cal f</w>
bu ckets</w>
broo m</w>
bro w
brea k
br ary</w>
blo ws</w>
bel t</w>
bas s</w>
bal ding</w>
ba g
b am
b acks</w>
an e</w>
a ks</w>
a kers</w>
M ar
J o
C o
- up</w>
x es</w>
win gs</w>
whi l
whil st</w>
wheel s</w>
wa it
w arm</w>
villa ge</w>
vege table</w>
vac u
v o
unic ycle</w>
u s</w>
tur ned</w>
touri st</w>
ti ed</w>
ti ally</w>
ta in</w>
t ty</w>
t en</w>
swim mers</w>
stri pes</w>
sto m
star ting</w>
star es</w>
stair way</w>
st ack</w>
spra ying</w>
sp inning</w>
sn ack</w>
smo kes</w>
skat ers</w>
sit ing</w>
sid es</w>
si um</w>
se cur
se as
scen ery</w>
sa il
s so
s le</w>
ro n
ri bbon</w>
reflec tive</w>
rain y</w>
prote sting</w>
pot tery</w>
pit ch</w>
pige ons</w>
pic al</w>
photograph ed</w>
p un
p h
p ac
numer ous</w>
neckla ce</w>
mo der
lo ye
listen s</w>
li e</w>
li brary</w>
lea ds</w>
le ar
la bor
k ni
k ite</w>
it ure</w>
in struc
hu gs</w>
hor n</w>
head band</w>
hea v
h its</w>
gymna sium</w>
grin ding</w>
go t</w>
g as</w>
furn iture</w>
follo wing</w>
flo ps</w>
fish erman</w>
fini sh</w>
fin ger</w>
figh ter</w>
ff s</w>
emer gency</w>
e ting</w>
do ctor</w>
discu ssing</w>
di g
der by</w>
de monstr
de ad</w>
cu ts</w>
cro sses</w>
cre w</w>
compu ters</w>
color ing</w>
col um
col lec
clou ds</w>
ca stle</w>
bu ll
bow ls</w>
bor n</w>
ben e
bat ter</w>
bal ance</w>
b ra
b loo
b by</w>
au tumn</w>
ap ple</w>
am s</w>
am es</w>
afri can</w>
acti v
a ds</w>
T- shirt</w>
C on
A r
zz a</w>
trun k</w>
tru cks</w>
tri c
trail er</w>
ti es</w>
tele vision</w>
team mate</w>
st rai
sprink ler</w>
sp read</w>
sp ace</w>
sof a</w>
ski ers</w>
si ve</w>
s ni
s ent</w>
ro ws</w>
repa ir
red headed</w>
rai sing</w>
pro ce
plat es</w>
pil low</w>
photo s</w>
perform ers</w>
pe ering</w>
pati ent</w>
pas ser
par tially</w>
p- flops</w>
over head</w>
oun ds</w>
obser ving</w>
ob jects</w>
o cu
n ic
n ch</w>
n ame</w>
mounta in
mo ped</w>
me di
loun ging</w>
lif ting</w>
lan ding</w>
k il
inten tly</w>
il ity</w>
hu g</w>
home less</w>
ge l</w>
fol ded</w>
fli p-flops</w>
fire man</w>
fi el
fal ls</w>
ex plo
enga ged</w>
emp loye
elephan t</w>
electro nic</w>
d a
cr ane</w>
conver se</w>
contro l</w>
confe rence</w>
con gre
co t
clu t
cla d</w>
chi ck
che fs</w>
chal k</w>
car ving</w>
can dles</w>
camer as</w>
c ru
bro ken</w>
bor ne</w>
bir thday</w>
bin ocu
bene ath</w>
be en</w>
be ar</w>
barri er</w>
baller ina</w>
balan ces</w>
b y
b oul
b ou
b ill
appro aching</w>
amp ;</w>
- like</w>
- down</w>
&apos; t</w>
& amp;</w>
z o
z en</w>
y on</w>
wi fe</w>
wheel bar
water way</w>
w ar</w>
vi g
up on</w>
un u
unu su
u ment</w>
tra y</w>
tow er</w>
the ater</w>
th ou
ter rain</w>
tele phone</w>
tax i</w>
ta ge</w>
strai ght</w>
ste el</w>
st are</w>
ss ed</w>
spo tted</w>
spla shes</w>
sp on
sm al
smal ler</w>
sli ghtly</w>
skat er</w>
shovel s</w>
sha ved</w>
sha des</w>
sh ining</w>
sh are</w>
secur ity</w>
scar ves</w>
ru bs</w>
ri z
rela x</w>
re pair</w>
re gi
rain bow</w>
r o</w>
pro jec
pre tty</w>
pre sent</w>
practic es</w>
pon y
poin t</w>
participat e</w>
pad dles</w>
p lu
p apers</w>
p ack</w>
p ack
ong st</w>
od d</w>
o es</w>
new born</w>
mon ument</w>
mat es</w>
mat erial</w>
m med</w>
m es</w>
lo ws</w>
liqu id</w>
lif ted</w>
le t
la cross
lacross e</w>
l et</w>
jewel ry</w>
i sh</w>
i sh
i or</w>
hil ls</w>
gi ft</w>
g li
for ward</w>
follo ws</w>
flo wered</w>
fli ps</w>
fac tory</w>
f an</w>
en th
dri ll</w>
direc tions</w>
d it
d ges</w>
cra w
cra fts</w>
cr ash
con si
com m
coa ster</w>
co ol</w>
char ac
casu al</w>
car ry</w>
cal led</w>
c ape</w>
by stan
binocu lars</w>
bill board</w>
be an
bar ber</w>
back drop</w>
b low</w>
b ing</w>
athle tes</w>
at or</w>
at ely</w>
am ongst</w>
am ing</w>
air borne</w>
ai sle</w>
adverti sing</w>
ach ers</w>
M o
M an</w>
E u
B u
2 0
y way</w>
y er</w>
win d
wea ving</w>
wea ther</w>
water front</w>
wa ding</w>
w as
vi si
vi e</w>
um p</w>
um in
u si
to o
ten ding</w>
te aching</w>
ta ining</w>
stu res</w>
st ill</w>
spe ci
so a
sne akers</w>
sil ly</w>
sho re
shore line</w>
sho ps</w>
sha kes</w>
sh ine</w>
sel e
sc or
sa iling</w>
ro d</w>
ri ck
rick sha
repair ing</w>
repa irs</w>
recei ving</w>
re t</w>
r ings</w>
pup pies</w>
pu sh</w>
pra ying</w>
po o
pla cing</w>
pi g
pi c</w>
passen ger</w>
paras a
pa per
p les</w>
over weight</w>
ou ths</w>
or der</w>
or an
on don</w>
o wn</w>
o ven</w>
moder n</w>
mir ing</w>
mi x
machin es</w>
m o</w>
m it
loun ge</w>
ke ep</w>
k in</w>
jo b</w>
j o</w>
j a
inter acting</w>
in te
i f</w>
ho riz
hea ding</w>
gun s</w>
gu ards</w>
glo ve</w>
gal l
g a</w>
g -
fu r</w>
fire men</w>
fa ke</w>
f ree</w>
ey e
exerci se</w>
ex pre
ex peri
enth usi
eng ine</w>
dri ve</w>
down town</w>
don key</w>
do l
de er</w>
de c
d y
d ay
custo mer</w>
cu ps</w>
cre ek</w>
coo k</w>
consi sting</w>
con ven
com es</w>
che ck</w>
car ds</w>
came l</w>
c aps</w>
c ans</w>
c ade</w>
but ter
bou quet</w>
boo k
bo o</w>
bl ed</w>
bi king</w>
ban an
b ite</w>
atten tion</w>
atten ding</w>
ati c</w>
at trac
an ts</w>
an gel</w>
ad miring</w>
L ondon</w>
C au
C an
1 2</w>
wor ld</w>
wheelbar row</w>
wheel ie</w>
wa s</w>
w ning</w>
visi ble</w>
v in
ump ire</w>
tro pical</w>
tro l
travel ing</w>
tou ches</w>
tin y</w>
ti res</w>
th umb
th o
te ch
te a</w>
t i</w>
t as
swee ps</w>
stud ying</w>
stor y</w>
stom ach</w>
stic s</w>
st all</w>
spo on</w>
sp an
sin gle</w>
si mi
simi lar</w>
shor t-
sel y</w>
sci ence</w>
sail boat</w>
s er</w>
s ack</w>
rollerbla ding</w>
ro of
ricksha w</w>
reflec tion</w>
ra fting</w>
qu i
pp er</w>
por tra
pla ces</w>
pic s</w>
pi zza</w>
patter ned</w>
pad dle</w>
pa st
p y</w>
p ump
ou ts</w>
on al
offic ial</w>
obser ves</w>
o w
o s</w>
na ment</w>
na il</w>
n ature</w>
n ap
moto ri
mid -
mess y</w>
mer chan
merchan di
merchandi se</w>
me eting</w>
m bo
lon s</w>
lo ad</w>
li ps</w>
lear ning</w>
le ot
le ad</w>
lap tops</w>
lan ter
kni fe</w>
kn it</w>
ke ys</w>
k ly</w>
ju ice</w>
j et</w>
ir on</w>
inc line</w>
hu t</w>
high way</w>
high -
han ding</w>
gymna stics</w>
gun dy</w>
grocer ies</w>
gre en
gr ay
gr an
ge stures</w>
fore head</w>
flu te</w>
fire fighter</w>
fil ling</w>
feat u
f ar</w>
exhi bit</w>
exam ines</w>
enter tain
enter ing</w>
eg gs</w>
e s
e e
du st</w>
dra wn</w>
dou gh</w>
do ll</w>
di mly</w>
de sig
de scent</w>
de br
debr is</w>
cross ed</w>
cow boys</w>
coun tr
cla pping</w>
che er</w>
che cks</w>
chain saw</w>
ch atting</w>
ceremon y</w>
cau se</w>
car ts</w>
cam ping</w>
c ting</w>
c lean
bystan ders</w>
butter fly</w>
bur gundy</w>
brow sing</w>
br a</w>
ble achers</w>
bam boo</w>
ball et</w>
b ble</w>
b are</w>
at e
ar n</w>
app lying</w>
alle yway</w>
a k</w>
S u
S e
M c
Cau casian</w>
z ens</w>
yo ga</w>
y side</w>
y arn</w>
wrest ler</w>
wra p</w>
woo d
wil d</w>
wi res</w>
water me
watch ed</w>
was her</w>
war es</w>
wa i
vi siting</w>
ven ue</w>
v a
up ward</w>
unusu al</w>
um b</w>
tric ycle</w>
tri p</w>
tran spor
to ssing</w>
to mat
tic al</w>
ti red</w>
ti ghts</w>
thumb s</w>
te l</w>
te en</w>
te e</w>
te al</w>
tar get</w>
tack le</w>
ta pe</w>
supp or
sun light</w>
suit case</w>
stor m</w>
sto ps</w>
st ar</w>
spea k</w>
so da</w>
snow suit</w>
snow shoes</w>
silhou ette</w>
sho ppers</w>
shir ted</w>
shado ws</w>
sh ar
ser ves</w>
see m</w>
se par
se con
scoot ers</w>
scaf fol
s lic
ri f
rac ers</w>
ra pi
rapi ds</w>
r ally</w>
qu o
qu ar
presen ting</w>
pos ed</w>
pony tail</w>
po w
po tat
play fully</w>
pil lows</w>
pig tails</w>
pic ks</w>
pi lot</w>
per s
paper work</w>
p ir
org ani
ope ns</w>
op ter</w>
off -
no te
newsp apers</w>
new ly</w>
motorc yclists</w>
mon key</w>
mo vie</w>
me as
man eu
magaz ines</w>
m ple</w>
m oun
m a</w>
long-slee ve</w>
lo gs</w>
lo cat
locat ed</w>
lo c
list en</w>
li c</w>
lec ture</w>
laun dro
laundro mat</w>
lar ed</w>
kne es</w>
kaya ks</w>
iti es</w>
inspec ts</w>
in ju
il ls</w>
id st</w>
ic opter</w>
i ght</w>
ho tel</w>
hel icopter</w>
han dra
h um
greyh ound</w>
gi ve</w>
gar den
gall ery</w>
g ames</w>
focu sed</w>
fire works</w>
fini shed</w>
far mer</w>
f le
f l
en ed</w>
e ver
e st</w>
e f
do t</w>
di ves</w>
di ver</w>
de scen
d ump
d ad</w>
cu te</w>
crou ched</w>
countr yside</w>
coo ks</w>
comple te</w>
co ol
ci l</w>
chick en</w>
che ss</w>
che ek</w>
chal k
ch in
celebr ation</w>
ce p
casu ally</w>
care fully</w>
can -
camer a
ca ge</w>
bri cks</w>
bran ches</w>
boul der</w>
blan kets</w>
bl ur
bi es</w>
bever ages</w>
bean ie</w>
be ret</w>
bag pipes</w>
b re
b iting</w>
b ad
as sem
art work</w>
ar ch</w>
ar ch
an ti
am idst</w>
adju sting</w>
ac compan
ac c
W al
S t
S he
M ex
L e
Jo h
J e
E l
D onal
Chin a</w>
- colored</w>
z es</w>
we ap
wa ke
w ho
who m</w>
v alley</w>
under wear</w>
ul l</w>
ty pes</w>
tw ir
tur quo
turquo ise</w>
trol ley</w>
tri po
tri e
transpor tation</w>
tor ch</w>
th umb</w>
teen s</w>
tack ling</w>
t wo
sy n
swim suits</w>
suspen ders</w>
surg ery</w>
surf s</w>
supp lies</w>
str ange</w>
st il
st al
st acked</w>
spo t
sig n
sho w
shado w</w>
sha w
sea gu
scre aming</w>
scor e</w>
scen ic</w>
sal on</w>
s by</w>
s ar
roller skating</w>
ro ni
ri ot</w>
ri ce</w>
recor ding</w>
recor d</w>
re trie
re li
quar ter
produc ts</w>
prin ted</w>
po ts</w>
po or</w>
po lit
plan ting</w>
pla ced</w>
pi er
pe d
pat ch</w>
passer sby</w>
parachu te</w>
par d</w>
ori um</w>
oran ges</w>
na vig
mu g</w>
motori zed</w>
mo wer</w>
mo tion</w>
mo p</w>
mo ck</w>
me et</w>
mar ch</w>
m ur
loo m</w>
loc ation</w>
lin ing</w>
ligh ting</w>
ligh ted</w>
lif ts</w>
lea f</w>
le as
le af
lar ger</w>
la bel
kic k
ki e</w>
khak is</w>
k it
invol ving</w>
invol ved</w>
inju red</w>
in o</w>
in g
in ed</w>
ill umin
hu dd
hot dog</w>
horiz on</w>
hi ke</w>
hi ding</w>
har d
h y
gaz es</w>
ga thers</w>
fur ry</w>
fo li
flo ats</w>
fini shing</w>
fashi oned</w>
fashi on</w>
f our
f lan
exc ite
ele v
ear phones</w>
dump ster</w>
du sty</w>
do ned</w>
do ne</w>
dit orium</w>
dis playing</w>
dis played</w>
de signs</w>
cra y
cou ples</w>
col lared</w>
co vers</w>
co p</w>
clo sely</w>
circu lar</w>
cho pping</w>
cho p
chalk board</w>
ch ristmas</w>
cell o</w>
can- American</w>
c ycling</w>
c are</w>
buil t</w>
bro ther</w>
bro n
black -haired</w>
bla zer</w>
bl in
bel ts</w>
ban jo</w>
b er
b al</w>
au ditorium</w>
ati onal</w>
ar ri
ar ran
ar cade</w>
ap par
af ter
ad m
ad ed</w>
ab an
a ble</w>
Mo hawk</w>
Mc Donal
In di
D e
Ar my</w>
Afri can-American</w>
20 12</w>
x y
writ es</w>
work shop</w>
work out</w>
win ding</w>
wi g</w>
white -
wheel er</w>
we ll
well -
wash es</w>
wal ked</w>
w ill</w>
vin tage</w>
vi de
vide o
ve way</w>
vacu um
v as</w>
up set</w>
ul t</w>
tripo d</w>
tri bal</w>
tre nch</w>
tra ption</w>
tr ash
trash can</w>
tr ack
tou ch</w>
too th
todd lers</w>
til ed</w>
ti mate</w>
ti ght</w>
th way</w>
th an</w>
ter min
t el
stro ke</w>
stra pped</w>
sto ri
stil ts</w>
ste pping</w>
st rin
st air</w>
spra yed</w>
spo t</w>
spea ker</w>
side ways</w>
sid el
shin y</w>
she pherd</w>
sha pe</w>
sh y</w>
ser ve</w>
secon d</w>
se l</w>
scaffol d</w>
s ad</w>
roof top</w>
road side</w>
ro w
rif le</w>
reli gi
ra z
ra fts</w>
quarter back</w>
qu ic
quic kly</w>
pump kin</w>
proce ss</w>
portra it</w>
po st
pen cil</w>
pee king</w>
parasa iling</w>
pain t
pa thway</w>
pa ds</w>
p ins</w>
p in</w>
ol a</w>
nur ses</w>
numb ers</w>
no on</w>
n g
mu st
mor ning</w>
monit or</w>
men u</w>
me dium</w>
mar t</w>
ma inten
mainten ance</w>
m on</w>
long ings</w>
lo r</w>
lo bby</w>
leot ard</w>
len s</w>
lea p</w>
lea gue</w>
lea der</w>
le gg
legg ings</w>
la den</w>
l ink</w>
kaya king</w>
ju ggles</w>
in du
in dian</w>
id ent</w>
i ous</w>
high chair</w>
heav ily</w>
head dress</w>
handra il</w>
han ded</w>
gray -haired</w>
grab bing</w>
go at</w>
gi e</w>
gest ure</w>
gaz ing</w>
gaz e</w>
garden ing</w>
fro zen</w>
foli age</w>
fo g</w>
flan nel</w>
fi er</w>
feat uring</w>
far mers</w>
fac ility</w>
experi ment</w>
en vi
emb racing</w>
el ing</w>
e ven</w>
e ds</w>
e astern</w>
e as
dri veway</w>
dra gging</w>
do r
do min
dis plays</w>
di ve</w>
decor ative</w>
de sm
de partment</w>
dark ened</w>
d led</w>
cu p
crow ds</w>
cre ating</w>
cr ates</w>
cot ton</w>
con traption</w>
con cen
concen tr
co ver</w>
clut tered</w>
clou d</w>
clo wns</w>
cla ssi
chop sticks</w>
chin ese</w>
check ers</w>
che wing</w>
che ese</w>
celebr ate</w>
can vas</w>
came ls</w>
ca kes</w>
ca b</w>
c ted</w>
c s</w>
c iti
but ton
bur ning</w>
bru shes</w>
bri desm
box er</w>
boo ths</w>
boar ding</w>
bo r</w>
blu e-
bloo d</w>
be longings</w>
be d
bath tub</w>
atte red</w>
as s</w>
ar my</w>
appro aches</w>
ap rons</w>
an gle</w>
an g
after noon</w>
adju sts</w>
activ ity</w>
aban doned</w>
a part</w>
a dian</w>
T he</w>
T ex
S qu
S p
S o
P e
P ar
Olym pics</w>
M u
Joh n</w>
H a
G re
E astern</w>
Can adian</w>
C ity</w>
Asi a</w>
Amer ica</w>
win d</w>
wheel ed</w>
we en</w>
wait er</w>
wa ist</w>
w in</w>
w are
ware house</w>
vie wed</w>
vic es</w>
vari e
varie ty</w>
uni que</w>
under ground</w>
two -
tur ban</w>
tre at</w>
tra vel</w>
tooth brush</w>
tic ket</w>
ti vely</w>
ti ps</w>
ti ger</w>
th i
ten ds</w>
team mates</w>
te mple</w>
tas k</w>
ta gs</w>
t ying</w>
syn ch
synch roni
stum p</w>
stu ck</w>
stro lls</w>
stri al</w>
sto op</w>
ste m</w>
stan t</w>
sta ff</w>
sta bl
ss er
squ ee
spee ding</w>
spec t
spar ring</w>
sor ting</w>
soa p</w>
sni ff
sniff ing</w>
sli m</w>
sle dding</w>
ski es</w>
silhou et
short- haired</w>
sho e
shi ft</w>
sha ggy</w>
ser vice</w>
sco o
sci enti
sc ri
sc outs</w>
sa wing</w>
sa i
s ou
s l
s ks</w>
s am
ru g</w>
ron ment</w>
rollerbla des</w>
roll ers</w>
ro pe
rope an</w>
ri ver
re leas
re ally</w>
rain coat</w>
r y-
r it
pu shed</w>
prote sters</w>
projec tor</w>
plan k</w>
pin at
pinat a</w>
photograph ers</w>
pe er</w>
pe aks</w>
pe ac
patter n</w>
pain ter</w>
pac king</w>
pa le</w>
oun t</w>
or y</w>
oper ates</w>
on ing</w>
o re
note book</w>
no tes</w>
ne ws</w>
muzz led</w>
muzz le</w>
mo tor</w>
mer ing</w>
me chan
ma g
m ic</w>
ly -haired</w>
lo wer</w>
lo ween</w>
lo aded</w>
lic king</w>
li sh</w>
l on</w>
kno wn</w>
kil t</w>
ke e
k a
jump er</w>
jum ped</w>
jo y</w>
jo gs</w>
jo cke
jocke ys</w>
ish ment</w>
inte resting</w>
indu strial</w>
in gre
ingre di
ingredi ents</w>
in ation</w>
ima ges</w>
ic y</w>
i a</w>
hu s
hu man</w>
hor e</w>
he el</w>
har mon
han dle</w>
gu res</w>
gran d
grab s</w>
gr ad
grad u
gest uring</w>
g y</w>
foot ed</w>
follo wed</w>
focu s</w>
fo am</w>
fiel ds</w>
fi shes</w>
fi gures</w>
fel l</w>
fa ir
f ic
f at</w>
es n</w>
envi ronment</w>
eg g</w>
e stabl
e labor
du cks</w>
dri b
dra w</w>
down hill</w>
do tted</w>
do esn</w>
del i
decor ations</w>
de sign</w>
dd les</w>
cur ly-haired</w>
cray ons</w>
crash ing</w>
con taining</w>
comple x</w>
colum ns</w>
co late</w>
clean er</w>
cho colate</w>
che e
ch u
cell phones</w>
cau casian</w>
cas t</w>
can yon</w>
can n
can al</w>
bu ff
break dancing</w>
br ass</w>
boun cing</w>
bo dy
bic ycling</w>
ben ds</w>
beg ins</w>
be cause</w>
attrac tive</w>
at ory</w>
ash es</w>
anti que</w>
am a
al most</w>
al ing</w>
ai ds</w>
acro b
accompan i
acc ident</w>
U S</w>
Tex as</w>
T o
T e
T V</w>
She pherd</w>
Mex ican</w>
M i
El mo</w>
D o
D J</w>
zz y</w>
y be</w>
xy lo
x e</w>
x e
writ ten</w>
wra ps</w>
work man</w>
win e
wh en</w>
water skiing</w>
wai ian</w>
video ta
vic tory</w>
vi so
viso r</w>
vi br
vibr ant</w>
ven ding</w>
up wards</w>
un happy</w>
u ts</w>
tu xe
tu t
tut u</w>
tu red</w>
tu g-
tug- of
tug-of -
tug-of- war</w>
tre e-
tran sit</w>
tra ins</w>
tr o</w>
tou r
tour nament</w>
to o</w>
to il
thi ck</w>
tex ting</w>
ten der</w>
tar p</w>
tack led</w>
ta ins</w>
ta ble
t ter</w>
t roo
t our</w>
t ary</w>
synchroni zed</w>
surg ical</w>
surf ers</w>
super market</w>
sun bathing</w>
stu ff</w>
stro lling</w>
strin ged</w>
stri king</w>
stret ches</w>
stre et
str ings</w>
st rollers</w>
st ination</w>
ssi ons</w>
squee zing</w>
squ ats</w>
spra ys</w>
spot light</w>
spla shed</w>
spee ds</w>
spar k
sp ins</w>
some where</w>
soc ial</w>
skin ny</w>
sk ills</w>
silhouet ted</w>
sig ning</w>
sidel ines</w>
shi el
shel f</w>
shaw l</w>
sh u
separ ate</w>
se c
sculp tures</w>
scu lar</w>
sc rubs</w>
sa ge</w>
s wa
s me
s ay</w>
ru gs</w>
roller -
roll ed</w>
ri se</w>
religi ous</w>
red head</w>
ra ining</w>
r ned</w>
r e</w>
r at
qu e
pur ses</w>
pun ching</w>
protec t</w>
produc t</w>
prepar ed</w>
pou rs</w>
potat o</w>
posit i
poo dle</w>
po wer</w>
po ly</w>
po cket</w>
pla in</w>
per ched</w>
pe ers</w>
pan ish</w>
pack age</w>
pa in</w>
p y
p unch</w>
p pe
p ay</w>
p acked</w>
or dering</w>
ope n
o poly</w>
o pard</w>
nu n</w>
ne qu
navig ates</w>
nap ping</w>
na ils</w>
mur ky</w>
mu scular</w>
mu ch</w>
mountain ous</w>
moun ted</w>
monit ors</w>
mo hawk</w>
mix er</w>
mid st</w>
mi x</w>
mer ci
merci al</w>
men tary</w>
meas uring</w>
me tal
me ss</w>
me sh</w>
me ado
meado w</w>
mas ks</w>
mar k</w>
man nequ
ma ybe</w>
m ouths</w>
m ming</w>
ly -
loo ked</w>
li vely</w>
le opard</w>
le gged</w>
lanter ns</w>
lan ds</w>
labor atory</w>
label ed</w>
la y
kne e-
ki sses</w>
k -
ju dges</w>
je ep</w>
in ner</w>
in formation</w>
illumin ated</w>
hy dr
hydr ant</w>
hus band</w>
hu la
home made</w>
hi stori
harmon ica</w>
hard wood</w>
har ve
ham mock</w>
ham mering</w>
ha d</w>
grin ds</w>
graf f
graff iti
gra b</w>
gr i
go wn</w>
go s</w>
gg le</w>
ge ment</w>
fre sh
fre e
founta ins</w>
fore sted</w>
fo ods</w>
fo ggy</w>
fla t</w>
fin ger
fil ming</w>
fe tch</w>
f ying</w>
f rying</w>
f er
exam ine</w>
establ ishment</w>
enthusi a
eng a</w>
en tly</w>
employe es</w>
employe e</w>
eas el</w>
ear th</w>
dra ws</w>
dra ped</w>
dr yer</w>
direc ting</w>
din o
din er</w>
dig ital</w>
demonstr ation</w>
de x</w>
de stination</w>
day time</w>
d rying</w>
cro ps</w>
cri es</w>
cre ate</w>
craw ls</w>
congre g
condu ctor</w>
con ne
comple ted</w>
compan y</w>
compan ion</w>
comm unic
com mercial</w>
color fully</w>
col li
co ver
co ck
classi c</w>
citi zens</w>
cig ar</w>
cheer leading</w>
chas ed</w>
charac ters</w>
ch erry</w>
cas es</w>
carri er</w>
cano es</w>
can dle</w>
camp fire</w>
cam p</w>
ca the
ca sting</w>
c ul
c o</w>
c all</w>
bun dle</w>
bu ried</w>
bridesm aids</w>
bri ef
box ers</w>
botto ms</w>
bikin is</w>
bed room</w>
be ads</w>
bat tle</w>
bare footed</w>
barbe cu
bar tender</w>
banan as</w>
ban ners</w>
back seat</w>
ba bies</w>
as king</w>
as cen
arti sts</w>
ari um</w>
aqu arium</w>
am ount</w>
am id</w>
af e</w>
ado rned</w>
acrob atic</w>
ac king</w>
a im
a id</w>
W o
S panish</w>
R u
Olym pic</w>
M id
M ic
M a
L i
J enga</w>
Indi a</w>
Ha waiian</w>
C afe</w>
B r
Asi ans</w>
1 1</w>
z one</w>
z e
y set</w>
xylo phone</w>
wrest lers</w>
wood land</w>
wo n
wil der
wilder ness</w>
wi sh</w>
wei gh
waterme lons</w>
water side</w>
war ming</w>
wait re
waitre ss</w>
w ere</w>
w ash</w>
w an
ver se</w>
vege tation</w>
vacuum ing</w>
vacu um</w>
v or
vor ite</w>
v ine</w>
un k</w>
un g</w>
u al</w>
ty ping</w>
tw heel</w>
tu bes</w>
tro tting</w>
tro ph
troph y</w>
tree- lined</w>
tre ss</w>
tre adm
treadm ill</w>
travel s</w>
track suit</w>
to w</w>
to ple
tople ss</w>
ti st</w>
thou gh</w>
ter ri
ten s</w>
t ti</w>
t s
sur e</w>
suppor t</w>
sun shine</w>
stri pe</w>
sto res</w>
stat u
star ring</w>
st on</w>
sso r</w>
ss o</w>
squ ir
span ic</w>
sp ring</w>
sp ani
sou p</w>
some body</w>
sol d</w>
soc i
soci ali
snowboar ds</w>
snow ball</w>
sn or
sn acks</w>
slee ves</w>
slee ve</w>
sla cks</w>
sky line</w>
sky diving</w>
sit y</w>
sho wer</w>
shin g
shar p</w>
sh ack</w>
ser ies</w>
sem i</w>
sea food</w>
se ments</w>
se cu
se ating</w>
sco pes</w>
scienti st</w>
scho ol
sc rat
sc attered</w>
sau r</w>
sai lor</w>
s na
ry- go-
ry-go- round</w>
ru stic</w>
roller skates</w>
ro ses</w>
ro lls</w>
ro ll</w>
ri mmed</w>
rece ption</w>
re sort</w>
re por
rail ings</w>
rac k</w>
ra mid</w>
ra g</w>
ra b
rab bit</w>
qui et</w>
py ramid</w>
pur chase</w>
pup pet</w>
professi on
prin ts</w>
presen ts</w>
pon y</w>
polit ical</w>
police men</w>
poin ted</w>
po ps</w>
po p</w>
po p
pir ate</w>
pige on</w>
pic ket</w>
pi e</w>
photograph ing</w>
pedestri an</w>
pat rons</w>
par ent</w>
p ans</w>
org an</w>
oppon ents</w>
op y</w>
ol l
oc cu
o live</w>
o il</w>
nur se</w>
nu de</w>
no o
new ly
newly wed</w>
neckla ces</w>
ne y</w>
na med</w>
n ine</w>
mon k</w>
mo wing</w>
mo o
mit t</w>
mini ature</w>
min g
mi ssing</w>
mi -
mer ry-go-round</w>
mb ur
mas co
masco t</w>
mar ker</w>
mar ked</w>
mar ble</w>
make shift</w>
mag ni
ma in
lu sh</w>
lo w
lo ve</w>
lo go</w>
li on</w>
li fe
li d</w>
le vel</w>
la id</w>
l li
ki mon
k ings</w>
jump suits</w>
iti sh</w>
in t</w>
in er</w>
id enti
id en
id ed</w>
ic ally</w>
i s
i ence</w>
i P
hula -
hudd led</w>
hot dogs</w>
ho li
ho e</w>
hil ly</w>
heav yset</w>
he ar
har bor</w>
ha mbur
ha m</w>
gu ide</w>
gro wn</w>
greyh ounds</w>
gr y</w>
gol f
go- cart</w>
fu zzy</w>
fro n
fra med</w>
form ing</w>
for t</w>
for k</w>
flo ck</w>
fin d</w>
fil m</w>
fil l</w>
fi le</w>
fel low</w>
featu res</w>
fea thered</w>
fea ther</w>
fe t
fe dor
fedor a</w>
fac e-
fa vorite</w>
expre ssion</w>
exhi b
exerci sing</w>
ex tre
ex pan
ex iting</w>
ever y
er -
enter tain</w>
elabor ate</w>
el ed</w>
el der</w>
e vil</w>
e val</w>
e ag
dra l</w>
do lls</w>
do c
doc tors</w>
div ers</w>
discu ss</w>
dis c</w>
dino saur</w>
di g</w>
desig ned</w>
deser ted</w>
defen der</w>
de sser
de sks</w>
de red</w>
de pic
da ily</w>
d yed</w>
d ump</w>
d am
cross country</w>
cro wn</w>
cre st</w>
cr ate</w>
conven ience</w>
conte st</w>
confe tti</w>
condu cting</w>
con s
con fu
con diti
comple ting</w>
col lie</w>
co con
cloth ed</w>
clo ck</w>
ck er</w>
cigaret tes</w>
cheer leader</w>
check out</w>
charac ter</w>
ch in</w>
ceremon ial</w>
cathe dral</w>
cas ino</w>
cas h</w>
car twheel</w>
car go</w>
cann on</w>
camera man</w>
ca ve</w>
c lar
c ats</w>
but cher</w>
bull do
buff et</w>
bu sh</w>
bow tie</w>
boun ds</w>
bon go</w>
boar der</w>
bo ws</w>
blur red</w>
blo wer</w>
blo cking</w>
bla des</w>
ben d</w>
beg in</w>
be ers</w>
be ating</w>
be at</w>
barre ls</w>
bar king</w>
bar ely</w>
ban ds</w>
b it
b il
b erry</w>
au to
ar m
aqu a</w>
app lies</w>
app les</w>
am i</w>
adverti sements</w>
activ ities</w>
accompani ed</w>
ac tors</w>
a wning</w>
a wait</w>
Wal mart</w>
W h
U S
Squ are</w>
So on
R ed</w>
R e
O ri
L at
Eu ropean</w>
Eu rope</w>
E n
Co m
C ola</w>
Br itish</w>
AT M</w>
A u
A ra
- sized</w>
- looking</w>
zo m
z y</w>
y ouths</w>
wor ds</w>
wo ven</w>
with in</w>
wine glasses</w>
white -haired</w>
whi s
wheel chairs</w>
well- dressed</w>
weap on</w>
water skier</w>
wat ering</w>
wal kers</w>
w ri
vol un
volun te
vie ws</w>
ver sity</w>
v ast</w>
v an
up right</w>
un loading</w>
um s</w>
ul ting</w>
ul timate</w>
u til
tw i
tur key</w>
tur al</w>
tri mming</w>
tran s
tomat oes</w>
to on</w>
to e</w>
ti on
tho se</w>
th y</w>
th re
th in
termin al</w>
te st</w>
te ddy</w>
tal ent</w>
tack les</w>
table cloth</w>
ta u
ta r</w>
ta il
ta gged</w>
t ons</w>
t ment</w>
t ely</w>
sy stem</w>
sy mbo
swor ds</w>
sweat ers</w>
sur ge
sun dress</w>
sub mer
stun ts</w>
stri ke</w>
stri de</w>
ste ers</w>
st ir
stir ring</w>
st e</w>
st ars</w>
ss ors</w>
ss e
ss ance</w>
squ ad</w>
sprink lers</w>
spo ts</w>
spla sh</w>
speci al</w>
sp lit</w>
sp ir
sp at
spat ula</w>
sociali zing</w>
so mb
so ft</w>
so ars</w>
snow man</w>
sna ke</w>
slo pes</w>
skateboar ders</w>
sk ull</w>
sk im
si ster</w>
shor ter</w>
shing les</w>
sha ke</w>
sh ou
shou ting</w>
sh ines</w>
sen ior</w>
seas hore</w>
seagu lls</w>
se mi-
se ar
scoo ping</w>
sci ssors</w>
sc o</w>
sc ant
sc aling</w>
sar is</w>
sam ple</w>
s ad
run way</w>
ru sty</w>
ru sh</w>
ru ins</w>
road way</w>
river bank</w>
ri b
rib bo
ribbo ns</w>
rest ed</w>
rela y</w>
rela xes</w>
regi ster</w>
red dish</w>
re turn</w>
re spon
re spec
re r</w>
re mo
re g
raz or</w>
rai se</w>
ra vine</w>
ra king</w>
ra ils</w>
ra dio</w>
que sti
qu ad</w>
pu zz
pu s</w>
pu la
profe ssor</w>
pro pped</w>
pro gre
progre ss</w>
pro ba
proba bly</w>
por table</w>
poo dles</w>
pit ching</w>
pil lar</w>
pil es</w>
pic k
pers on
person nel</w>
pe ts</w>
pe ach</w>
parachu tes</w>
par alle
paralle l</w>
pan t</w>
pan e</w>
pac i
paci fier</w>
p stick</w>
p rou
p ro</w>
p ple</w>
p oun
p ad</w>
ow ner</w>
over look</w>
oper ated</w>
open -
on e-
on d</w>
oll er
ol d-
off- camera</w>
of fe
oc cur
o x
o tic</w>
o sk</w>
o ck</w>
no ses</w>
night club</w>
near ly</w>
n ational</w>
mu le</w>
mountain top</w>
mounta inside</w>
mon ster</w>
mo ri
mit tens</w>
mini -
min ton</w>
micro scopes</w>
mi sh</w>
mess age</w>
medi eval</w>
mat ure</w>
mas sive</w>
magni fying</w>
ma y</w>
ma j
ma in</w>
m ps</w>
m ou
m ats</w>
lo vely</w>
liqu or</w>
lic ks</w>
li pstick</w>
li me</w>
let ters</w>
len ge</w>
len g
leng th</w>
le an</w>
lau s</w>
lan es</w>
l ue</w>
kn itting</w>
kic ked</w>
ki osk</w>
k ins</w>
k i</w>
k ery</w>
k er
jo g</w>
ja vel
in stal
im pre
im es</w>
iden tical</w>
ic s</w>
hun ched</w>
hu ddle</w>
hoo k</w>
hol es</w>
hi p
her ding</w>
helme ted</w>
he arts</w>
he ar</w>
harve sting</w>
hand held</w>
hand bag</w>
h our</w>
h at
h a</w>
gu i
gu es</w>
gu ar
gril ls</w>
gras ping</w>
grap h
gr and</w>
go wns</w>
go ers</w>
go ate
goate e</w>
glo ved</w>
gli ding</w>
gla ci
glaci er</w>
gir l
gi ven</w>
gg ers</w>
g en</w>
fresh ly</w>
fre nch</w>
four -
fol low</w>
flow ery</w>
flo wing</w>
flo ors</w>
flo ati
floati es</w>
fla ming</w>
fla mes</w>
fire place</w>
fi xes</w>
featu red</w>
fac ial</w>
f lee
expan se</w>
excite dly</w>
ex ten
er ly</w>
er i
emer ges</w>
elev ated</w>
e fs</w>
e f</w>
e at
dro pping</w>
dress ing</w>
dra gon</w>
do ts</w>
do s</w>
do r</w>
dig an</w>
di gs</w>
desser t</w>
del i</w>
de vices</w>
dam aged</w>
d- up</w>
cur ved</w>
cur ve</w>
cu ri
cre ates</w>
craw ling</w>
cra fting</w>
cra f
cr ash</w>
cow girl</w>
construc ted</w>
conne cted</w>
congre gate</w>
con ce
comple tely</w>
competiti ve</w>
compet it
com bat</w>
colum n</w>
cock pit</w>
co ws</w>
co ho
co ast</w>
clut ching</w>
climb ers</w>
clar in
cla p</w>
cl er
ck -
ci ent</w>
chi sel
che cked</w>
ch o</w>
ch am
cep t</w>
ce ss</w>
cau tion</w>
car ou
car digan</w>
cap ped</w>
ca bles</w>
ca ble</w>
ca bin</w>
c in
c ad
c a</w>
busine ss
bun dled</w>
bulldo zer</w>
buil d</w>
bu l
bu cks</w>
broo ms</w>
bron co</w>
bro ad</w>
brief case</w>
bra ided</w>
br in
boo gie</w>
bon es</w>
body suit</w>
blin d
bi e</w>
bi b</w>
bel ly</w>
bel l</w>
be ams</w>
barri ers</w>
barre n</w>
barbecu ing</w>
banan a</w>
ban d
bad minton</w>
bad ge</w>
ba kery</w>
ba ked</w>
at tle</w>
assi sting</w>
assem bled</w>
arti stic</w>
arri ve</w>
arran gement</w>
ar med</w>
ar ly</w>
ar a</w>
an y</w>
an vil</w>
an cient</w>
al loween</w>
al coho
aim ing</w>
ad ven
acti vely</w>
a xe</w>
a ward</w>
a v
a erial</w>
a board</w>
US A</w>
U ni
T imes</w>
Su b
St ate</w>
Soon ers</w>
Se attle</w>
R oller
P o
P i
N Y</w>
Mu slim</w>
Mid dle</w>
Mi ami</w>
McDonal d</w>
Le gos</w>
Je wish</w>
I s
H e
H alloween</w>
F or
D i
C a
A ng
1 0</w>
zo o</w>
ze bra</w>
z ard</w>
youn g
yel ling</w>
y si
y scape</w>
y o</w>
y m
y ear</w>
x im
x i
work men</w>
wor d</w>
wind brea
windbrea ker</w>
wil d
wi ping</w>
whi stle</w>
weap ons</w>
we ed</w>
waterme lon</w>
water craft</w>
wake board</w>
wa des</w>
w rist
w hole</w>
w ers</w>
w are</w>
w ant</w>
vo id</w>
vo cal
vocal ist</w>
viol in
vi d</w>
ver tical</w>
v ar
var ying</w>
util ity</w>
uni c</w>
un seen</w>
un known</w>
un ity</w>
un identi
unidenti fi
un finished</w>
um ps</w>
u t</w>
u ps</w>
u lar</w>
tuxe do</w>
tur tle</w>
tur ing</w>
tum bling</w>
tu lips</w>
tu gging</w>
tre et</w>
tra ys</w>
towe ls</w>
tor ches</w>
ton gs</w>
tomat o</w>
toil et</w>
to ssed</w>
til es</w>
ti sh</w>
ti ght
ti ble</w>
ti ara</w>
thin king</w>
the s
thes line</w>
the med</w>
the me</w>
terri er</w>
ten d</w>
te xt</w>
tal s</w>
ta mb
ta ke
t unic</w>
t rou
t it
t ant</w>
symbo l</w>
sweat suit</w>
sweat shirts</w>
sw an</w>
surge ons</w>
sur round</w>
super vi
super man</w>
sun ba
suit cases</w>
sub urban</w>
sty lish</w>
stu med</w>
struc tures</w>
stru ggling</w>
stru ggles</w>
stro n
stri kes</w>
stri an</w>
stret ch</w>
stra w
stra p</w>
str o</w>
store fron
storefron ts</w>
sto ck</w>
sto ck
stic ally</w>
ste red</w>
ste am</w>
st ry</w>
st ati
st arts</w>
st acks</w>
ssi ve</w>
ss y</w>
squir re
squirre l</w>
spon so
sponso red</w>
spi ke</w>
spect ac
spani sh</w>
span dex</w>
sp in</w>
somb re
so lit
so il</w>
snowboar ders</w>
snow capped</w>
sno wing</w>
sni ffs</w>
sn aps</w>
smo oth</w>
slic ing</w>
slee p</w>
skim py</w>
sin gers</w>
si on
shoe shine</w>
shiel ds</w>
shel ves</w>
she ets</w>
she er</w>
sha dy</w>
ser ved</w>
see saw</w>
seas on</w>
sear ching</w>
seagu ll</w>
sculp ting</w>
scant ily</w>
sc ales</w>
san ds</w>
sa ying</w>
sa la
sa il</w>
s ound</w>
s ons</w>
s nap</w>
s at
s acks</w>
s -
run -down</w>
ru bble</w>
row boat</w>
roun ding</w>
rou gh
roo ms</w>
rollerbla der</w>
roller skaters</w>
ro l</w>
ro bo
robo t</w>
ri ses</w>
ri es</w>
ren ch</w>
regi on</w>
rec lines</w>
re turns</w>
re mot
re hear
re f</w>
re cre
recre ational</w>
rac ks</w>
ra ke</w>
r is</w>
r d</w>
qu il
qu a
pun k</w>
pu b</w>
pri est</w>
pre tending</w>
pre ss
post al</w>
positi oned</w>
pop corn</w>
pon ge
ponge Bo
pongeBo b</w>
pol ka
polka -
po ver
po tted</w>
po sts</w>
po sters</w>
po sse
po king</w>
plu sh</w>
ple as
pin striped</w>
pin ned</w>
pil lars</w>
pil ed</w>
pic tured</w>
pi ed</w>
ph ysi
pers ons</w>
per ha
perha ps</w>
pen gu
pee ks</w>
ped al</w>
peac ock</w>
pe tals</w>
pe dd
pe ak</w>
passer by</w>
pas sion
pas sed</w>
part ying</w>
parachu ting</w>
par ts</w>
pan el</w>
pan cake</w>
paint ings</w>
pad ded</w>
pa uses</w>
pa g
pag ne</w>
p ride</w>
p hal
phal t</w>
oun d
oper ation</w>
ope ned</w>
on able</w>
old- fashioned</w>
off ering</w>
occu pied</w>
obser vers</w>
o o
o ar</w>
o -
no w</w>
nic ely</w>
ni b
ne e
n er
n at
must ard</w>
multicolo r</w>
mu ffs</w>
motor bikes</w>
mori al</w>
mon opoly</w>
mo thers</w>
mo ps</w>
mini van</w>
min i</w>
mil k</w>
mer ch
merch ant</w>
me tro</w>
me tro
mb s</w>
mb er</w>
mat tress</w>
mas ked</w>
mar ks</w>
mar ches</w>
mannequ in</w>
maj or</w>
ma il
ma id</w>
m x</w>
lu c
loo se</w>
lon ely</w>
lo wing</w>
lo wered</w>
lo st</w>
lo ck</w>
lit ter</w>
lin ger
linger ie</w>
lin er</w>
li st</w>
li k
lik ely</w>
lean ed</w>
le ts</w>
le m
le ast</w>
le ashes</w>
lay ers</w>
lap id
lapid ated</w>
lanter n</w>
la st</w>
la sso</w>
la ke
la dd
la ble</w>
l ou
l o</w>
kno w</w>
knee- high</w>
kit es</w>
kimon os</w>
ki es</w>
ker chi
ke l</w>
k u
k id
je ts</w>
javel in</w>
j ar</w>
iti on</w>
it yscape</w>
it h</w>
ip es</w>
inter viewed</w>
inter act</w>
instruc ting</w>
instal ling</w>
inspec t</w>
ing ly</w>
inclu des</w>
in tri
in di
in coming</w>
in -
im ac
ic ature</w>
ic ans</w>
i sts</w>
i ors</w>
hor ns</w>
hoo ping</w>
ho ne</w>
histori c</w>
head set</w>
har p</w>
hand ling</w>
hand les</w>
hand le
han d-
ham mers</w>
hal f
hair style</w>
h it
gu m</w>
gro wing</w>
green ery</w>
gre y</w>
graffiti ed</w>
gr ins</w>
gr imac
go ats</w>
gli der</w>
girl friend</w>
ge -
gal lo
g n
g ger</w>
g ent</w>
frien dly</w>
form ations</w>
for d</w>
flee ce</w>
fla t
fl our</w>
fish er
fisher men</w>
fir ing</w>
fil ls</w>
fi x
ffe l</w>
fea thers</w>
far m
fair y</w>
fac ed</w>
fac ade</w>
f erry</w>
eye glasses</w>
expre ssions</w>
explo ring</w>
exhib ition</w>
excite ment</w>
ex its</w>
equ e
eque strian</w>
en na</w>
en gage</w>
emer ging</w>
emb race</w>
elephan ts</w>
ele mentary</w>
el se</w>
ear rings</w>
ear muffs</w>
eag erly</w>
e scape</w>
e p
e m
e ful</w>
e c
dun king</w>
dun es</w>
dro ps</w>
dro pped</w>
drib bles</w>
dri vers</w>
dri lling</w>
dri ed</w>
don keys</w>
do m</w>
direc ts</w>
dir t-
di sh
di lapidated</w>
descen ding</w>
del ic
decor ating</w>
day light</w>
dan t</w>
d run
d den</w>
d al</w>
cur ren
cup cake</w>
cru ise</w>
crow ns</w>
cre di
cra zy</w>
cra dles</w>
cool ers</w>
cool er</w>
coo kies</w>
coo ked</w>
conver tible</w>
conte m
confu sed</w>
conditi ons</w>
concentr ates</w>
con tin
con tents</w>
competit ors</w>
comm unity</w>
comfor ting</w>
comfor table</w>
collec ting</w>
cob bled</w>
co stumed</w>
cloth s</w>
clo thesline</w>
cli ffs</w>
cle aring</w>
clarin et</w>
chi ps</w>
chee ks</w>
che ws</w>
che sted</w>
cham pagne</w>
chain ed</w>
cha ins</w>
ch unk</w>
ch at</w>
cat tle</w>
carri ed</w>
carou sel</w>
car ved</w>
car ve</w>
car toon</w>
car icature</w>
can opy</w>
camp site</w>
camp ers</w>
ca sts</w>
c ityscape</w>
button -up</w>
business man</w>
bur gers</w>
bun ny</w>
bu shy</w>
bro w</w>
bri ck-
brea ks</w>
brea king</w>
bre ath</w>
boun ding</w>
book shelf</w>
blur ry</w>
blo sso
blo cked</w>
blind folded</w>
bit es</w>
beg inning</w>
be sides</w>
bat on</w>
bat man</w>
base man</w>
ban ging</w>
bam a</w>
balan ced</w>
back ward</w>
back stroke</w>
back lit</w>
back hoe</w>
ba thro
b rac
b mx</w>
atten tively</w>
atten dant</w>
at us</w>
assi stant</w>
ash ed</w>
ascen ding</w>
as sor
as phalt</w>
arm or</w>
are as</w>
arch way</w>
ar id</w>
appe aring</w>
appar atus</w>
an tly</w>
an sw
an gry</w>
am ic</w>
ai lable</w>
af fe
ado le
ac cep
a x</w>
a bly</w>
Wh ite</w>
W i
W el
V ol
V i
Uni versity</w>
Sub way</w>
St .</w>
Sp id
S treet</w>
S t</w>
S pongeBob</w>
S pee
S cho
Roller blades</w>
O bama</w>
N i
N ative</w>
McDonal ds</w>
M ouse</w>
M on
M e
Jap an</w>
I tal
H u
H ol
G u
F a
E ast</w>
Con cert</w>
C laus</w>
C ar
Bo ston</w>
B i
Ara bi
Amer icans</w>
A mish</w>
0 s</w>
0 0</w>
zo o
z z</w>
z ip
z i
z a
young sters</w>
yo -
yo- yo</w>
yel low
yellow -
ye red</w>
yc ler</w>
y st
y our</w>
y ork</w>
y ond</w>
y et</w>
y back</w>
wra pping</w>
wr ite</w>
work bench</w>
wo ol</w>
wn ers</w>
windo w
win ning</w>
wic ker</w>
wi gs</w>
whis per
whisper ing</w>
wet suits</w>
weigh ing</w>
wea ve</w>
wea thered</w>
we ird</w>
we eds</w>
we b</w>
water -
wash ed</w>
war ning</w>
war mly</w>
w ling</w>
w ipes</w>
w aring</w>
violin ist</w>
villa gers</w>
vie wer</w>
videota ping</w>
videota pes</w>
vi a</w>
ven t</w>
ve ter
ve lo
vac ation</w>
va ult</w>
v ation</w>
v a</w>
ur in
unidentifi ed</w>
un paved</w>
un packing</w>
un a</w>
um ping</w>
um e</w>
ul ture</w>
ul ing</w>
u ten
uten si
u sed</w>
u red</w>
u ku
uku le
ukule le</w>
u de</w>
ty pical</w>
twir ls</w>
twir ling</w>
tw il
twil ight</w>
tw el
twel ve</w>
tur t
tun ing</w>
tu s</w>
ts man</w>
troo ps</w>
tro mbo
trombo ne</w>
tri o</w>
tri ms</w>
tri c</w>
tri be</w>
tran sport</w>
tra m</w>
tra ined</w>
tor n</w>
to sses</w>
to pus</w>
to pic</w>
to ast</w>
tight rope</w>
ti p</w>
ti ghtly</w>
thou ght</w>
th ouse</w>
th or
th ink</w>
th er
tex ts</w>
ter race</w>
ter ing</w>
ter ia</w>
tel ling</w>
tech no
techno lo
technolo gy</w>
tech ni
techni que</w>
tax is</w>
tau ght</w>
tat tered</w>
tar bucks</w>
tal ler</w>
tain ed</w>
ta sty</w>
ta sting</w>
ta ste</w>
ta p</w>
t- like</w>
t in</w>
t ches</w>
t balls</w>
t a</w>
sy m
swim wear</w>
sweat y</w>
swa gen</w>
sw amp
swamp y</w>
surroun dings</w>
sunba thers</w>
sun rise</w>
sun hat</w>
sum o</w>
submer ged</w>
sub stance</w>
su s</w>
su cking</w>
su ch</w>
stu dies</w>
stron au
stri p</w>
stri es</w>
street light</w>
stre e
stree t-
stre aks</w>
straw berry</w>
stra ps</w>
str ated</w>
stor age</w>
stock ings</w>
sto ols</w>
sto cking</w>
ste er</w>
ste aks</w>
statu es</w>
stati on
station ary</w>
stan ts</w>
stal ks</w>
stair well</w>
stac king</w>
sta y</w>
st rac
st irs</w>
st en
squ ar
squar es</w>
sprin ting</w>
spi kes</w>
spi ked</w>
spect ate</w>
spea kers</w>
spe ar</w>
spar se</w>
sp reads</w>
sp ite</w>
sor ts</w>
some on
someon es</w>
sombre ro</w>
solit ary</w>
sol o</w>
sol dering</w>
so late</w>
snow bank</w>
snor kel</w>
sne y</w>
smo o
smoo thing</w>
sm ith</w>
slo ping</w>
slic es</w>
sli p</w>
slee ved</w>
sle ds</w>
sla m</w>
sk y-
sk in</w>
sk et
sk ele
sign al</w>
si p</w>
si mil
simil arly</w>
si ght</w>
si ding</w>
shoo ts</w>
shi t</w>
she ep
sha ve</w>
sha pes</w>
sen iors</w>
sele ction</w>
sele cting</w>
sele c
see ds</w>
sea weed</w>
se t
se re
sere ne</w>
se es</w>
se am
seam stre
sculp tor</w>
scre w
scrat ching</w>
scra per</w>
scra p</w>
sco tch</w>
sco op</w>
scar ed</w>
sca le</w>
sc out</w>
sau sa
sausa ges</w>
sand al</w>
sala d</w>
sal u
sail boats</w>
sad dle</w>
sa fe</w>
s que</w>
s pa
s our
s lot</w>
s lin
s len
slen der</w>
s lab</w>
s at</w>
s ashes</w>
rubb ing</w>
ru shing</w>
roun ds</w>
roo ts</w>
roo ster</w>
roo m
roller- bla
road work</w>
ro se</w>
ro ping</w>
ro de</w>
ro cking</w>
rit ual</w>
ri sing</w>
ri dding</w>
retrie ving</w>
remot e</w>
reflec tions</w>
recor ds</w>
recei ves</w>
recei ve</w>
read ying</w>
re turning</w>
re tail</w>
re sid
re pe
re moving</w>
re luc
re ar</w>
re al</w>
rail way</w>
rai ds</w>
ra mps</w>
ra ble</w>
ra bb
rabb its</w>
qui ck</w>
qua int</w>
puzz le</w>
pur su
pur chasing</w>
pu ffy</w>
projec ted</w>
profession als</w>
pro pe
pro mo
promo ting</w>
pri zes</w>
pri m
press ure</w>
prepar ation</w>
pre ss</w>
pow er
pow der</w>
pover ty</w>
potat oes</w>
posse ssion</w>
pon ders</w>
pon cho</w>
polit an</w>
po wered</w>
po lish</w>
po kes</w>
po i
poi sed</w>
plu gging</w>
plu cking</w>
plo wing</w>
play pen</w>
plan es</w>
pla ting</w>
pla ins</w>
pitch ers</w>
pir ates</w>
pin g-
ping- p
ping-p ong</w>
pin e
pier cing</w>
pier ced</w>
pick up</w>
pic ker</w>
pi gg
pigg yback</w>
pi g</w>
photograph y</w>
ph in</w>
pen sive</w>
peac eful</w>
pe ted</w>
pe eling</w>
pe b
pat ri
passion ately</w>
participat es</w>
partici pants</w>
paras ol</w>
par tly</w>
par a
paint brush</w>
pad ding</w>
pack ages</w>
pa ws</w>
pa stries</w>
p scotch</w>
p run
p ers</w>
ox en</w>
over turned</w>
over sized</w>
over pass</w>
over hang</w>
over coat</w>
over -sized</w>
out fiel
ound ation</w>
ot el</w>
organi zing</w>
organi zed</w>
ore scent</w>
or ously</w>
or nament</w>
or na
or ge
orge ous</w>
or ders</w>
or ary</w>
open- air</w>
on e
on ce</w>
offe e</w>
occur ring</w>
oc topus</w>
obser ved</w>
o y</w>
o wners</w>
o od</w>
o me
o graph
noo dles</w>
no te</w>
no r</w>
nic s</w>
ni a</w>
na me
n y
n in
muzz les</w>
must ached</w>
multi -
mu sh
motor boat</w>
motor -
mo ti
mo on</w>
mix ed</w>
min d</w>
mid- jump</w>
mi sc
metro politan</w>
metal lic</w>
mess en
messen ger</w>
mer maid</w>
medi a</w>
med it
mechan ical</w>
mechan ic</w>
me tery</w>
me ter</w>
me morial</w>
me ly</w>
me g
meg ap
megap hone</w>
mat ically</w>
mas car
mascar a</w>
mar sh</w>
mar kings</w>
maneu vering</w>
maneu ver</w>
man i
mail box</w>
loun ges</w>
loo p</w>
lo t
lo lli
lolli pop</w>
lo com
locom o
lo ck
ligh thouse</w>
life guards</w>
li p</w>
li mb</w>
lem ons</w>
leaf less</w>
le mon
le i</w>
land sca
lan ded</w>
ladd ers</w>
la yered</w>
la w</w>
la sso
la ho
laho ma</w>
la ce</w>
kni ves</w>
kit ten</w>
kil ts</w>
kid die</w>
kick boxing</w>
ket tle</w>
kee ping</w>
kaya kers</w>
kaya ker</w>
k swagen</w>
k night</w>
k lahoma</w>
jun k</w>
jo ggers</w>
jewel ery</w>
j an
jan it
janit or</w>
ite c
itch en
itchen A
itchenA id</w>
it self</w>
it ation</w>
inten se</w>
instruc tor</w>
infla ted</w>
in line</w>
in ger</w>
in e
in as</w>
in age</w>
impre ssive</w>
il led</w>
id es</w>
ic e-
iP od</w>
i ster</w>
i gh</w>
hun g</w>
hu sky</w>
holi day</w>
ho ses</w>
ho pscotch</w>
hin g
hing ton</w>
high- fi
high-fi ves</w>
hi spanic</w>
hi ps</w>
hi kes</w>
hi dden</w>
hi c</w>
hel ped</w>
head scarves</w>
head bands</w>
he al
handle bars</w>
hambur gers</w>
hal ter</w>
ha uling</w>
ha u
ha ppe
h enna</w>
gymna stic</w>
gy p
guitari sts</w>
guar ding</w>
gu lar</w>
gu ed</w>
gre eting</w>
gre ens</w>
grap hic</w>
gradu ation</w>
golf er</w>
gol d-
go ver
go of
ge ese</w>
ge e</w>
gallo ping</w>
g orgeous</w>
g lan
g ated</w>
g an</w>
fru strated</w>
fro sting</w>
fro g</w>
fra mes</w>
four- wheeler</w>
four th</w>
form ally</w>
for tun
for nia</w>
for ces</w>
for cement</w>
foot bridge</w>
flu orescent</w>
floo red</w>
flo ppy</w>
fle a</w>
flat bed</w>
fla sh
fire trucks</w>
fic ial</w>
fi st</w>
fi er
ff les</w>
ff le</w>
fet ching</w>
fen ces</w>
fee der</w>
fe teria</w>
fashi onable</w>
fam il
f oundation</w>
f ine</w>
f ed</w>
f ati
extre mely</w>
exten ded</w>
exc iting</w>
ex posed</w>
ex it</w>
ex cept</w>
er l
er a</w>
enthusia stically</w>
entertain er</w>
entertain ed</w>
en ter</w>
en closed</w>
electro nics</w>
el et</w>
eg as</w>
eat ery</w>
ear ly</w>
e d
e ast</w>
dun k</w>
drib bling</w>
dri ven</w>
dre ads</w>
dra matically</w>
dra inage</w>
dra g</w>
dou ble</w>
domin oes</w>
dol phin</w>
dol ly</w>
do zens</w>
do cu
dit ch</w>
dish washer</w>
dis k</w>
direc tly</w>
din ers</w>
di sco
di a
desig ner</w>
descen d</w>
depic ting</w>
demonstr ating</w>
delic ious</w>
defen sive</w>
defen ds</w>
defen ders</w>
dec ide</w>
de spite</w>
de solate</w>
de al
dau ghters</w>
da ys</w>
d- in</w>
d i</w>
d an</w>
curren tly</w>
curi ous</w>
cur ling</w>
cup cakes</w>
cu bic
cubic le</w>
cru tches</w>
cri b</w>
cre ature</w>
cre ated</w>
craf tsman</w>
cra yon</w>
cra b</w>
cover alls</w>
coun ter
cot tish</w>
cor ds</w>
coo kie</w>
conven tion</w>
contro ls</w>
contem plating</w>
construc ting</w>
con so
con sid
competiti vely</w>
compet es</w>
communic ating</w>
com mu
com b</w>
colli de</w>
collec tion</w>
cocon uts</w>
coa st
co lon
co al</w>
clo ser</w>
cler k</w>
clean ed</w>
cla w</w>
circu s</w>
circu it</w>
cin der</w>
ci vil</w>
chu bby</w>
chisel ing</w>
chick ens</w>
chi p</w>
chi m
char coal</w>
ch ure</w>
ch ange</w>
celebr ates</w>
ce metery</w>
car peted</w>
cam per</w>
cam e</w>
cal ling</w>
cad es</w>
ca feteria</w>
ca bin
ca -
ca- Cola</w>
c t</w>
button -down</w>
but ch
bun gee</w>
bull dog</w>
bu sh
bu ses</w>
bu oy</w>
bu ggy</w>
bron ze</w>
bro chure</w>
bri mmed</w>
bri dal</w>
break fast</w>
brac elet</w>
br inging</w>
bow ler</w>
boun cy</w>
boul ders</w>
bor dered</w>
book store</w>
book bag</w>
bo ss</w>
bo ating</w>
blue- green</w>
blo w
black -
ber ty</w>
be yond</w>
be st</w>
be gging</w>
be ats</w>
be ards</w>
be ad</w>
bathro be</w>
bat ons</w>
baske tballs</w>
base ment</w>
bar k</w>
baller inas</w>
balcon ies</w>
bal es</w>
ba y</w>
b ump
b raids</w>
av ailable</w>
auto mobile</w>
attrac tion</w>
at ors</w>
at ers</w>
assem bly</w>
as m</w>
as hington</w>
arti ficial</w>
arch itec
appro ach</w>
appar el</w>
ap pre
an k
ama ha</w>
am ar
ali zed</w>
ali ke</w>
ali fornia</w>
ali a</w>
alcoho l</w>
air craft</w>
ado rable</w>
ad van
ad just</w>
ack ers</w>
accep ting</w>
a void</w>
a stronau
a ster</w>
a ker</w>
a -
Y amaha</w>
Wo men</w>
Wel come</w>
W e
W ashington</w>
V egas</w>
V e
U V</w>
U .
T- shirts</w>
T y
Spee do</w>
Scho ol</w>
S te
S tation</w>
S tarbucks</w>
S outh</w>
S cottish</w>
S al
S .</w>
R a
Q u
Par k</w>
P ol
Ori ental</w>
O klahoma</w>
Ni ke</w>
Mic key</w>
Mar ket</w>
M r
M in
L a
K itchenAid</w>
K en
Jo e</w>
J u
J ack
Is land</w>
H otel</w>
H ar
Gre en</w>
G ra
G r
G i
G a
F r
F i
E le
Di sney</w>
De ere</w>
D ay</w>
D S</w>
Co ca-Cola</w>
C he
C alifornia</w>
Bu dd
Bo y</w>
B ur
B raz
B lue</w>
B la
B al
Arabi c</w>
A pple</w>
A n
A m
- shaped</w>
zom bies</w>
zom bie</w>
zi p</w>
yst al</w>
ym pics</w>
y ot
yot a</w>
y ears</w>
y awning</w>
y ant</w>
xim ately</w>
xi ously</w>
x y</w>
x ed</w>
writ er</w>
wri sts</w>
wood working</w>
won der
wn ings</w>
window si
windowsi ll</w>
win ds</w>
win ded</w>
wild flowers</w>
wi el
wheel ing</w>
whe at</w>
wel ds</w>
we st</w>
we lling</w>
water pro
wal let</w>
wal kie</w>
wal ker</w>
wake boards</w>
wa king</w>
wa ited</w>
wa de</w>
w ron
wron g</w>
w on</w>
w ly</w>
w led</w>
w hose</w>
w an</w>
volunte ers</w>
viol ins</w>
viol et</w>
vig orously</w>
vi vid</w>
vi sit
ver s
ven tion</w>
ve stock</w>
ve sti
ve il</w>
vacuum s</w>
vac ant</w>
va ulting</w>
v ide</w>
v ated</w>
v ate</w>
v al
utensi ls</w>
ur y</w>
ur o</w>
ur a
ura i</w>
up side
upside -down</w>
up hill</w>
up coming</w>
unusu ally</w>
uni son</w>
uni qu
uniqu ely</w>
uni on</w>
under way</w>
un wraps</w>
un t</w>
un ke
unke mp
unkemp t</w>
un ice
unice f</w>
un completed</w>
umin um</w>
umb er</w>
um ming</w>
um es</w>
um a</w>
um -sized</w>
ul ts</w>
u pper</w>
two- piece</w>
twir l</w>
twi gs</w>
tuxe dos</w>
turt len
turtlen e
turtlene ck</w>
tur b
turb ans</w>
tun ity</w>
tu tus</w>
tu g</w>
tu ba</w>
trum pets</w>
trou ble</w>
tro ts</w>
tric ycles</w>
tri ps</w>
tre sses</w>
tre ats</w>
tre at
treat ment</w>
trans form
tran sporting</w>
tra p</w>
tra l</w>
tra ils</w>
tr in
tow ering</w>
tow ed</w>
too k</w>
toil ets</w>
to ss</w>
to ri
to pped</w>
to p-
to en
toen a
to b
tob acc
tobacc o</w>
tit ude</w>
tic s</w>
tic kets</w>
tic ally</w>
ti e-
thre w</w>
tho scope</w>
th rough
through out</w>
th read</w>
th care</w>
tex as</w>
ter ior</w>
ten ing</w>
tel ls</w>
tech nic
te x</w>
te thered</w>
te sting</w>
te mp
temp orary</w>
te e-
tee- shirt</w>
te e
tas ks</w>
tan tly</w>
tan ned</w>
tan k-
tank- top</w>
tan gular</w>
tan g
tan e
tamb our
tambour ine</w>
tal kie</w>
take out</w>
tail ed</w>
ta ping</w>
t- out</w>
t z
t v</w>
t te</w>
t t</w>
t rough</w>
t reads</w>
t out</w>
sym phon
symphon y</w>
swe et</w>
swe ep</w>
swe ating</w>
sw er
sw ans</w>
suspen sion</w>
surf boards</w>
sun hats</w>
sun -
sum e</w>
sub ject</w>
su ited</w>
su ite</w>
su ds</w>
stu dy</w>
stru ggle</w>
stro be</w>
street lights</w>
stre wn</w>
stre ams</w>
stre am
stre ached</w>
stra ining</w>
str umming</w>
stor ted</w>
ston y</w>
ston e-
stom ach
sto pping</w>
sto o
stic ker</w>
ste thoscope</w>
ste ering</w>
ste e
statu te</w>
stat es</w>
sta ying</w>
sta ined</w>
st pan</w>
st a</w>
ss ue</w>
ss el</w>
squ in
squin ting</w>
squ at</w>
sprink ling</w>
sprink les</w>
sprink led</w>
sprin ts</w>
spon ge</w>
spir al</w>
spi king</w>
spen ding</w>
spectac ular</w>
spark lers</w>
spark ler</w>
spar ks</w>
spa gh
spagh et
sp reading</w>
sp lit
sp its</w>
sp inner</w>
sp illed</w>
sp a</w>
so on</w>
so mer
somer sa
somersa ult</w>
so lid</w>
so li
soli der</w>
so lar</w>
so ck</w>
snow s</w>
snow mobile</w>
snow fla
snor k
sno o
sn ar
sm ir
smir king</w>
sm eri
smeri zed</w>
slo wly</w>
slee k</w>
sle igh</w>
sl ou
sky scraper</w>
sket ch</w>
skele ton</w>
sk ly</w>
sk ill</w>
sk ill
skill fully</w>
sk e
sit u
sil ver
sil k</w>
sign als</w>
si zes</w>
si ze</w>
si ps</w>
si ppy</w>
si pping</w>
si mul
simul tane
si ans</w>
shu t
shoul d</w>
sho ts</w>
shiel ding</w>
shi sh</w>
shi on</w>
shi er</w>
shel ter</w>
sheep dog</w>
shaw ls</w>
shado wed</w>
sha mpo
sha ding</w>
sha ded</w>
sh un
sh rubb
shrubb ery</w>
sh ri
shri mp</w>
sh m
ser vices</w>
ser ious</w>
see ming
seeming ly</w>
secu res</w>
secu red</w>
sec t</w>
seamstre ss</w>
se xy</w>
se ssion</w>
se cre
screw driver</w>
scre ams</w>
scoo ps</w>
school girl</w>
school -
school- aged</w>
sc ue</w>
sc ru
saxo phones</w>
sau cer</w>
sat che
satche l</w>
sar i</w>
sand pit</w>
sam urai</w>
sal mon</w>
sa ve</w>
sa una</w>
sa ic</w>
sa f
saf ely</w>
s woo
s pic
s lu
run g</w>
ru ler</w>
row ers</w>
rout e</w>
roller- skating</w>
ro t</w>
ro ning</w>
ro le</w>
ro foam</w>
ro ds</w>
ro bed</w>
ri t</w>
ri pped</w>
ri pp
ri g</w>
ri dor</w>
ri d</w>
ri ck</w>
retrie ver</w>
restaur ants</w>
respon ding</w>
repor ter</w>
remo ved</w>
releas ed</w>
rela ted</w>
rehear sing</w>
reflec ting</w>
refe re
refere es</w>
rec tangular</w>
rec liner</w>
rec ently</w>
re viewing</w>
re se
re scue</w>
re presenting</w>
re ograph
re na
rena i
renai ssance</w>
re moves</w>
re move</w>
re ly</w>
re fu
re fre
refre shing</w>
re en
re co
re ci
re -
rain storm</w>
rac quet</w>
ra ther</w>
ra ppe
rappe lling</w>
ra kes</w>
ra gs</w>
ra gged</w>
ra der</w>
r an</w>
quil t</w>
pursu ed</w>
pump kins</w>
pul ley</w>
pu ddles</w>
prun ing</w>
prou dly</w>
prou d</w>
prote ster</w>
prope ll
profession ally</w>
proce ssion</w>
pro vide</w>
pro vi
pro pane</w>
pro gr
pro file</w>
prin cess</w>
prim iti
primiti ve</w>
pri sed</w>
pre vent</w>
pre tends</w>
pre ssing</w>
pre sses</w>
pre gn
pregn ant</w>
pra yer</w>
pra y</w>
power point</w>
pou ting</w>
post -
positi ons</w>
portra its</w>
pony tails</w>
pon cho
poncho s</w>
polka- dot</w>
poin ty</w>
po pula
po pping</w>
po or
poor ly</w>
po li
po ker</w>
po ckets</w>
pleas ant</w>
play house</w>
plat ter</w>
pitch es</w>
pitch ed</w>
pier c
pierc ings</w>
peri od</w>
pengu in</w>
ped als</w>
pe e</w>
patri otic</w>
pati ently</w>
pat ron</w>
pat rol</w>
pat ches</w>
past ure</w>
past ry</w>
past or</w>
part ner</w>
par lor</w>
par ka</w>
par al
pan y</w>
pan eled</w>
pan da</w>
pain ters</w>
pain tball</w>
padd lers</w>
pa ying</w>
pa w</w>
pa ving</w>
pa use</w>
pa irs</w>
pa ign</w>
pa ges</w>
pa ge</w>
p ump</w>
p har
phar mac
p ace</w>
ow ned</w>
over looks</w>
over grown</w>
over all</w>
outfiel der</w>
out streached</w>
out cro
outcro pping</w>
our n
oun g</w>
ore an</w>
or tunity</w>
or m
opp ortunity</w>
op in
onloo ker</w>
on ry</w>
on -
ome tric</w>
ol lie</w>
ol den</w>
off ers</w>
od gers</w>
oc a</w>
o x</w>
o ple</w>
o ke</w>
o ed</w>
nur sing</w>
num be
numbe red</w>
nu ts</w>
note books</w>
noo dle</w>
no tice</w>
nin j
nib bling</w>
nee ded</w>
ne eds</w>
navig ating</w>
nat ural</w>
nap kin</w>
name se</w>
n ment</w>
n ched</w>
n ati
mustac hi
mustachi oed</w>
mush room</w>
multi- color</w>
moo se</w>
mon ks</w>
mo ved</w>
mo sque</w>
mo saic</w>
mo pping</w>
mo del
mo b
mirro red</w>
mini skirt</w>
middle- age</w>
mi xes</w>
mi sty</w>
mi res</w>
mi ght</w>
men us</w>
medit ating</w>
medi um-sized</w>
med als</w>
me smerized</w>
me lons</w>
me dian</w>
me als</w>
mat h</w>
mat ches</w>
mat ado
matado r</w>
mas onry</w>
mar ina</w>
mannequ ins</w>
mani pula
maneu vers</w>
man ual</w>
man ner</w>
man ic
man hole</w>
main tained</w>
mac he
mache te</w>
ma ster</w>
ma il</w>
ma gi
magi c</w>
ma ge</w>
ma d</w>
ma c</w>
m ly-
mly- lit</w>
m ine</w>
m ill</w>
ly wood</w>
ly -colored</w>
lot tery</w>
lo rs</w>
lo dge</w>
lo cked</w>
lla ma</w>
lit tered</w>
lit er
lin ging</w>
li vestock</w>
li ves</w>
li ster</w>
li mo</w>
li ed</w>
li berty</w>
let ter</w>
leot ards</w>
lemon ade</w>
leaf y</w>
le mon</w>
le ashed</w>
laun ching</w>
laun ches</w>
lasso ing</w>
land mark</w>
lan gu
langu age</w>
lan ce</w>
lake side</w>
la unch</w>
la tion</w>
la tex</w>
la ps</w>
la dle</w>
la ces</w>
l un
l ly</w>
l -
kne ss</w>
kne el</w>
kn its</w>
kin ds</w>
kick boxer</w>
kic ker</w>
ki ssed</w>
key boards</w>
kee per</w>
k lift</w>
k it</w>
k art</w>
k abo
ju gg
ju g</w>
jo gger</w>
jack hammer</w>
ja zz</w>
ja gged</w>
j ourn
j ars</w>
it ar</w>
ish a</w>
intri cat
intricat e</w>
inter views</w>
inter view</w>
inter ior</w>
inten do</w>
inte rested</w>
infla ting</w>
inf ants</w>
inc lined</w>
in vesti
in timate</w>
in ner
in ger
in formal</w>
in dex</w>
in credi
ic o</w>
ic ing</w>
ic ed</w>
ic ap
icap ped</w>
i spanic</w>
i shed</w>
i roning</w>
i ons</w>
i f
i ds</w>
i ans</w>
hur t</w>
hur dles</w>
hun dre
hundre ds</w>
hula- hoops</w>
hula- hoop</w>
hudd ling</w>
hu ts</w>
hou sing</w>
hou se
horse -
horse- drawn</w>
horiz on
holi days</w>
hol ing</w>
ho vering</w>
ho nor</w>
high ly</w>
hi st</w>
hi o</w>
her o</w>
heal thcare</w>
head gear</w>
hea der</w>
he eled</w>
he dge</w>
he art
heart beat</w>
hat ted</w>
hat ch
har d-
happe ning</w>
hand made</w>
hand kerchi
hand icapped</w>
hand ful</w>
hambur ger</w>
half -
hal loween</w>
hal lenge</w>
hair net</w>
ha zard</w>
h itch
h es</w>
h ate</w>
gu ing</w>
gu est</w>
gu e
grou ped</w>
grimac ing</w>
gri pping</w>
green -
gre et</w>
grand mother</w>
gran dd
grandd au
granddau ghter</w>
gradu ate</w>
gra ze</w>
gra ying</w>
gr ounds</w>
gr id</w>
gover nment</w>
go o
gla ss
gi g</w>
gi fts</w>
ght ly-colored</w>
gen tly</w>
ge ometric</w>
ge isha</w>
gar ment</w>
g out</w>
g on
g low</w>
g lit
g inger
g in</w>
g i</w>
g ay</w>
g ating</w>
g ates</w>
g am
fro wning</w>
fro lic</w>
free way</w>
fortun e</w>
for rest</w>
for klift</w>
for ce</w>
foot prints</w>
fol d-up</w>
focu ses</w>
fo x</w>
flow ering</w>
floo ded</w>
floo d</w>
flo tation</w>
fli ppers</w>
fli ghts</w>
fli ers</w>
flash light</w>
fla ted</w>
fla ps</w>
fla mbo
fix ture</w>
fit ness</w>
fini shes</w>
finger tips</w>
finger nail</w>
fin al</w>
fil ms</w>
fig ur
fi sts</w>
fi res</w>
ff ic
festi ve</w>
fen ce
fence d-in</w>
fee ds</w>
fe ed</w>
famil ies</w>
f t-
f rin
f ran
f ou
f au
extre me</w>
explo sion</w>
explo res</w>
explo rer</w>
ex tra
ex tends</w>
ex posing</w>
ex plains</w>
ex pensive</w>
ex pe
ex e
exe cu
ex ca
every where</w>
every one</w>
ever green</w>
eth nic
erl in</w>
equip ped</w>
enthusia stic</w>
enthusi ast</w>
enthusi asm</w>
entertain ment</w>
enter tains</w>
enter taining</w>
enga ges</w>
en ters</w>
en forcement</w>
en ds</w>
en ded</w>
en d
en clo
enclo sure</w>
en ai
enai ssance</w>
elev ator</w>
electri ci
electrici an</w>
electri cal</w>
el l</w>
el bow</w>
ef fort</w>
ear ring</w>
ear bu
earbu ds</w>
e ze</w>
e very</w>
e ro
e olo
e m</w>
dun ks</w>
du stpan</w>
du gout</w>
du ffel</w>
du cking</w>
drun k</w>
dri ft</w>
dri es</w>
dress er</w>
dre nched</w>
down wards</w>
dor m</w>
don uts</w>
do zen</w>
do o
do jo</w>
direc tor</w>
direc ted</w>
dig ger</w>
di verse</w>
di stri
di storted</w>
di mly-lit</w>
di le</w>
di d
descen ds</w>
den tist</w>
den -
demonstr ates</w>
deli very</w>
dec als</w>
deal er</w>
de ter
de scri
de flated</w>
de cker</w>
dark ly</w>
dar ts</w>
dar kness</w>
dan g
d welling</w>
d umps</w>
d app
dapp led</w>
d al
dal m
cur tain</w>
cu tout</w>
cu to
cu t-out</w>
cu shion</w>
crou ch</w>
cro tch</w>
cro co
croco dile</w>
cre e
cre ative</w>
cre am
crash es</w>
crash ed</w>
cra g</w>
cr ystal</w>
cover ings</w>
counter top</w>
coun ty</w>
coun ters</w>
cor ridor</w>
cor ral</w>
cor n
cor der</w>
cor d</w>
conte stants</w>
contain ers</w>
congreg ating</w>
congreg ated</w>
conce ssion</w>
con tent</w>
con tains</w>
con t
commu ters</w>
collec ted</w>
cocon ut</w>
cli p
cle ats</w>
cla s
cla ms</w>
ck led</w>
cir cles</w>
chur ning</w>
cho reograph
chim ney</w>
chi pper</w>
che w</w>
che mi
che ers</w>
char ging</w>
chal lenge</w>
chal len
cha eolo
ch y</w>
ch art</w>
cere al</w>
cer ti
cer amic</w>
cel l</w>
cat amar
catamar an</w>
care ssing</w>
care ful</w>
car pen
cap tures</w>
cap tured</w>
cap tain</w>
cap es</w>
can ned</w>
can ister</w>
can es</w>
camera men</w>
cam ps</w>
cam paign</w>
cam corder</w>
cabin et</w>
ca shier</w>
ca ges</w>
ca ged</w>
c ycles</w>
c ycle</w>
c tic</w>
c ry</w>
c racks</w>
c ally</w>
c ac
butch ering</w>
but ter</w>
but t</w>
bump er</w>
bu lls</w>
bu lance</w>
bu d
brow ni
brin dle</w>
brick- paved</w>
bri skly</w>
bri ghtly-colored</w>
bri efs</w>
brea st
bow ties</w>
bow ed</w>
boun ces</w>
boun cer</w>
boun ce</w>
bor dering</w>
bor der</w>
bo red</w>
bo dies</w>
bo a</w>
blow -up</w>
blosso ming</w>
bloo m</w>
blon ds</w>
blon de</w>
blo wn</w>
black top</w>
bla de</w>
bl e-
bir d
bil li
bic ycler</w>
beauti fully</w>
bear er</w>
be tter</w>
be ater</w>
be ars</w>
be ans</w>
be ag
beag le</w>
bath ed</w>
bat tery</w>
barri cades</w>
barri cade</w>
bare -
bare- chested</w>
bar bie</w>
ban quet</w>
ban ks</w>
bag pipe</w>
back hand</w>
ba ggage</w>
b races</w>
b out
b ins</w>
b att
batt ling</w>
b ats</w>
b -
audi o</w>
atten d</w>
att aches</w>
at tired</w>
at own</w>
at man</w>
at ched</w>
astronau t</w>
assor tment</w>
assi st</w>
as hore</w>
as e</w>
arri val</w>
arran ged</w>
are P
areP ants</w>
ar th</w>
ar mo
ar guing</w>
ar chaeolo
ar a
aqu atic</w>
appro ximately</w>
app lied</w>
ap pla
answ ers</w>
an tic
an d-
amu sed</w>
ama zing</w>
al uminum</w>
al ig
air -
ag ility</w>
advan tage</w>
adole scent</w>
ad mires</w>
ad dressing</w>
ad dresses</w>
ad ding</w>
ack er</w>
ach shun
ach i</w>
accompan ies</w>
ac ts</w>
ab s</w>
ab il
a wnings</w>
a we</w>
a waits</w>
a vi
a ver
a king</w>
a k
a in</w>
a im</w>
a der</w>
Y oung</w>
Wi i</w>
W all</w>
W A
U. S.</w>
To yota</w>
Te am</w>
T ur
T ha
T er
T a
T H
T E
Squ arePants</w>
Spid erman</w>
S un
S ton
S pain</w>
S ou
S ho
S hi
S UV</w>
R i
R enaissance</w>
R O
Pol ice</w>
Pi zza</w>
Pe ople</w>
P op
P ho
P en
P at
O u
O re
O r
O cean</w>
O I
N ot
N intendo</w>
N a
Mon opoly</w>
Min ne
Mi ke</w>
Mex ico</w>
M ets</w>
M E</w>
Lat ino</w>
Lat in</w>
L ou
L o
L akers</w>
L E
K orean</w>
K o
Je sus</w>
J ack</w>
Ital ian</w>
Indi ans</w>
I N
I G
Hol lister</w>
H o
H ispanic</w>
H er
Gu itar</w>
Gr and</w>
Ga p</w>
G rou
G ri
G olden</w>
G en
G ar
Fr ance</w>
For d</w>
Fa ther</w>
F rench</w>
F ree</w>
F ood</w>
F la
F ire</w>
F ac
F C</w>
E ng
E aster</w>
Do min
D a
Con ey</w>
Com pany</w>
C yc
C oun
C offee</w>
C oca</w>
C ir
C hallenge</w>
C ap
C K
Budd hist</w>
Braz il</w>
BM W</w>
B ull</w>
B ir
B erlin</w>
B atman</w>
B as
B ar
B ank</w>
Au tumn</w>
Ang els</w>
Afri ca</w>
A ir
A I
A .</w>
9 5
3 rd</w>
3 0</w>
2 4</w>
0 8</w>
0 0
- style</w>
zoo ms</w>
za g</w>
za ar</w>
z ig
zig zag</w>
z ards</w>
yh ound</w>
yel ls</w>
yel iner</w>
y the</w>
y ser</w>
y or</w>
y ny
yny rd</w>
y ment</w>
y lin
y an</w>
y al</w>
y a
xy gen</w>
xi ble</w>
x ury</w>
x ion</w>
x ican</w>
x ford</w>
wrist band</w>
wri st</w>
wrest les</w>
wr angle</w>
wr ang
work ed</w>
wor shi
wor ried</w>
woo den-
won dering</w>
wo k</w>
wit s</w>
wit ne
wine glass</w>
wind surfing</w>
wind surfer</w>
wind mill</w>
win ks</w>
wild fire</w>
wiel ding</w>
wi ster</w>
wi se</w>
wi fe
wife -
wife- beater</w>
white- water</w>
whis king</w>
wheelbar rows</w>
whe re
wet land</w>
well- maintained</w>
well- lit</w>
wel ls</w>
wel der</w>
wei ghts</w>
wei ght
we stern</w>
we l</w>
we b
waterpro of</w>
water- filled</w>
water y</w>
water falls</w>
wat e
wate red</w>
wash ers</w>
was a
war ri
war mers</w>
wan ting</w>
wan ds</w>
wan dering</w>
walk ways</w>
wal lowing</w>
wake boarding</w>
wai st
wa vy</w>
wa g
wag ons</w>
wa ffle</w>
w y</w>
w rench</w>
w re
w ounds</w>
w oul
woul d</w>
w l</w>
w k
w ants</w>
w and</w>
volunte er</w>
volle y</w>
vol kswagen</w>
vol can
volcan o</w>
visit ors</w>
viol ence</w>
vil ion</w>
vil ians</w>
vie w
vic ti
victi m</w>
vi sit</w>
vi ously</w>
vi ous</w>
vi o
vi gate</w>
veter an</w>
vers al</w>
ver ted</w>
ver sion</w>
ver n</w>
ven der</w>
velo pe</w>
vel s</w>
ve yor</w>
ve ssel</w>
vari ed</w>
v ulture</w>
v re</w>
v ous</w>
v oc
v in</w>
v ating</w>
v at</w>
v ase</w>
v als</w>
v ag
vag ant</w>
urin ating</w>
urin al</w>
ur s</w>
up turned</w>
up stairs</w>
up raised</w>
up per
upper -
upper- class</w>
under side</w>
un load</w>
un friendly</w>
un e</w>
um ped</w>
um mer</w>
um bling</w>
ul tural</w>
ul ls</w>
ul k</w>
u ve</w>
u tion</w>
u res</w>
u re
u r</w>
u lic</w>
u gh</w>
u ggling</w>
u es</w>
u ding</w>
tz els</w>
ty rofoam</w>
ty pe
two s</w>
twi ster</w>
tw ins</w>
tw ined</w>
tw in</w>
tw en
tur ous</w>
tur n
tur keys</w>
tur f</w>
tur bul
turbul ent</w>
tu x</w>
tu gs</w>
tu cked</w>
tu ce</w>
troo per</w>
troo p</w>
tro wel</w>
trin kets</w>
tri m</w>
tri angle</w>
tri ang
triang le-
triangle- shaped</w>
tri -colored</w>
tre pre
trepre ne
tre n
tren dy</w>
tre k
trek king</w>
tre eless</w>
tre ed</w>
tre ad
travel ling</w>
travel ers</w>
transform er</w>
tra verse</w>
tra iling</w>
tra ding</w>
tra de</w>
tr ue</w>
tou ts</w>
tou gh</w>
tor ts</w>
tor til
tortil la
tortilla s</w>
top- hat</w>
ton gues</w>
toena ils</w>
to ting</w>
to te</w>
to mb
to ll</w>
to il</w>
to es</w>
to -
tit asking</w>
tion ary</w>
tin ted</w>
tin sel</w>
tin i</w>
til ts</w>
til ted</w>
tic k
ti ves</w>
ti vated</w>
ti s
ti pping</w>
ti pped</w>
ti more</w>
ti mes</w>
ti mber</w>
thro at</w>
thre e-
thou sands</w>
thou ght
thor ugh</w>
the ast</w>
th ong</w>
th ic</w>
th ful</w>
th en</w>
th atched</w>
tex tiles</w>
tex tile</w>
terri ers</w>
termin ed</w>
termin als</w>
ter ro
ten t-like</w>
technic ian</w>
tech n
techn ical</w>
te sts</w>
te rested</w>
te ch</w>
te as
te ars</w>
te ar</w>
te aches</w>
te achers</w>
te a
tat es</w>
tar gets</w>
tang led</w>
tamb ou
tambou rin
tambourin es</w>
tack ler</w>
ta ped</w>
ta me</w>
ta bl
tabl et</w>
t shirt</w>
t lan
tlan ta</w>
t ings</w>
t ati
sy ru
syru p</w>
swor d
swoo ps</w>
swer ves</w>
sweat pants</w>
swe ets</w>
swe at</w>
swa dd
swadd led</w>
sw ung</w>
sw ir
surf boarder</w>
sur prised</w>
suppor ts</w>
suppor ted</w>
supervi sed</w>
super vision</w>
super ior</w>
sun g</w>
sun flowers</w>
sun flower</w>
sum ably</w>
submer ges</w>
su spec
suspec t</w>
su sh
sush i</w>
su rely</w>
su per</w>
su cks</w>
su cker</w>
su c
sty list</w>
sty ling</w>
sty led</w>
stun ning</w>
stum bling</w>
stuff s</w>
strin ging</w>
stri ps</w>
stri ck
strick en</w>
street- side</w>
stream ers</w>
stre aming</w>
strac ted</w>
strac t</w>
str ums</w>
stori es</w>
stor my</w>
stoo ps</w>
stomach s</w>
ster piece</w>
stee ple
steeple chase</w>
ste l</w>
ste als</w>
ste al</w>
ste ad
stat ically</w>
stat e
state ment</w>
star ted</w>
star fish</w>
stan g</w>
sta ke</w>
sta in
stain less</w>
st rung</w>
st out</w>
st ate</w>
st ap
sser ie</w>
ss e</w>
ss -covered</w>
squir ted</w>
squ irts</w>
squ ash</w>
spra wled</w>
spot lights</w>
spor ts
spo ons</w>
split s</w>
spi rit</w>
spi red</w>
spi ky</w>
spen d</w>
spectac led</w>
speci fic</w>
speci alized</w>
spe ckled</w>
spaghet ti</w>
sp re
spre sso</w>
sp out</w>
sp ill</w>
sp id
sp attered</w>
sp are</w>
sp ar</w>
sp ans</w>
sp ac
sour ce</w>
sof tly</w>
soa king</w>
soa ked</w>
so wing</w>
so ta</w>
so d
sod as</w>
so ap
soap y</w>
snowfla kes</w>
snow suits</w>
snow storm</w>
snow shoe</w>
snow mob
snowmob iling</w>
snow falls</w>
snow ed</w>
snow drift</w>
snork eling</w>
sno opy</w>
sni ff</w>
snar ling</w>
sn uggling</w>
sn out</w>
smo ky</w>
smo ck</w>
sme lling</w>
sme ar</w>
slou ched</w>
slin g
sling shot</w>
slic ed</w>
sli ps</w>
slee py</w>
sle d
sled ge
sledge hammer</w>
sla mming</w>
sla mic</w>
sla lo
slalo m</w>
sl ung</w>
sl umped</w>
sky- view</w>
ski m</w>
sk ulls</w>
sk it</w>
sk er</w>
sk a</w>
situ ation</w>
sit es</w>
sine ss</w>
sin terested</w>
simultane ously</w>
silver ware</w>
sign post</w>
sig ni
sidel ine</w>
side walks</w>
si sters</w>
si mple</w>
si mp
simp ly</w>
si ly</w>
si cle</w>
si ck</w>
si bling</w>
shu ffles</w>
show girl</w>
show ers</w>
show cas
showcas ing</w>
short- sleeved</w>
short- sleeve</w>
shoe laces</w>
shoe ing</w>
sho pper</w>
sho ot
shm allow</w>
shin ed</w>
shi eld</w>
shel ls</w>
shel l</w>
shampo o</w>
shado wy</w>
sha l</w>
sha bby</w>
sh rubs</w>
sh r
shr ine</w>
sh outs</w>
sh acking</w>
sh -
set up</w>
set tings</w>
ser v
separ ates</w>
separ ated</w>
sen ds</w>
sen ding</w>
semi- formal</w>
semi- circle</w>
sem ble</w>
selec ts</w>
selec tions</w>
sel ler</w>
sel f
self -
see ing</w>
secur e</w>
sec uring</w>
sec tions</w>
seas hel
se ws</w>
se wer</w>
se w</w>
se qu
sequ ence</w>
se min
semin ar</w>
se dan</w>
se as</w>
se al</w>
scru ffy</w>
scri p
scri m
scrim mage</w>
scre ens</w>
scre ened</w>
scrat ches</w>
scra pping</w>
scra m
scram ble</w>
scra bble</w>
scor ing</w>
sco res</w>
sco red</w>
scho ols</w>
scar y</w>
scar fs</w>
scaffol ds</w>
sc ythe</w>
sc rubbing</w>
sc an</w>
saxo phon
sau sage</w>
sau ce</w>
sandwic hes</w>
san itation</w>
salu ting</w>
salu te</w>
sal es
sales man</w>
sai lors</w>
sad dled</w>
sa x</w>
sa ws</w>
sa ving</w>
s wallowing</w>
s sian</w>
s pu
s on
s nail</w>
s man</w>
s low</w>
s ling</w>
s lan
s king</w>
s day</w>
s ash</w>
s amp
samp les</w>
s ales</w>
s a</w>
s .</w>
ru sted</w>
ru st</w>
ru gged</w>
rout ines</w>
rough -
roller-bla ding</w>
rock er</w>
ro yal</w>
ro t
ro s</w>
ro cs</w>
ro ads</w>
ro a
roa sting</w>
river bed</w>
rit ated</w>
rin sing</w>
rif les</w>
ri st</w>
ri sk</w>
ri sh</w>
ri ously</w>
ri dges</w>
ri cs</w>
ri bs</w>
ri ble</w>
retrie ve</w>
rest ara
restara unt</w>
respec tively</w>
respec tive</w>
resid ence</w>
resid en
residen tial</w>
rese arch
research ers</w>
repor ters</w>
repe lling</w>
repair man</w>
ren ces</w>
reluc tantly</w>
reluc tant</w>
releas ing</w>
releas es</w>
releas e</w>
rela xed</w>
regi stered</w>
reg alia</w>
reg al</w>
refu ge</w>
reflec ts</w>
reen ac
reenac tment</w>
recor der</w>
recei ved</w>
rec ycling</w>
rec ted</w>
rec lining</w>
rec ital</w>
rec ent</w>
re tte</w>
re taining</w>
re sour
re sem
re no
re member</w>
re ma
re gar
regar ding</w>
re fri
refri ger
re fresh
refresh ments</w>
re b
reb ound</w>
re as
reas on</w>
re action</w>
re acting</w>
ran dom</w>
ran d
rack ets</w>
ra y</w>
ra w</w>
ra ging</w>
ra dor</w>
ra d</w>
r um
r i</w>
r ates</w>
r at</w>
r al
quil ted</w>
qui et
quiet ly</w>
questi ons</w>
questi on</w>
qu es</w>
qu art
quart et</w>
puzz led</w>
pun ches</w>
pu tt</w>
pu ff</w>
protec tors</w>
projec tion</w>
progr ams</w>
pro vement</w>
pro ps</w>
pro per
pro p</w>
pro jects</w>
pro cla
procla im</w>
pro -
pri vate</w>
pri ce</w>
presen ted</w>
pre viously</w>
pre tzels</w>
pre tend</w>
pre sumably</w>
pre ssed</w>
pre school</w>
pre pping</w>
pra ys</w>
pow dered</w>
poun cing</w>
poun ces</w>
post cards</w>
possi ble</w>
por tant</w>
por t-
por k</w>
popula ted</w>
polka- dotted</w>
pol is</w>
po ten
po mpo
pompo ms</w>
po mer
pomer ani
pomerani an</w>
po ll
poll ution</w>
po di
podi ums</w>
plat forms</w>
plan ks</w>
pla ster</w>
pla que</w>
pla ci
placi d</w>
pla card</w>
pl ume</w>
pl ic
pl an</w>
pit bull</w>
pine apples</w>
pine apple</w>
pi zz
pi pers</w>
pi gs</w>
pi d</w>
pi ans</w>
physi cally</w>
pharmac y</w>
per uses</w>
per fe
per f
per cu
percu ssion</w>
per ch</w>
peo ples</w>
pengu ins</w>
pedd ling</w>
ped al
peb bles</w>
pe red</w>
pe ppers</w>
pe l
pel ican</w>
pe ep</w>
pe bble</w>
pe ar
pear ls</w>
pe an
pe aking</w>
pat ties</w>
pat rolling</w>
pat chy</w>
past a</w>
pas ser</w>
partici pant</w>
partic ular</w>
parasa il</w>
parachu tist</w>
par rot</w>
par ks</w>
par k
par ap
parap her
parapher n
paraphern alia</w>
paper back</w>
pan cakes</w>
pan ad
panad as</w>
pajam a</w>
padd led</w>
pa vilion</w>
pa ths</w>
pa stel</w>
pa lace</w>
pa go
pago da</w>
p t</w>
p per
p out</w>
p our</w>
p oul
poul try</w>
p lywood</w>
p low</w>
p f</w>
p amp
pamp h
p acks</w>
ow l</w>
ow a</w>
over cast</w>
out er</w>
out board</w>
ous -
our ful</w>
oun cement</w>
ou ston</w>
ou sting</w>
ou d</w>
orna ments</w>
orna men
ornamen tal</w>
orm al</w>
ori gin</w>
ore ver</w>
oran ge-
orange- red</w>
or ous</w>
or n</w>
or e</w>
or din
ordin ary</w>
or ak</w>
or a
ora h</w>
opp er</w>
opin ions</w>
oper ator</w>
oper ate</w>
open ings</w>
op er</w>
ong side</w>
one- man</w>
one er</w>
on der</w>
on coming</w>
olo gy</w>
ol ympics</w>
ol ing</w>
ol es</w>
offic i
offici als</w>
offe red</w>
off- white</w>
off- screen</w>
off er</w>
of t</w>
occur red</w>
oc ca
occa sion</w>
ob struc
ob scene</w>
o xygen</w>
o ve
o val</w>
o s
o o</w>
o dd
odd ly</w>
o bl
obl i
obli vious</w>
o ars</w>
nu t</w>
nu al</w>
no c
ninj a</w>
nib bles</w>
ni shed</w>
ni ps</w>
new sca
new s
neighbor s</w>
neck tie</w>
ne go
nego ti
ne ed</w>
ne cks</w>
ne at
neat ly</w>
ne ars</w>
nati ves</w>
na vigate</w>
n ouncement</w>
n ormal</w>
n on-
n ited</w>
n ing
n g</w>
n ation</w>
n as</w>
n ames</w>
mur als</w>
mul titasking</w>
mul ch</w>
mu stang</w>
mu sed</w>
mu gs</w>
mp er</w>
moun t</w>
motor- scooter</w>
motor- cross</w>
moti oning</w>
mot h</w>
mor abil
morabil ia</w>
moo red</w>
model ing</w>
mo wed</w>
mo tions</w>
mo ssy</w>
mo ss</w>
mo ss-covered</w>
mo od</w>
mo ms</w>
mo li
mo b</w>
mix ture</w>
misc hi
mischi e
misc el
miscel lan
miscellan e
miscellane ous</w>
mirro rs</w>
mini- golf</w>
ming ling</w>
min gle</w>
min ers</w>
mil ls</w>
mil ling</w>
mil king</w>
mic al</w>
mi st</w>
mi ssed</w>
mi me</w>
mi gr
migr ation</w>
metal working</w>
mess ages</w>
medi c</w>
me xican</w>
me t</w>
me morabilia</w>
me lon</w>
me l
me d-
med- evil</w>
me ats</w>
me an
mat tresses</w>
mas ses</w>
mas sage</w>
mas s</w>
mar tini</w>
mar shy</w>
mar shal</w>
mar i
mari achi</w>
mar ac
marac as</w>
manipula ting</w>
manic ured</w>
man ure</w>
man u
man tle</w>
man e</w>
man a
mana gement</w>
main tain</w>
main ly</w>
mag ic
magic ian</w>
ma uve</w>
ma sterpiece</w>
ma ple</w>
ma ker</w>
ma je
m y
m ped</w>
m over</w>
m ounds</w>
m old</w>
m atic</w>
m al
mal let</w>
lu xury</w>
lu str
lu lar</w>
lu ck</w>
low ering</w>
lou d
loud speaker</w>
long- distance</w>
lon ging</w>
lon don</w>
locomo tives</w>
locomo tive</w>
lock ers</w>
loa f</w>
loa der</w>
lo vers</w>
lo ses</w>
lo it
lo cking</w>
lo cker</w>
lli ant</w>
ll ed</w>
lin ked</w>
lin ens</w>
ligh t-
lic s</w>
lic ked</w>
li zard</w>
li ons</w>
li mbs</w>
li kes</w>
li fier</w>
li an</w>
let tuce</w>
let tering</w>
leas e</w>
lear ns</w>
lear n</w>
lea ve</w>
lea ped</w>
lea gues</w>
le- like</w>
le ys</w>
le vels</w>
le v
le tting</w>
le ss
le m</w>
le in</w>
le i
lei surely</w>
le go</w>
le ft-
left- handed</w>
lay up</w>
lar ge-
lar es</w>
lap sed</w>
lap se</w>
landsca ping</w>
landsca ped</w>
lake -
lake- side</w>
la vender</w>
la va</w>
la tin</w>
la ter</w>
la ska</w>
la mps</w>
la mbs</w>
la ck</w>
la c</w>
la bra
labra doo
labradoo dle</w>
l el
lel ight</w>
l a</w>
kno tted</w>
kno ck</w>
kn ol
kn it
knit ted</w>
kimon o</w>
ki sh</w>
ki i
kii ers</w>
ke mon</w>
ke e</w>
kar a
kara oke</w>
kabo b</w>
k man</w>
k ill</w>
k el
kel p</w>
jugg ler</w>
ju ggle</w>
ju dge</w>
journ al</w>
jo y
jo stle</w>
jo king</w>
jack hammers</w>
jack -
jack- o-
ja b</w>
j ousting</w>
j ap
jap anese</w>
j ack</w>
j ac
jac ent</w>
it ty</w>
it ch</w>
it age</w>
ish -
ir ritated</w>
ip ation</w>
invol ves</w>
intri gued</w>
inter net</w>
inter national</w>
instruc tors</w>
instruc tions</w>
instruc tion</w>
inspec tors</w>
inner tube</w>
ing -</w>
ine ken</w>
indi gen
indigen ous</w>
incredi ble</w>
in- operated</w>
in verted</w>
in spired</w>
in sect</w>
in noc
in g-
in formally</w>
in deer</w>
in d
in col
incol n</w>
in cen
incen se</w>
in ary</w>
im provement</w>
im portant</w>
im migration</w>
im itation</w>
illumin ating</w>
il lustr
il ler</w>
il lac</w>
il er</w>
ig n
id le</w>
ice- skating</w>
ic tori
ic king</w>
ic ic
i zing</w>
i zed</w>
i ze</w>
i ssue</w>
i sle</w>
i ser</w>
i rons</w>
i que</w>
i k</w>
i glo
iglo o</w>
i do
hy dra
hydra ulic</w>
hur sday</w>
hur ry</w>
hun ter</w>
hum ping</w>
hum ans</w>
hu gged</w>
house hold</w>
horse men</w>
horizon tal</w>
hor ts</w>
hoo ked</w>
hoo dies</w>
home work</w>
hol low</w>
ho ps</w>
ho ping</w>
ho n
ho mes</w>
ho mas</w>
ho key</w>
ho i
ho g</w>
hitch hiking</w>
hit ter</w>
hit ching</w>
histori cal</w>
hip sters</w>
hin e</w>
high- heeled</w>
high- five</w>
hi p</w>
hi jab</w>
hi gan</w>
hi des</w>
hi de</w>
hi d</w>
her on</w>
her itage</w>
her bs</w>
hel per</w>
hel lo</w>
head light</w>
head first</w>
head dresses</w>
head bu
headbu tting</w>
he ight</w>
he dges</w>
hau l</w>
hatch et</w>
harve sted</w>
hard- hat</w>
hard ware</w>
har vest</w>
har ne
happ y-
handra ils</w>
handkerchi efs</w>
hand shake</w>
hand ler</w>
hand led</w>
hand hold</w>
hand gun</w>
hand bags</w>
ham ming</w>
half way</w>
hair y</w>
hair dresser</w>
hair do</w>
ha p
ha mper</w>
ha el</w>
gyp sy</w>
gy ro</w>
gui ding</w>
gui de
guide book</w>
gue sts</w>
guar dra
gu ides</w>
gro wn
gro wling</w>
grin ning</w>
grin der</w>
grin d</w>
gril led</w>
gri ps</w>
green ish</w>
green house</w>
gre t</w>
gre ets</w>
gras ses</w>
gras s
gras ps</w>
grand parents</w>
grand father</w>
graffiti -
graffit ed</w>
gra ins</w>
gra in</w>
gr o</w>
gr in</w>
gr ic
gr ate</w>
goof y</w>
gon dol
gondol a</w>
golf ers</w>
go- kart</w>
go lian</w>
glo wing</w>
glo be</w>
glit tery</w>
gli des</w>
glan cing</w>
glan ces</w>
gla ssy</w>
ginger bread</w>
gi sts</w>
ger ido
gen er
ge yser</w>
ge st</w>
gar ter</w>
gar ments</w>
gar ish</w>
gam bling</w>
gall on</w>
ga p</w>
ga in</w>
g ster</w>
g rooms</w>
g room
g oth</w>
g lue</w>
g ham</w>
g ant</w>
fun ky</w>
fun dra
fundra iser</w>
fun ction</w>
fu ture</w>
fu riously</w>
fron ds</w>
fro wns</w>
fro wn</w>
fro thy</w>
fro lics</w>
frin ged</w>
fri s
fri lly</w>
free style</w>
fre sco</w>
fre ight</w>
fran tically</w>
fou rs</w>
fore hand</w>
fore front</w>
fore arm</w>
foot bal
fol ds</w>
fol ders</w>
fol der</w>
focu sing</w>
fo cal</w>
flu tes</w>
flu id</w>
fli pped</w>
fli er</w>
fle xing</w>
fle xible</w>
flambo yant</w>
fla shy</w>
fla sh</w>
fla p</w>
fla me</w>
fit ting</w>
fit ted</w>
finger nails</w>
fil med</w>
fil ed</w>
figur ines</w>
fier cel
fiercel y</w>
fier ce</w>
fi ddles</w>
ff in</w>
fet ches</w>
fer ris</w>
fer ns</w>
fen c
fenc ers</w>
fe els</w>
fe ature</w>
fau x</w>
fati gues</w>
fati gued</w>
far ming</w>
fam ous</w>
fal c
falc on</w>
face- painted</w>
f ly
f low</w>
f linging</w>
f are</w>
eye ing</w>
eye bro
eyebro ws</w>
ey ed</w>
extra vagant</w>
experi ments</w>
experi en
expe c
exerci ses</w>
execu tes</w>
exam ined</w>
ex tin
ex terior</w>
ex per
ex otic</w>
ex hau
ex am</w>
ever greens</w>
even ly</w>
eu ropean</w>
ethnic ities</w>
et namese</w>
escala tors</w>
er- Man</w>
er ies</w>
entertain ers</w>
enjo yed</w>
enga ging</w>
end ar</w>
en velope</w>
en treprene
en tran
en tral</w>
en sure</w>
en semble</w>
en ches</w>
emp tying</w>
emb races</w>
em panadas</w>
ele gant</w>
elabor ately</w>
el lo</w>
el i</w>
el es</w>
eg way</w>
ee ps</w>
ed E
edE x</w>
ec statically</w>
ec cen
eag le</w>
e- dyed</w>
e yeliner</w>
e uro</w>
e ss</w>
e spresso</w>
e se
e rected</w>
e motion</w>
e ing</w>
e gret</w>
e gg
e ep</w>
e dle</w>
e di
e cle
ecle ctic</w>
e ball</w>
dy e</w>
du eling</w>
du c
drun ken</w>
drum ming</w>
drum mers</w>
dri lls</w>
dri fts</w>
dri bble</w>
dra wings</w>
dra wers</w>
dra wer</w>
dra pe</w>
dra in</w>
dra gster</w>
dra gs</w>
dra b</w>
down ward</w>
dou gh
dou ble-
double- decker</w>
door step</w>
don ations</w>
dol lar</w>
docu ments</w>
do wning</w>
do ms</w>
do med</w>
do cked</w>
dle- Eastern</w>
diti oning</w>
distri ct</w>
discu sses</w>
disco vering</w>
dirt- bike</w>
direc t</w>
did gerido
dia gr
di stracted</w>
di sinterested</w>
di sco</w>
di sa
di plo
di p</w>
di m</w>
di ffic
di d</w>
di aper</w>
di am
diam ond</w>
di ag
deter gent</w>
desig ning</w>
descri bing</w>
depic ted</w>
den tal</w>
den s</w>
deli vering</w>
del ion</w>
del ight</w>
defen ding</w>
dec ides</w>
de w</w>
de vil</w>
de termined</w>
de tail</w>
de s
de moli
de cked</w>
de ci
deci ding</w>
de a</w>
dd ling</w>
dang ling</w>
dan delion</w>
dalm ati
d- looking</w>
d umping</w>
d ue</w>
d lelight</w>
d j</w>
d ic
d ging</w>
d ged</w>
d ash</w>
d aring</w>
d ai
d achshun
cuto ff</w>
custo ms</w>
custo dy</w>
curi ously</w>
cur vy</w>
cur b
curb side</w>
cul ture</w>
cul tural</w>
cul inary</w>
cu tter</w>
cu touts</w>
cu s</w>
cu pping</w>
cu c
cru shed</w>
cro w</w>
cro p</w>
cree py</w>
cre ation</w>
cray ola</w>
cra mped</w>
cra mmed</w>
cra bs</w>
cr umbling</w>
cr ank</w>
cr acked</w>
coun tries</w>
coun ting</w>
cou ts</w>
cou ld</w>
cou ches</w>
cot tage</w>
cor sage</w>
cor rec
cor k</w>
coo k
conver ses</w>
contin gent</w>
conte sted</w>
conte stant</w>
contain ed</w>
cont rolled</w>
conso les</w>
cons ults</w>
cons ulting</w>
congreg ation</w>
concentr ating</w>
con veyor</w>
con torts</w>
con sum
con if
con ic</w>
con doms</w>
con di
con cer
comple tes</w>
comm on</w>
comfor ts</w>
comfor ter</w>
comfor t</w>
com posed</w>
com partment</w>
com ical</w>
com ic</w>
colon ial</w>
colli sion</w>
col ourful</w>
col leagues</w>
col league</w>
col i</w>
col a</w>
coast line</w>
co worker</w>
co py</w>
co ps</w>
co pies</w>
co m</w>
co ke</w>
co in-operated</w>
co eds</w>
co b</w>
co ated</w>
co aching</w>
co aches</w>
co ached</w>
clu stered</w>
clou ded</w>
clo sing</w>
clo g</w>
clip board</w>
climb ed</w>
cli ps</w>
cle ver</w>
classi cal</w>
clas ps</w>
cl icking</w>
cl enches</w>
ck le</w>
citi zen</w>
circu its</w>
cir c
ci vilians</w>
ci sco</w>
ci ate</w>
chu res</w>
choreograph ed</w>
cho res</w>
cho ppy</w>
chisel s</w>
chin atown</w>
chil i</w>
chi sel</w>
chi pping</w>
chi ef</w>
chemi stry</w>
cheer ful</w>
chee red</w>
che st
che mical</w>
chan ging</w>
challen ging</w>
cha ir
certi fic
cel lular</w>
cel ls</w>
ce ss
ce an
cean side</w>
carpen ter</w>
car tons</w>
car a
cara van</w>
cap ture</w>
cap tivated</w>
cap ri</w>
cano eing</w>
can dlelight</w>
camp ground</w>
cam pus</w>
cam o</w>
cal mly</w>
cal endar</w>
ca vern</w>
ca st
c ylin
c lea
c coli</w>
bystan der</w>
but tons</w>
bush el</w>
bur ying</w>
bur rit
bur n</w>
bur ger</w>
bun k</w>
bun dles</w>
bun ches</w>
bull et</w>
bul bs</w>
buil ds</w>
buil der</w>
buff al
buffal o</w>
bu ys</w>
bu st</w>
bu sking</w>
bu sker</w>
bu sily</w>
bu n</w>
bu m</w>
bu g</w>
bu cked</w>
bu ck</w>
brun et</w>
browni sh</w>
broo k</w>
bro thers</w>
bro chures</w>
bro ccoli</w>
bro ad
brin dle-
brief cases</w>
bridesm aid</w>
bri lliant</w>
bri gh
breast stroke</w>
break dances</w>
bre eze</w>
bre ast</w>
bra id</w>
bra -
br ing</w>
bow led</w>
bout ique</w>
bott led</w>
boo t</w>
bon net</w>
bon fire</w>
bon ding</w>
bo wing</w>
bo ne</w>
bo mb
bo aters</w>
blue- shirted</w>
blu r</w>
blu es</w>
blu e
bloo ming</w>
bloo dy</w>
blond- headed</w>
blin ds</w>
blin d</w>
blan kly</w>
black smith</w>
black board</w>
bla sts</w>
bl ank</w>
bin der</w>
billi ard</w>
bi stro</w>
bi bs</w>
bi ans</w>
ber ries</w>
bel ls</w>
beau ty</w>
be spectacled</w>
be mused</w>
be e
be ds</w>
be come</w>
be an</w>
be aker</w>
be ach
bath es</w>
bat ting</w>
bat ics</w>
bas ed</w>
bar n</w>
bar es</w>
bar bed</w>
bar -
bar- b-
bandan nas</w>
band age</w>
bal ling</w>
bag pipers</w>
backp ackers</w>
back flip</w>
back ed</w>
back -up</w>
back -
ba zaar</w>
ba the</w>
ba le</w>
ba king</w>
ba ker</w>
ba ke</w>
ba gel</w>
b ump</w>
b race</w>
b out</w>
b its</w>
b ility</w>
b ad</w>
b acking</w>
avi ator</w>
aver age</w>
au ditioning</w>
atten tive</w>
atten ds</w>
atten ded</w>
att acking</w>
att acked</w>
att ack</w>
att aching</w>
ate way</w>
ate ver</w>
ate dly</w>
at y
at v</w>
at t</w>
at m</w>
at -
assor ted</w>
assi sts</w>
assi sted</w>
assi stance</w>
ash tray</w>
ascen ds</w>
as y</w>
as sign
as car</w>
armo red</w>
architec ture</w>
architec tural</w>
archaeolo gists</w>
ar ray</w>
ar range</w>
ar is</w>
ar ches</w>
appro pri
appro ached</w>
appre ciate</w>
appla uding</w>
appar ently</w>
app y</w>
antic ipation</w>
ant lers</w>
answ er</w>
anim atedly</w>
anim ated</w>
ang els</w>
an xiously</w>
an orak</w>
an ny</w>
an nouncement</w>
an ger</w>
an d
an cy</w>
amp lifier</w>
am sung</w>
am bulance</w>
am ber</w>
am a</w>
ali ze</w>
ali st</w>
alcoho lic</w>
al ways</w>
al vin</w>
al ty</w>
al titude</w>
al tar</w>
al pine</w>
al oud</w>
al ongside</w>
al oft</w>
al lows</w>
al ign</w>
al ie</w>
al bum</w>
ak land</w>
air line</w>
aim s</w>
aga in</w>
ag it
affe ction</w>
af ar</w>
adven turous</w>
adven ture</w>
adm ire</w>
ad jacent</w>
ad dy</w>
ad ds</w>
ad d</w>
ad a</w>
acro batics</w>
acro bat</w>
accompani ment</w>
ac y</w>
ac tive</w>
ac tions</w>
ac ce
ab stract</w>
ab st</w>
ab rador</w>
a wk
a wasa
a waiting</w>
a ston
a side</w>
a sians</w>
a le</w>
a haw
a gric
a ging</w>
Z une</w>
Y el
Y ear</w>
Y an
Y M
YM C
YMC A</w>
X X
Wo man</w>
We stern</w>
Wal kman</w>
W or
W onder</w>
Vol le
Vol kswagen</w>
Vi etnamese</w>
V ictori
V W</w>
V E
U p
U nited</w>
U FC</w>
U CK
U B
UB A</w>
Ty e-dyed</w>
Tha i</w>
Te a</w>
TH IN
THIN G</w>
T wister</w>
T w
T ri
T ree</w>
T rader</w>
T ou
T im</w>
T i
T hursday</w>
T homas</w>
T he
T h
T ar
T ank</w>
Sun day</w>
Ston es</w>
Spid er-Man</w>
Sp ace</w>
Sou theast</w>
Sho p</w>
Se same</w>
Se ahaw
Sal vation</w>
S veral</w>
S ummer</w>
S tyrofoam</w>
S tory</w>
S tates</w>
S tar</w>
S kiiers</w>
S k
S ide</w>
S horts</w>
S hel
S eries</w>
S egway</w>
S couts</w>
S amsung</w>
S a
S W
S C
SC UBA</w>
Ru ssian</w>
Ru n</w>
Ri bbon</w>
R oo
R odgers</w>
R o
R ican</w>
Pop sicle</w>
Po wer</w>
Po kemon</w>
Pen n</w>
Pe lo
Pat rick</w>
Par is</w>
Par ade</w>
P rin
P ri
P or
P an
P ain</w>
P abst</w>
Ou t
Ori oles</w>
Ore gon</w>
Olym pians</w>
O xford</w>
O ld</w>
O hio</w>
O h</w>
O U</w>
O THING</w>
O ME</w>
Not re</w>
Ne edle</w>
Na vy</w>
N or
N Y
N OTHING</w>
N E
N D</w>
Mr s.</w>
Mr .</w>
Minne sota</w>
Mid dle-Eastern</w>
Mic higan</w>
Mic hael</w>
Mar x</w>
Mar di</w>
Ma c</w>
M ul
M organ</w>
M or
M en</w>
M el
M an
M ad
M ac
M M
MM A</w>
M C</w>
Lou vre</w>
Lo ve</w>
Li ve</w>
Li fe</w>
Le B
LeB ron</w>
L os</w>
L ong
L incoln</w>
L e</w>
L as</w>
L abrador</w>
L A</w>
Ko mo
K lein</w>
K itty</w>
K ing</w>
K eep</w>
K aya
K awasa
K E</w>
Ju st
Joh ns</w>
Je ep</w>
Jack son</w>
J im</w>
J ames</w>
J a
Ital y</w>
Is ra
I z
I slamic</w>
I owa</w>
I C
I -
Ho ckey</w>
Her o</w>
He ineken</w>
Har lem</w>
H ouston</w>
H ouse</w>
H opper</w>
H appy</w>
Grou cho</w>
Gre yhound</w>
Gre at</w>
Gra s</w>
Gi ants</w>
Gar dens</w>
G rand
G o
G la
G e
G O</w>
Fla g</w>
Fi re
Fac tory</w>
F orever</w>
F in
F edEx</w>
F e
F ar
Eng ine</w>
En rolling</w>
Ele ven</w>
Ele mentary</w>
El derly</w>
E x
E L
Do o</w>
Da vid</w>
D ob
D en
D arth</w>
D ane</w>
D ame</w>
D ad</w>
D I
Cyc lone</w>
Co ke</w>
Cir cus</w>
Che v
Ch ri
Cap ris</w>
Can yon</w>
Ca stro</w>
C rocs</w>
C or
C ol
C li
C la
C hil
C hi
C entral</w>
C are</w>
C alvin</w>
C .
Bu siness</w>
Bo o
Bir thday</w>
Bi g</w>
Bas eball</w>
Bal timore</w>
B ra
B ill</w>
B each</w>
B e
Asi an
Ara b</w>
Ang eles</w>
Air ways</w>
A v
A tlanta</w>
A laska</w>
A l
A M</w>
A H
A G
A C
8 0</w>
6 3</w>
5 0</w>
3 8</w>
20 08</w>
2 .
1 95
1 8
1 4</w>
1 3</w>
0 00</w>
. com</w>
- wheeler</w>
- type</w>
- phone</w>
- goers</w>
- deep</w>
- block</w>
, 000</w>
